#version: 0.2
e r
e n
i n
c h
Ġ a
Ġ t
o n
i s
e s
Ġ d
h e
a n
o r
Ġ s
u n
i t
a t
Ġ w
i e
r e
Ġ S
Ġ f
Ġt he
a r
a s
i on
t e
Ġ T
Ġ b
Ġ D
Ġ A
a l
Ġ m
r o
Ġ I
Ġ E
Ġ o
l e
i ch
Ġ c
Ġ in
Ġ is
Ġ M
Ġ W
u s
Ġ p
Ġ n
Ġ P
u r
g e
Ã ¼
Ġ h
o m
Ġ e
Ġ B
en t
l l
Ġa n
Ġ F
e d
Ġ v
un g
Ġo f
Ã ¤
in g
Ġt o
t er
Ġ C
Ġ H
un d
i r
i c
e l
Ġt h
Ġ g
i g
s t
r a
i m
Ġ R
i l
o u
e t
Ġ G
at ion
Ġan d
Ġ K
Ġb e
Ġ 2
Ġ l
er e
Ġd er
o l
ĠT he
Ġ (
Ġ V
Ġ L
u t
Ġ 1
Ġe in
e m
c t
i d
o t
i es
Ġf or
Ġ z
Ġd ie
Ġ re
u m
Ġ und
h r
Ġ N
0 0
a m
Ġ k
Ġis t
t en
Ã¼ r
an d
om m
ich t
t a
Ġ y
r es
v e
b er
e it
Ã ¶
ĠT h
Ġ U
ĠI n
o s
o w
g en
Ġ on
s ch
a b
in d
u f
ĠS ie
c e
f or
ro p
i er
Ġa re
a ch
l y
is s
es t
Ġ O
v er
d er
Ġs e
i ll
Ġf Ã¼r
Ġ -
d en
ĠD ie
u l
d e
l ich
Ġ un
or t
c k
ĠE u
Ġ Z
u ch
a y
Ġ J
ĠA n
is ch
. .
i f
k t
Ġ ge
Ġw ir
o ur
k e
Ġ im
ĠEu rop
er s
Ġa l
Ġs t
E R
Ġy ou
p p
o te
Ġc on
Ġn e
for m
ĠW e
l a
Ġv er
Ġd as
omm iss
Ġp ro
Ã Ł
es s
it h
E N
Ġz u
Ġth is
Ġw e
i en
in e
l d
at e
a d
Ġv on
us t
Ġn ot
ĠR e
t s
an n
q u
t h
f f
m ent
ommiss ion
Ġa t
Ġw ith
Ġd ies
ĠD as
Ġd en
o p
i b
Ġd e
Ġh a
Ġn icht
Ġth at
ĠS t
Ġw ill
Ġw as
form ation
Ġ er
Ġ it
res s
ĠU n
Ġa uf
o d
ĠE U
s s
us s
u b
Ġd es
h en
i v
ĠV er
ung en
i ve
a h
en d
i a
in is
Ġm e
o ll
n en
Ġ2 00
al l
an t
ou ld
ĠTh is
Ġ r
Ġha ve
or e
Ġ 3
f t
Ġ j
ar t
h t
i k
n e
ĠM r
O N
is t
Ġd o
ote l
inis ter
it te
ĠS ch
ĠW ir
m en
a ge
Ã¼ ber
Ġs ind
it y
p e
Ġe x
Ġal s
Ġa b
ĠP ro
Ġw h
an k
Ġw er
Ã¤ n
ĠI t
l and
Ġ .
Ġa ll
Ġm it
ĠEurop e
Ġein e
Ġb y
Ġ es
ie l
a g
u g
er r
A N
E S
i al
Ġun s
ro m
o k
ĠE r
as e
ion s
Ġs h
as s
Ġ Ã¼ber
s te
Ġwer den
g r
ĠB e
ĠE n
p ort
Ġc om
a k
w e
z e
u p
im m
ĠI ch
as t
Ġs ich
Ġ le
u e
a il
u re
o ch
id ent
C H
Ġc an
ic e
.. .
o un
isch e
Ġ he
Ġ us
T I
es ch
U N
T E
Ġa s
ĠD ies
er n
ĠP ress
m e
ar d
r an
Ġ 4
te d
Ġh as
Ġs o
ĠC ommission
Ġwir d
ĠM inister
Ġ ch
ĠW h
ĠD er
Ġf rom
R O
Ġh ab
b en
a hr
Ġa us
a ck
a in
Ġy our
ĠS e
l o
l os
0 1
an g
Ġ or
ĠH err
ic k
ĠF or
Ġs ch
i ge
Ġ res
Ġ ich
ung s
ar k
Ã¤ r
ĠEurope an
o st
u d
i p
o c
Ġ 5
ĠD e
Ã¶ n
s e
Ġa m
r Ã¤
Ġo ur
f er
Ġals o
it e
ab le
ĠA b
ĠH otel
Ġ Y
ĠIn formation
om e
Ġ :
I N
ĠE s
Ġa uch
Ġd em
Ġm ore
ie d
3 2
h al
Ġ um
a ke
i re
ter n
ĠE in
b e
ou t
Ġf ind
Ġ "
d u
9 9
Ġa d
b le
th er
Ġ Ã
Ġw or
a p
Ġ ro
ĠK ommission
e in
Ġ en
Ġs ta
i o
z en
ĠA r
Ġw ould
Ġh at
i ke
ĠF ra
I S
es e
Ã¼ ss
ĠS p
Ġver y
Ġin formation
Ġg o
id e
o g
sch a
a us
ct ion
h er
on ta
ar y
r u
ul t
he it
ct s
Ġm Ã¶
Ġ ent
c l
ch e
A L
ig en
ĠEurop Ã¤
Ġl ike
Ġ qu
Ġth ere
c c
Ġ 0
is e
Ã¤ t
Ġhab en
ĠTh at
er v
Ġs ie
Ġv or
w er
le ase
t w
Ġw ar
on e
Ġm an
ĠF in
s p
a u
et z
ro und
eit ere
ĠI h
ation s
m er
ig ht
a re
ĠA l
re e
t r
en s
A R
j e
o v
ra m
isch en
ig n
I T
i z
u te
g t
ĠV or
an ce
ĠInformation en
h l
b eit
Ġz ur
ĠG e
te ll
g er
Ã¼ n
er m
ĠB r
Ġ( +
Ġ 6
E L
Ġcom p
a v
ĠA us
ĠB er
at ed
O R
omm en
Ġ 7
it ion
Ġs p
im e
Ġp r
Ġk Ã¶n
in ter
p t
a c
ie w
or d
ĠmÃ¶ ch
Ġ i
b s
ĠWh at
g ram
am e
ĠT e
em ber
en n
Ġa pp
ch en
f e
ĠTh ere
in k
Ġun ter
ib t
n er
ier t
UN G
Ġk ann
g l
al ly
re ich
Ġn o
Ġab out
ĠG r
c on
lich e
ĠN e
p l
Ġse in
Ġa g
Ġbe en
ĠL e
t ra
I L
ent s
r it
Ġ ...
ar l
Ġne ed
rÃ¤ s
Ġ 9
ĠC h
o in
o ok
Ġne w
i le
Ġ2 01
f Ã¼
Ġ 8
U S
ĠS o
Ġm ust
el t
m p
gr und
Ġt e
ĠP res
ĠM ar
k eit
Ġk e
scha ft
an z
g round
e ar
Ġh ier
ĠkÃ¶n nen
Ġ up
s en
rÃ¤s ident
ub l
il d
Ġv ote
at es
ĠH ow
ĠY ou
ĠW eitere
Ġw ur
Ġs u
A T
u ÃŁ
is h
ier en
Ġn och
t o
Ġw ie
Ã¶ r
f en
O M
ol gen
ĠM it
Ġd a
ĠA N
ack ground
Ġs pe
Ġro om
on g
Ã¼ ck
) .
ĠH inter
Ġsh ould
Ġsta y
re at
ĠU N
ol it
a ir
Ġon e
v el
ĠEU RO
Ġse hr
o b
Ġ1 2
Ġs te
ĠHinter grund
us e
i an
Ġn ach
ĠC oun
Ġdies e
c il
Ġp art
ĠB ackground
am ent
ĠF r
t z
Ġz um
ĠEuropÃ¤ ische
Ġ |
ing s
Ġb et
Ġt ra
Ġb es
Ġh otel
on s
re t
Ġp l
an ge
p er
te t
ĠPres ident
ĠW ie
x t
Ġ1 0
b ar
T S
ig h
Ġa v
Ġp er
Ġwh at
Ã¼ss en
ation al
ur ch
Ġs oll
ah l
at en
Ġg en
ĠS ta
ĠA ll
ĠA uf
H E
Ġo ut
Ġ2 2
w o
c ial
icht ig
m s
Ġein en
Ġn ur
Ġm Ã¼ssen
Ġ Q
el y
ĠCoun cil
te l
ch t
Ġg ibt
ĠW as
Ġg esch
Ġbe i
Ġre g
Ġ1 9
for e
ic al
onta kt
A S
Ġg ro
ge b
00 0
ĠP rÃ¤sident
Ġwor k
el s
p r
h n
Ġs a
3 0
Ġme hr
Ġa r
Ġd is
ĠM e
z u
1 0
E M
y ste
Ġt ime
Ġa cc
Ġm y
at ive
k te
at t
Ġj ed
n ah
ur es
Ġp la
ĠDies e
g es
er t
ĠH e
ES S
ail able
t re
E D
erm an
Ġf e
f ahr
ĠM a
Ġn ow
Ġc los
Ġt ake
Ġgo od
Ġw ere
Ġcon ta
oll ow
Ã Ħ
ĠUn ter
Ġh ere
O L
ĠAn d
a uf
ch n
Ġav ailable
ir st
ĠP r
ĠEURO P
Ġse e
Ġal le
un kt
ĠRe g
ĠIh re
ay s
Ġo der
l ie
I ON
ran s
v en
TI ON
ver y
ĠI N
ut ion
etz t
ow n
i or
eit er
st imm
Ġp os
Ġv iew
ment s
Ġan y
Ġre port
r if
Ġc omm
er al
ĠRe p
ĠUn ion
u al
h men
I C
on t
Ġit s
Ġb is
itte il
R A
p h
f ol
Ġc o
os e
ĠB ut
ĠR ed
l in
c ed
Ġon ly
g lich
Ġde b
le gen
ust r
l ick
p ro
Ġ1 99
ut z
ĠP arl
Ġwur de
Ġg u
Ġdas s
st en
or s
2 00
ĠI hr
Ġ2 9
Ã¤n der
e k
Ġdies er
ĠK ontakt
Ã¤n d
p le
a ct
Ġm a
ĠR at
bs ite
f ter
ĠN ach
ig t
Ġs it
if ied
ĠW hen
al e
iel en
ĠAb stimm
sch e
ĠBer icht
ra che
je ct
ass en
T ER
Ġ1 1
ĠA uss
it ies
Ġpla ce
Ġd ar
u x
Ġ1 4
Ġof f
ĠE x
oin t
e ver
on d
E C
Ġth ese
los sen
air s
ib le
in s
at er
Ġke ine
Ġy ear
ĠZ eit
Ġt r
ĠJ ahr
Ġthe ir
Ġpro du
ff e
pp ort
h o
Ġad d
ble m
Ġfind en
itteil ung
in a
Ġ +
ĠN o
ĠTh ank
ĠÃ ľ
k l
Ġp re
f r
Ġf ollow
ers on
Ġ1 5
ur ther
c y
ubl ic
m a
ge l
ĠG en
ach ten
Ġs erv
ĠFra u
ĠmÃ¶ch ten
Ġm uss
M EN
ie le
c es
Ġl oc
Ġp rop
ĠI m
Ġqu est
3 5
I I
ĠT HE
Ġs ub
Ġ2 0
Ġp e
ff airs
Ġdeb ate
Ġcon t
i um
ĠPress em
R E
Ġcon s
te il
em ent
et t
ĠC omm
Ġk n
Ġc le
Ġm od
Ġim port
m ar
ent r
Ġ ,
at z
it Ã¤t
re i
ĠU m
io us
Ġl ast
Ġin ter
Ġl ie
k ommen
Ġc oun
Ġt wo
ier ung
en ce
al s
Ġwh ich
f l
ire ct
Ġdies em
Ġp age
ab e
u ll
ĠW ann
Ġb ut
ĠIh nen
er g
ĠA ffairs
Ġein er
Ġuns er
Ġg es
ĠP l
ĠP ol
p rache
f ul
yste m
it z
S T
ĠF Ã¼r
Ġf r
Ġo ther
ĠIn tern
Ġb est
ĠAbstimm ung
Ġre lease
ĠIt al
ĠO n
ra g
Ġge t
vel op
an s
Ġh ow
Ġf irst
i ver
ĠAr beit
Ġhe l
Ġag ain
ĠO r
p en
Ġthe y
Ã¤ l
itte l
ĠM an
os tel
uch en
Ġb ed
al t
ll en
ar ge
ĠÃ¼ber n
ĠC O
ĠEurop a
ĠB el
ta in
ĠmÃ¶ch te
h a
imm er
d ay
Ġ22 9
Ġj ust
Ġ200 9
en z
Ġf olgen
ĠPressem itteilung
ĠU hr
1 1
ĠA s
g an
u ation
t schaft
h ing
g ar
w n
IS CH
Ġm uch
c ome
ic es
Ġf o
ate g
ĠC on
it s
Ġuns ere
heit en
p art
Ã¤ ch
ĠD ank
ĠC onta
Ġa ber
Ġs ol
ĠP re
ĠO F
ĠÃ ĸ
Ġdo es
Ġhab e
Ġs ome
ar beit
ĠAuss prache
al k
ĠÃ¼bern achten
Ġgesch lossen
Ġclos ed
ur r
res ent
ion en
c ess
ter s
l ine
is m
Ġ %
om p
A TION
op le
v ent
Ġw el
ĠJ ust
eit e
ĠThe y
Ġein em
ĠH a
ĠI s
ĠUn d
Ġa ct
I R
am men
i ent
gram m
Ġo b
ĠH ier
lich en
Ã¼ss el
f ra
le d
Ġd urch
Ġthe m
Ġm ach
ig er
v est
r ing
ĠP R
sch en
ĠF l
gl ied
Ġf in
Ġre c
u es
E H
or y
con om
in ut
ĠÃľ ber
us ammen
le ct
Ġe very
if ic
ĠEn t
ĠW ar
Ġm ake
ĠA m
Ġo ver
Ġwe ll
ostel s
ĠM ember
ĠA d
a x
il ity
Ġg r
Ġre qu
Ġ1 3
n ung
ark et
fahr en
ur g
Ġst att
we i
Ġ ra
Ġ end
or k
ĠD ER
Ġimport ant
Ġ ers
ĠL and
ur n
ĠD es
M inister
ol og
1 2
u er
o us
in n
ĠA ber
Ġd if
em b
Ġv iel
en den
ĠW el
S P
â Ĥ
âĤ ¬
Ġus e
imm t
u en
Ġcoun tr
ig keit
ĠD E
at h
hal ten
Ġb el
Ġk ein
r ie
ĠF e
Ġkn ow
Ġ1 8
ĠQ u
Ġw ant
Ã¤ hr
Ġv ers
ĠW er
lie ÃŁ
olit ik
ul ar
kl Ã¤r
Ġw eiter
le ich
u rop
M S
Ġpe ople
ag es
ĠF ran
ro w
Ġst r
Ġi h
w ed
id er
Ġg ut
Ġhel p
Ġis s
um ent
Ġr ight
Ġth an
ĠL ux
c ted
ĠD o
Ġb en
ne hmen
Ġund er
ĠAr t
l ung
ĠEu ro
w ir
Ġp ol
ĠR es
Ġde c
Ġ200 7
ic t
Ġh er
. )
ff en
ĠG erman
ic y
f ach
a ce
ie t
Ġfind et
ĠAn ge
Ġin to
Ġe tw
h and
it ed
w ard
ou g
nah men
ĠSch l
ĠUN ION
Ġf re
Ġview s
z eit
Ġl a
gram me
fÃ¼ hr
gen d
ĠM en
G EN
C I
m al
Ġg reat
Ġprop os
o y
Ġz w
ĠConta cts
Ġm ich
Ġto o
Ġ1 6
Ġin cl
Ġne ue
der n
ĠZ u
Ġdies en
ĠCommission er
Ġin s
Ġc ase
E T
Ġv om
Ġa fter
ere in
ĠV ielen
ĠÃ Ħ
f ts
Ġc l
Ġin d
it t
ĠH er
2 0
Ġpro v
Ġ200 8
Ã¶ ff
Ġre m
ĠBel g
ĠE ine
t ige
ich er
re ak
Ġl ook
Ġw ay
Ġconta ct
iv es
Ġsu pport
Ġt rans
ĠT ra
ĠSe c
ĠAnge legen
Ġin tern
st Ã¼
urr ent
Ġp oint
ĠH and
tra g
Ġ3 0
Ġ1 7
f Ã¼r
i ament
ĠM ore
Ġthere fore
Ġc our
wer t
re d
Ġwh o
ĠM ed
ommiss ar
it i
uss els
ĠLux emb
ĠEn tw
ow s
w Ã¤r
Ġcon c
Ġt un
ĠMit glied
ĠTh ese
Ġge ht
st r
ĠG es
Ġz wei
U R
ir on
Ġ2 5
Ġmod ified
hal b
Ġfollow ing
z ie
el d
c o
ot es
ĠFra ge
AN D
iv en
et ail
Ġw ichtig
ĠT o
Ġge gen
ol le
ĠBr ussels
t ing
Ġh o
ig ung
und en
ĠK on
Ġge w
ic ult
la use
k en
ic s
r y
Ġ /
c om
4 0
ust om
tell t
am en
ĠE N
iss e
l es
id en
ere ich
Ġme in
ke hr
Ġf urther
s el
wed en
ĠE R
ĠF ore
la ub
ĠB es
Ġman y
E AN
ĠBr Ã¼ssel
Ġ [
uch t
Ġa ss
ĠD a
is ten
2 5
ĠT el
Ġ X
) :
Ġm o
Ġ âĤ¬
Ġth ink
ĠB et
Ġh ad
il t
pt ion
st and
Ġb ere
ĠA t
v iew
Ġse hen
ĠVer b
ĠIn d
iss en
Ġs c
am p
ĠP RO
T H
h Ã¶r
ĠSt r
if all
Ġha pp
Ġ201 0
ĠFore ign
ur al
ĠPR ESS
Ġh and
ĠAngelegen heiten
ĠM s
Ġgro ÃŁ
Ġv is
con d
w ay
ĠIn ter
ĠWe bsite
at s
Ġm ost
A F
ad y
m ail
ot h
ut sch
y p
velop ment
Ġbe g
Ġj etzt
st a
Ġd el
ĠEntw ick
ĠA uch
. :
Ġp lease
pe ct
Ġgu est
ĠC o
n is
hal t
i ze
it al
ĠZ immer
UN K
Ġquest ion
Ġim mer
qu is
ang u
ĠEuropÃ¤ ischen
G E
cl us
ra ph
it Ã¤
Ġb ra
ro l
ĠVor sch
ug h
ĠS l
ĠNe w
inut es
w end
Ġm ain
ĠW o
ÃŁ nahmen
Ġp h
v iron
um ber
Ġpart ic
Ġpos s
ĠM on
1 5
TE MS
e p
ost en
Ġapp ro
Ġroom s
Ġma de
s ter
ta ble
ab en
ĠO ur
ĠParl ament
I E
ĠH ostels
conom ic
Ġb itte
A M
Ġc ent
om et
Ġjed och
ĠPro du
ÃĦ ISCH
Ġetw as
viron ment
Ġs m
ĠG esch
Ã¼ hr
n et
Ã¤l t
Ġw hen
Ġre l
UNK TE
Ġb us
ĠI TEMS
ĠEUROP EAN
Ġein fach
Ġs im
ol d
Ġare a
v ed
is ion
ch ts
Ġdies es
ĠFin an
Ġn un
l Ã¤
Ġsta ff
Ġc ar
ĠP UNKTE
i x
ĠS h
ĠEUROP ÃĦISCH
Ġt ak
ent lich
ĠUn s
B e
Ġ *
ĠR o
Ġad op
ĠB ar
pp lause
Ġch ange
b st
1 3
at ter
la g
el le
Ġ !
Ġf ree
Ġd ay
I CH
er en
oug h
Ġa c
ien d
er ation
Ġc ustom
ĠK ommissar
Ã ĸ
Ġm arket
o ol
ĠI P
ĠH aus
f all
ĠWh y
r at
ĠF re
ie der
as ed
ĠZ usammen
Ġw eitere
am il
ĠP lease
Ġi hr
Ġp olit
Ġcle ar
4 5
Ġin st
ĠJ an
w it
ĠGr und
ĠG er
Ġm or
Ġex p
le g
ĠAN D
on der
ĠEn erg
Ġdif fer
hl en
itte d
Ġg anz
am it
for t
etail s
al ity
Ġst ill
Ġn at
Ġre p
Ġyear s
ĠUN D
ĠU r
ĠD en
ĠI f
Ġhe ute
s o
kt ion
ĠHow ever
am t
Ġwor ld
igh ts
f ast
Ã¼ h
ĠL age
ĠIntern et
Ġv al
Ġm ay
ĠR icht
z ial
Ġb u
ĠU S
ill ion
at ing
Ġc ann
a z
A C
Ã ľ
i ÃŁ
Ġd r
w are
Ġh is
ow er
4 6
ĠFr ank
ur s
u de
ĠG em
ĠÃĦ n
Ġd own
a ut
Ġcann ot
Ġo pen
Ġe mp
Ġlie gt
Ġs ame
Ġs el
ĠSt ate
Ġpro blem
ĠI r
reak fast
Ġ if
isch er
nah me
mar quis
Ġg er
Ã¶ s
ah er
w elt
Ġacc ess
ĠD ar
Ġg est
Ġs ay
at a
ĠFra gen
Ġconc ern
T he
w Ã¤
ĠDe utsch
Ġst and
Ġth en
Ġv otes
ĠF all
ĠIn n
ĠSe e
Ġd u
g est
ĠI I
n isse
ĠÃĦn der
9 8
ĠB esch
ĠP ort
ĠS te
in ess
ĠCO UN
r icht
Ġn umber
Ġcomp le
Ġm ir
an ia
h ne
Ġre ce
oll en
ĠJ un
P P
Ġle g
Ġdis c
re ch
ON S
id es
ĠGerman y
is p
ĠE C
Ġcour se
Ġf ar
Ġagain st
ĠPr ior
A pplause
ge t
o ck
Ġpol icy
in es
Ġwur den
el n
Ġne xt
Ġc ould
ĠP h
sch lieÃŁ
uf f
Ġ2 8
d em
Ġw enn
wÃ¤r tige
l er
ĠG Ã¤
op e
Ġs et
ion al
k s
Ġ2 4
Ġth ree
ten s
Ġof fer
ho f
I D
ĠR EL
ĠS T
Ġs ystem
ĠGen eral
ach t
Be ifall
u le
ge hen
Ġon line
ĠSp an
ta ur
O S
Ġspe ak
wit ter
Ġpl ay
0 9
f ind
C IL
ĠB ed
land s
) ,
il fe
ĠG o
ge ben
ĠTe il
b al
ent ion
ĠMen schen
ĠV erein
fÃ¼ g
Ġres p
ĠR AT
E U
ĠJ u
Ġfo und
Ġh igh
Ġex am
Ġwie der
ĠG ro
7 5
Ġ &
Ġd irect
abe i
ĠCOUN CIL
B A
Ġh in
ĠWar um
y s
f in
ess en
ĠN et
ĠAl le
ĠK Ã¶n
in nen
Ġd id
Ġsoll te
lo ad
or g
ĠH o
Ġs uch
angu age
Ġs er
w ar
Ġadop ted
Ġs omet
1 6
ĠP art
ĠBe i
ĠP ar
ĠP erson
O U
r is
Ġa ut
ol id
Ġloc ation
an ts
icher heit
0 2
UNG EN
ĠT witter
M ER
re chen
Ġapp l
i pp
w ork
ĠS itz
ĠGÃ¤ ste
Ġm on
Ġbes te
Ġo wn
Ġposs ible
Ġc urrent
for der
fra ge
ĠPro blem
Ġb ie
0 3
Ġsit uation
ĠC an
Ġa ir
ĠFin anz
at ely
Ġin c
Ġw o
Ã¤ re
ĠN at
ĠSec ret
ĠE st
ru ct
Ġd one
an ke
ic a
Ġaus wÃ¤rtige
up t
Ġ ide
Ġb o
tell en
Ġag re
Ġfor m
Ġre as
Ġwh y
urop Ã¤
ĠD em
ie ve
tre ter
ĠW or
k un
h m
Ġst at
Ġp ar
um an
L E
Ġsa id
entr al
Ġe ven
Ġsoll ten
9 6
c r
Ġl ong
cc ess
Ġfr iend
if e
he d
ĠA ustr
w ays
ĠEU R
Ġor der
oun t
Ġe as
ord nung
pl an
Ġ2 1
ĠS erv
9 7
US S
Ġcountr ies
ĠRep resent
ĠL et
uÃŁ er
te m
Ġme as
Ġto day
ĠV ers
ĠS pe
Ġan ge
Ġme ine
ĠDeutsch land
m itted
scha fts
Ġas k
ĠK l
la ge
ĠEr geb
Ġda zu
Ġp ublic
ĠV ER
ur ing
ĠW elt
Ġsh all
ind er
Ġiss ue
ar n
v or
stÃ¼ tz
ik el
F F
m b
Ġex ce
a de
ĠUm welt
Ġih re
erman ent
ink s
ĠD ok
ro ugh
ĠFran ce
Ġd etails
ĠJust ice
ist r
D F
E G
ĠW ort
Ġcont in
Ġ2 3
ĠEr klÃ¤r
Ġf ull
ĠC l
fol ger
Ġd rei
lo y
und e
Ġwe bsite
re ady
Ġan s
ze ich
ĠD irect
ĠW ill
Ġserv ice
m ittel
Ġh al
ĠPro t
ĠM y
Ġprodu cts
ĠC hr
r en
ess er
ĠMa ÃŁnahmen
ĠT rans
Ġte chn
Ġth ank
ĠEntwick lung
op eration
Ġbe ing
Ġst ar
f olgen
Ġp erson
Ġd ann
35 2
Ġpro te
ard s
ot t
g esch
ĠC our
Ġk on
ĠM al
ĠSp ain
at or
Ġk omm
ol ution
ĠRepresent ative
ĠR om
ungs ant
ien ce
un ity
lin ie
d t
D E
Ġp ass
Ġst art
h ip
Ġhow ever
ra ft
ĠL a
ĠPro gramm
Ġc ity
ĠJ o
ĠmÃ¶ glich
5 0
Ġre al
ĠB ild
Ġch e
ĠN ov
r i
ĠParl iament
Ġsomet hing
Ġw en
TH ER
ĠS lo
Ġand ere
Ġm in
Ġwh ere
ĠItal y
ie den
ĠC omp
gr icult
ĠItal ien
Ġb in
ul es
ul ation
ĠAn tw
Ġse cond
iver s
Ġste ht
ĠTe chn
Ġsm all
en g
ĠAn t
Ġre ally
Ġal ready
is k
Ġre view
Ġpro cess
ĠZ ahl
ĠSchl uss
Ġpro ced
ĠSecret ary
it ions
ĠP unkt
Ġdiffer ent
Ġincl ud
Ġ5 0
ĠS ub
Ġge l
rif ft
Ġp ay
re ib
our g
Ġsch on
ut ure
ĠA ut
T EN
ĠSt ates
ĠGe b
Ġm illion
c a
wir tschaft
p olitik
E I
ĠRe chts
Ġb ack
Ġg ilt
Ã¶ ÃŁ
Ġd ire
rit t
Ã¤ h
1 4
is en
Ġe uropÃ¤
as es
ur ity
d ition
in ce
ĠN r
icht s
ĠDies er
Ã¼r lich
Ġus ed
M ail
m ark
cl ub
en e
Ġc ost
ĠP AR
ĠZ iel
Ġall es
Ġth rough
ĠT ag
ĠGem ein
er tain
O P
IT TE
ĠSl ow
Ġvis it
ver s
Ġpro gramme
ĠLe ben
kun ft
ĠFrank reich
IN G
ĠUnter nehmen
Ġcustom ers
is ation
Ġmach en
ĠA re
S S
Ġg ive
ĠD aten
etz ung
th ing
h Ã¤lt
o ve
8 6
ONS TI
z ahl
ĠN ot
A P
ĠSpan ien
ur z
ĠQu est
ĠSt and
au en
Ã¤nder n
2 2
ĠM ob
y n
ĠS ONSTI
Ġe qu
b an
Ġm et
ok oll
ĠS a
ret Ã¤r
ĠP ermanent
h ol
Ġcle an
ĠB ul
ĠCour t
Ġs ur
ach e
Ġ200 0
Ġ 000
rif t
Ġb le
ĠO THER
la gen
ah re
k lich
ic ation
ĠSt Ã¤nd
ĠT E
ver n
ta b
ĠDies es
Ġc or
Ġein ige
ar ch
R I
p s
ĠIn vest
ĠP e
em ents
Ġk l
ro om
ah n
Ġw ollen
ir d
a um
kt or
ĠUn ited
N E
om or
ĠB ereich
ĠA g
Ġcom e
we ise
Ġfolgen de
9 5
al th
ĠG ree
Ġb reakfast
un kte
Ġquest ions
le x
Ġf l
ĠHostels club
Ġc re
ĠBe isp
ot her
Ġn Ã¤ch
we en
ist ance
Ã¼n d
in ge
Ġv iele
B ER
b r
Ġ1 00
ĠPro je
qu e
Ġcomp an
OR D
ar m
ĠF urther
Ġf av
ĠBul gar
im es
ort h
Ġ200 6
j oy
ĠMe hr
Ġintern ational
sche id
Ġal ways
ĠS k
ĠB o
Ġhapp en
R AN
Ġwith out
is ed
aus e
Ġsie he
in ing
Ġf act
clus ions
Ġa kt
ĠM Ã¶
ĠEUROPÃĦISCH EN
omor row
Ġk ommen
i j
Ġ29 5
Ġim p
o ber
Ġ ?
et s
Ġmor gen
ÃŁ en
ĠA kt
ubl ik
ĠP DF
ĠProt okoll
ien st
f ern
Ġd ata
Ġ2 7
Ġers te
re land
ĠC ON
Ġa ction
3 3
one y
rit ten
fol g
ĠKÃ¶n ig
Ġin v
Ġrequ ire
Ġe ffe
as h
ĠG u
Ġex per
ĠM ad
B E
Ġbere its
is te
ul ts
ĠPRO C
I TI
ĠM ein
ĠMed ien
d om
1 8
er k
ĠChr ist
Ġpartic ular
ĠI reland
en de
Ġf und
ĠA pr
Ġo per
ze ug
Ġt omorrow
ĠE conomic
in en
Ġbra uchen
ster reich
Ġver b
" .
Ġp ers
Ġda fÃ¼r
ĠM EM
Ġin vest
TE D
ĠAustr ia
Ġf uture
Ġp ress
in c
ĠFinan zen
z el
ĠA PP
ĠN or
Ġbet ween
Ġbus iness
Ġ @
ste ll
oin ts
m inister
ĠS icherheit
1 7
Ġne uen
ge me
f te
v es
ĠA ss
Ġp ra
folger ungen
ĠGr ie
Ġgro up
Ġfe w
Ġsa gen
L A
s atz
Ġrem ain
ll ent
Ġv oll
Ġunser er
b o
ĠE mp
p ar
Ġad v
Ġbe fore
ĠDes halb
ĠWel che
st Ã¤nd
Ġk le
ĠK ing
ĠL at
ĠC OM
Ġpr ice
p unkt
Ġh ope
ĠDE BA
sta aten
ĠT r
ĠN ieder
Ġconta cts
OM MEN
ĠGree ce
itte e
ich te
es en
e ll
Ġm uÃŁ
ĠSp iel
ĠJan u
1 9
ten d
al d
Ġwar en
ĠServ ice
te gr
ĠWir tschaft
ĠB itte
Ġein es
ĠS CH
Ġa ch
ie ld
Ġs ign
ann t
ĠPort ug
0 5
Ġab s
or n
ĠGrie chen
ar s
Ã¶r der
Ġste hen
Ġneed s
Ġspe cial
ĠLuxemb ourg
zie h
ru ck
lo bal
Ġmeas ures
ĠS eite
P AN
ĠJ ahre
ĠS an
Ġbe find
kt ur
Ġver sch
ran sp
U L
ĠFin ance
30 3
Ġ200 1
ĠS tell
Ġge b
Ġbe gr
r itte
ut y
Ġw ish
Ġb ook
Ġse c
Ġda ÃŁ
Ġde velopment
Ġge me
ud get
Ġb as
uf t
C E
Ġspe c
ĠS u
ĠR E
at ss
is l
Ġto t
gen ommen
Ġf lo
ĠM o
ĠGriechen land
Ġac ce
u ally
eit en
ĠÃĸ ff
Ġm ak
ĠM ich
Ġw Ã¼r
age ment
ĠApr il
ĠB en
Ġth ings
atss ek
Ġ )
Ġpropos al
2 01
Ġsub mitted
ĠM ittel
ĠDok ument
b t
ĠM ay
Ġch o
ip t
N EH
re en
ĠA pp
ĠCh ina
ĠP ark
ĠK r
ar i
ĠThe ma
ĠTE IL
ĠB ook
Ġsel bst
atssek retÃ¤r
ĠH ere
Ġpr iv
ĠFr Ã¼h
taur ant
Ġfav our
Ġand eren
Ġle vel
ĠSe p
ĠÃĸ sterreich
I B
ĠM inutes
Ġzur Ã¼ck
omm end
at ch
Ġw Ã¤re
ism us
st Ã¼ck
Ġsu pp
Ġbet ter
Z I
n ess
her lands
ĠD och
ĠAn frage
ĠS it
E AS
ĠBelg ium
ungsant rag
! !
m an
Ġor gan
Ġe le
Ġk m
ver t
Ġfin an
l ess
ĠK o
ĠVorsch lag
is ter
Ġserv ices
Ġans wer
ĠLuxemb urg
id ed
st it
in ation
in o
am er
Ġm atter
Ġfor ward
NEH MER
ra uch
ĠKÃ¶nig reich
Ġf un
Ġp oints
vent ion
ier te
ĠFin n
Ġb er
Ġ200 5
ĠP OL
ĠBelg ien
TI CI
MEN T
Ãĸ R
Ġre ad
Ġc all
y pe
Ġ4 303
Ġaus ge
at her
Ġc ol
ĠR uss
Ġpro f
ĠDe c
ĠIr land
ft ware
ial og
m it
Ġ200 3
ĠAntw ort
A G
Ġb oth
Ġwir klich
0 6
ĠNet herlands
ib ility
Ġp ack
ĠM io
Ġbes ten
ĠPAR TICI
Ġch ild
ĠC ol
ver fahren
ag t
ĠRep ublic
Ġwor d
- -
ĠI st
ĠMEM O
ĠTEIL NEHMER
it or
Ġf ac
Ġvote d
PAN TS
ĠP al
Ġper fe
tem ber
is hed
Ġf il
im men
ĠQuest ion
ĠRep ublik
ct or
ĠPARTICI PANTS
Ġbel ieve
is ts
Ġge m
Ġnicht s
Ġpr ior
Ġge ben
Ã¤ ft
Ġc a
Ġo p
ĠK ar
ĠS oc
ĠT od
0 4
Ġz e
ĠS weden
ant w
x im
Ġob ject
om ent
Ġf est
M E
Ġc ertain
Ġme et
ĠPortug al
ĠS er
Ġ200 4
ff ic
ĠZusammen arbeit
Ġb r
CH AF
u ro
0 7
ĠJ ed
tr ib
Ġl ot
Ġm oney
ĠN ow
sch utz
unkt ion
ĠA G
Ġtak en
2 4
ĠPre is
ĠA ug
Ġe v
ig es
I G
Ġl ist
ĠB ank
Ġle tz
TER N
ĠK e
gend a
Ġadd ress
ĠE l
Ġ2 6
ĠEn de
f ung
ĠWe g
inis tr
ĠB eit
Ġc ap
ĠW enn
Ġp ut
Ġe ach
for table
ĠD u
Ġm ed
Ġn ice
Ġse ine
Ġreview s
I A
part ment
IL UNG
em ark
ĠFin land
lick en
ĠSchluss folgerungen
Ġo hne
Ġge f
Ġ200 2
ĠB est
Ġcon clusions
land e
ĠB l
ĠPROC ESS
be wert
Ġdisc uss
Ġcountr y
ĠRicht linie
Ġloc ated
Ġa round
ik a
ĠIhr en
ble ms
ĠFe b
GEN OMMEN
Ġcon f
ĠAN GENOMMEN
Ġd abei
le t
Ġall er
ĠSta dt
g aben
Ġw issen
Ġse lect
ĠS c
O V
Ġein mal
Ġf ra
ĠSch weden
ITTE ILUNG
iv ing
Ġ3 2
ĠkÃ¶n n
Ġs k
ĠUns ere
Ġrequ est
Ġgeme ins
ĠG eld
du c
ov ation
t il
icht ige
n a
Ġs ite
Ġup d
ĠR ates
ĠEnerg ie
ĠZ ug
ĠG et
and er
Ġb ring
Ġth ose
ĠKing dom
ĠEn gl
Ġg ar
Ġgo ing
je cts
Ġn ational
EAS E
h or
ĠF IN
ĠMr s
Ġam end
g abe
1 99
Ġm ember
Ġqu ite
Ġgest immt
fer ence
ĠSitz ung
Ġw alk
um ents
ĠR el
Ġen vironment
ol f
itt le
ĠW ith
y l
Ġd ays
Ġf ol
Ġg leich
sch uss
Ġall en
ĠInd ustr
ĠREL EASE
Ġinc re
Ã¤n emark
A D
ĠF irst
ut zen
fall s
ĠW es
Ġn ame
pp e
Ã¤t z
to ine
ges amt
Ġeas y
Ġg laub
folgen d
Ġsit ting
it ive
Ġdes ign
ass e
Ã¤ ÃŁ
I n
Ġge hÃ¶r
ru ktur
Ġsu ccess
Ġcons ider
ĠNieder lande
g s
Ġf amil
Ġwel come
e f
Ġcomple te
ÃĸR TER
I P
ĠER ÃĸRTER
Ġreas on
b ere
ĠDen mark
Ġoff ers
Ġr ules
Ġen ough
Ġb esch
Ġsh ort
Ġinter est
mar kt
Ġfriend ly
Ġe igen
ĠANGENOMMEN E
ĠERÃĸRTER TE
bewert ungen
Ġdo c
sch l
ĠNach folgend
ĠComm ittee
ĠFinn land
gricult ure
A H
ĠF OR
lich er
Ġzw ischen
m iss
all en
loy ment
le men
if t
ĠI mp
Ġ4 5
Ġp resent
itÃ¤ ts
Ġf Ã¼hr
ĠD amit
Ġexam ple
isch es
w alt
in al
ĠL Ã¶s
ĠDe b
Ġbe im
der s
Ġe l
ra ch
ide o
ĠD Ã¤nemark
ĠMitglied staaten
ĠSep tember
av on
ĠGÃ¤ste bewertungen
ĠP er
ou th
we is
ĠIntern ational
Ġen joy
Ġresp ons
ĠB us
RO V
Ġbe k
iel le
Ġclos e
2 7
3 7
Ġhelp ful
ĠW ORD
ing le
ĠH ilfe
Ġh uman
i as
an te
ATION S
ĠPROCESS ED
reich en
ĠVer kehr
ĠEnt schlieÃŁ
re it
rif ten
ĠF ort
Ġg ute
ĠZ ur
Ġ 99
Ġt urn
Ġre f
ĠO ne
ĠDe p
Ġw ater
ĠC ar
Ġcont rol
ĠSt at
Ġar t
S t
U M
ĠA ir
d es
Ġwe ek
Ġ Ã¶ff
Ġne ar
rÃ¤ ge
Ġim pro
Ġer halten
g ress
ĠW ind
hl t
om en
ass er
as st
Ġp ark
ĠLand wirtschaft
Ġkomm t
Ġb ar
AR K
b ed
Ġl ittle
Ġexce llent
our s
ĠStr ateg
Ã¤t ze
Ġc ut
b urg
ĠC y
Ġare as
j or
und es
Ã¶ t
e hm
ĠK omm
ĠQ ual
igt es
e c
Ġbu ild
r on
ck en
Ġ7 5
ĠErgeb nisse
Ġd anke
A IR
ne ll
Ġd ou
or te
os s
Ġqu ality
Ġr un
u ge
Ġo ld
Ġc al
ĠZu kunft
3 4
Ġte xt
Ġagre ement
ĠEn vironment
be wer
ransp ar
H AL
Ġs um
e an
um en
Ġe ben
v ious
ĠNov ember
ÃŁ e
il ities
iv ed
r uf
ĠF isch
Ġres olution
ĠSit uation
Ġto ol
Ġs eit
Ġn et
T O
Ġres ults
Ġa id
Ã¼r ger
glich keit
I V
i ber
Ġj a
Ġadd ition
Ġact iv
ĠF olgen
ĠS on
Ġrec ommend
ut ions
Ġd Ã¼r
ig ures
st ag
ĠGr Ã¼n
Ġiss ues
zieh ungen
ĠA FF
ch te
Ġeffe ct
ĠMinister in
ll i
ĠDe velopment
ĠDirect ive
G ES
ĠJahr en
ĠRe form
Ġen erg
ĠH ung
Ġke y
u ter
Ġwith in
b es
b au
ot ing
if f
b y
f ang
Ġo pt
Ġprote ction
ĠAFF AIR
Ġw enden
0 8
Ġp le
ĠF ahr
ĠAFFAIR S
iv id
ĠL ie
stÃ¼tz ung
ĠZ e
ĠVer trag
ct ions
ĠRe cht
ĠT RAN
Ġtrans port
ent ly
ĠJust iz
ĠAPP ROV
ĠFeb ru
ur y
am es
ĠPro ble
2 1
ĠAPPROV ED
A B
ĠO ther
n ing
ĠGer ichts
Ġche ck
ĠSo zial
Ġ201 5
ett bewer
f ten
ĠD ann
Ġpro blems
Ġb ro
Ġre t
Ã¶ l
Ġabs ol
ĠD IE
Ġmo dern
ĠDEBA TED
Ġb ath
OL ITI
Ġsich er
ĠFor m
Ġfolgen den
cr ipt
ĠPress ek
I K
Ġl o
an o
EN T
ĠPress e
s icht
Ġt alk
st o
ĠVerein igtes
Ġst ud
ĠSt ra
ĠY our
Ġcomp et
Ġl arge
Ġkl ar
ĠFrÃ¼h stÃ¼ck
Ġd aher
Ġdo ch
ĠPro gramme
ĠSoc ial
D as
Ġun til
arl iament
ĠPOL IC
a gen
Ġs l
ĠHotel s
ĠK inder
g ot
Ġm inutes
Ġk osten
ĠT ur
ass ung
Ġle t
on ia
Ġp res
ĠH in
Ġk ind
Ġfo od
Ġa way
Ġcom fortable
A r
en nen
it es
Ġit em
c el
Ġj e
3 1
ĠS ome
Ġcent re
ĠT our
ĠD ES
ic ally
Ġde velop
g ang
is ierung
Ġh ome
ĠC he
ĠS ystem
Ġe ing
ĠIn s
Ġbie tet
le it
Ġla w
ST AT
ĠG l
en k
ĠM Ã¤r
ĠZ w
ĠFl ug
Ġd amit
Ġb ig
ĠPol and
Ġt erm
Ġl ife
ill a
E IN
Ġl ess
p re
ent ial
ĠTe le
ĠA mer
Ġflo or
ĠA fter
t schafts
Ġm ov
ich ten
Ġex tre
ĠM ill
ul i
ĠEnt scheid
od y
ĠHerr n
ro ss
oc us
ĠA fr
ach en
Ġpro m
Ġval ue
O T
Ġ Ã¤
an c
m ed
or ten
Ġh ist
a ve
u gen
ĠBeisp iel
Ġt re
pr Ã¼
ot al
ĠFIN AN
e ut
ĠD enn
Ġleg isl
Ġat t
ult ur
Ġmon th
I M
Ġenerg y
Ġto p
ress e
OLITI K
C C
ĠVer treter
ult ure
t zen
ĠE IB
TS CHAF
i od
Ġ ..
A n
ĠArt ikel
Ġtot al
D er
ĠD aher
Ġbe ach
Ġan other
ĠPOLIC Y
Ġre form
IR TSCHAF
2 8
ĠZ um
ĠTe xt
ĠPol en
2 6
y r
im a
ĠUnter stÃ¼tzung
Ġmach t
olog y
3 6
ĠRe gel
ot o
Ġme ans
are d
i ation
fer enz
in i
inc ip
Ã¤ mp
ch er
ĠGro up
Ġt ax
Ġgro w
at te
Ġm ention
ater ial
Ġproced ure
ĠI II
ĠGe gen
P ro
l ungs
Ġe uro
Ġth ing
und heit
Ġver l
Ġ ]
Ġc lick
ĠM us
ĠVer fahren
Ġ0 2
Ġh im
Ġappro ach
4 8
l ing
Ġt imes
Ġent sp
duc ation
Ã¤n g
E K
ank en
ra d
ĠJu ly
ĠC as
Ġnat Ã¼rlich
h in
ĠS w
um s
Ġ3 5
ĠPrÃ¤sident in
Ġre ach
an a
Ġn ie
Ġs ince
c ause
Ġstr ateg
k auf
Ġf our
ĠO b
ĠJun e
Ġge hen
ot en
ad ies
Ã¤ hlen
Ġcompan y
Ġb l
am m
HE IT
ĠArbeit s
Ġwho le
un ter
A K
an gen
ĠP unkte
ĠA griculture
S A
Ġvers ion
ic ations
uÃŁ en
TERN AL
p ly
Ġn immt
Ġl anguage
S CH
h ang
ĠVer fÃ¼g
Ġs he
el f
b ild
z a
Ġf ield
yste ms
Ġw eit
ĠP a
Ġgen au
itÃ¤ ten
d ings
Ġr ights
ĠL assen
ond s
ĠAug ust
p end
ot os
ĠSie he
Ġwer de
ĠAl so
Ġd uring
Ġb udget
Ġv ar
ff ice
ĠSt ud
ens ion
3 8
Ġl im
ĠL it
ĠMar kt
ĠSta atssekretÃ¤r
ond ere
Ġbe come
ver al
Ġbeste ht
ĠL anguage
Ġk om
hn t
ĠGerichts hof
hal ts
Ġbegr Ã¼
im ate
Ġpro jects
Ġall ow
Ġind ustr
ĠP olitik
ĠProble me
le gt
Ġunser en
Ġpra ct
Ġm en
ĠV on
Ġver fÃ¼g
ok rat
u c
w ick
n ers
and s
ĠEURO STAT
Ġdif f
ĠEin zel
Ġpro ject
Ġde fin
Ġtr ue
Ġincl ude
Ġchild ren
v ia
us ch
ĠF amil
Ã¤n de
f o
Ġd avon
Ġne cess
cl ud
iti ative
v ing
f a
Ġto wn
Ġde al
Ġdar f
T U
ĠWh o
ĠWh ere
tre ten
re g
ĠE very
Ġ4 0
Ġcon trib
Ġma jor
a pp
j a
um p
iv al
Ġcurrent ly
ĠT otal
ĠP ublic
Ġab le
Ġguest s
ess ion
ĠMar ch
v al
ĠB il
Ġnot hing
ent liche
Ġso cial
ĠG ar
ĠG ru
ĠMe ine
Ġn ight
ta g
Ġc are
gar n
Ġpolit ical
ĠN ational
Ġreg ard
k er
ĠD urch
ze ch
ont ro
fra gen
Ġcontin ue
Ġle ft
ĠErklÃ¤r ungen
Ġth ird
ĠAn ne
ch es
ĠCy pr
Ġdec ision
ĠSONSTI GE
ĠHa upt
is a
iel t
ĠE X
ĠC ost
Ġg iven
Ġein z
ĠEr w
Ġperfe ct
ĠM er
ĠwÃ¼r de
Ġp ict
Ġres ult
Ġe lect
ĠWir tschafts
hl er
sel f
ĠC ent
Ġle arn
ĠB undes
Ġunter stÃ¼
Ġbes onder
as ter
ĠF ed
Ġextre m
b ereich
uf en
or m
ĠAn sp
Ġno on
s er
Ġin de
Ġtra de
Ġfinan cial
le ment
ge ther
ĠDep uty
k ten
Ġw r
ic le
ĠZ we
ific ation
Ã¼ tz
Ġch ar
ĠTrans port
3 9
ich ter
ĠH ome
ĠR Ã¼ck
Ġb it
Ġprodu ct
Ġpos ition
ap s
Ġgr Ã¶ÃŁ
ĠM il
Ġim ple
u h
ĠTRAN SP
P arliament
ĠA L
Ġy et
Ġpr incip
ĠIhr er
Ġto ur
il y
ĠW ettbewer
ĠB Ã¼rger
z ug
ĠF ollow
ĠverfÃ¼g bar
on a
Ġl ang
Ġspeak er
ĠCypr us
Ġin t
ĠCol om
ward s
Ġbeg inn
ess e
ĠHung ary
Ġm ot
ĠC zech
Ġbe aut
our ces
Ġ9 3
Ġdown load
Ġfe el
at iv
Ġl assen
ĠN un
rit er
Ġdiff icult
Ġl Ã¤
ĠP at
Ġwork ing
Ġ199 9
Ġent er
entr um
ĠD ienst
Ġglaub e
Ġ201 1
ĠVerb rauch
vor sch
ĠF ax
Ġa im
ĠM ain
Ġpartic ip
ib en
ĠUn garn
Ġpr ices
Ġar beit
ĠgroÃŁ e
ĠMob il
is her
Ġpl an
yp ern
2 9
ĠS he
Ġag ree
ĠGes undheit
ĠWe b
Ġm oment
ĠVer y
ĠHo use
in er
ver kehr
Ġ5 46
Ġk urz
fÃ¼hr t
ĠW och
lo g
Ġsch nell
as ch
200 1
4 4
or en
ĠM et
Ġre le
Ġl inks
Ġdo ing
Ġgen eral
ĠO ct
Ġe d
ll t
ĠSch utz
6 5
at ers
at is
Ġ3 1
Ġbefind et
ĠLeben s
Ġm us
ĠI V
ah men
ĠA v
Ġan genommen
ĠC lick
os ition
ĠAn geb
Ġin n
ot s
err or
Ġent fern
ĠS ol
Ġdar auf
enn t
we g
pe kt
iz ed
ĠEngl ish
ch ten
ĠW ahl
Ġsh ow
k ungen
ĠJ a
ss er
IT H
ĠMar ia
sche ch
ĠL in
Ġres pect
h mer
o or
ĠRed ner
Ġse em
ad a
fr ast
ĠPl an
ĠHand el
g ese
en ien
ĠI M
eng th
s h
ĠU p
Ġjed en
inut en
ĠPart ner
Ġfol gt
m Ã¶
ĠSlo ven
b ank
e hen
v ak
en zen
ĠD r
ge d
port s
ĠÃĸff entlich
ĠB ug
ĠZ ypern
iti zen
Ġselect or
i ar
Ġh olid
up er
ĠFor sch
ĠGesch Ã¤
k ung
Ġp op
ĠWor ld
ĠF rom
ĠV II
Ġst ation
is ions
Ġdire kt
ĠdÃ¼r fen
um er
is ing
ĠS uch
Ġg an
our ce
Ġer reichen
Ġfin al
P L
k a
Ġb al
ze pt
stell ung
I EN
Ġof fen
ĠVerfÃ¼g ung
Ġse ctor
ĠUS A
Ġop in
antw ort
ap er
ĠM ag
ĠComm unity
Ġben ef
z o
Ġein ge
ith u
8 9
Ġt est
Ġlook ing
ver treter
if ul
fol gt
om at
ĠC urrent
Ġne hmen
ĠD ate
Ġp ower
ĠC ons
Ar t
7 0
Ġn on
ĠDa zu
ĠI de
ĠHerr en
Ġkein en
Ġind ivid
und er
Ġl og
ĠZ iele
Ġjed er
m ut
o pp
ĠBer lin
Ġinst all
Ġne ver
D ie
a ffen
Ġwe b
ĠEr folg
Ġz usammen
Ġcon ne
I F
Ġer sten
Ġentfern t
Ġd ate
it ing
Ġer war
ĠnÃ¤ch sten
in ner
un ately
ĠC or
Ġo pport
ĠR um
Ġspec ific
ĠB ucht
Ġcomm on
vern ment
Ġan n
ig r
Ġf a
Ġh ostels
lo ck
ĠAl s
ĠD own
em p
red it
ur p
ent lemen
ĠErklÃ¤r ung
on ger
ĠD amen
al le
Ġpro gress
8 0
ra um
ne hmer
Ġar r
Ġco operation
ĠPRESS EM
AS S
Ġevery thing
ĠB em
ĠO f
iet y
ĠTra de
ĠG D
au er
ĠeuropÃ¤ ische
ĠPRESSEM ITTEILUNG
h aus
ĠWel come
ĠSloven ia
U D
ĠAn toine
Ġsch w
b il
ĠK ultur
Ġneed ed
N EN
6 4
ithu ania
ang es
Ã¶rder ung
is es
Ġf ile
ĠT Ã¼r
ichtig t
HAL T
ĠF il
Ġste ps
es ted
Ġs ingle
Ġp ool
Ġcomm ents
a kt
f et
Ġn ote
ĠK osten
6 7
v a
Ġer st
Ġme an
Ã¤nder t
ĠPerson en
ĠSlo vak
N ER
Ġper iod
5 5
Ġv ier
Ġversch ieden
g o
i que
Ġf unktion
ĠTh en
Ġnecess ary
w and
ĠJ etzt
Ġpriv ate
ie f
le ist
ig ital
ĠN Ã¤
ĠS al
be i
part ner
ĠN ur
ĠÃĦnder ungsantrag
ro at
ĠM in
ach st
ĠOct ober
et zen
Ġf ast
ĠM arket
imm e
ĠBesch Ã¤ft
ĠLÃ¶s ung
ro s
ĠF und
ist an
ĠWind ows
Ġi hn
Ġger ne
ĠF o
Ġbe h
se qu
iv il
ĠFort sch
a i
ĠL ithuania
ks am
ĠT schech
Ġse veral
ĠSlow enien
ĠJanu ary
y ing
ĠVer tre
lÃ¤ ge
ll ig
US TI
Ġp a
ĠL Ã¤nder
Ã¤n ger
Ġcost s
ir m
ult ation
Ġsim ply
Ġcor re
er es
in t
ĠS um
Ġreg ion
ce ed
Ġch arge
ĠBes uch
Ġnew s
ĠStÃ¤nd igen
l ungen
ĠS O
ĠF ree
ap an
ĠMa i
Ġsol ution
in ed
ik ation
Ġfamil y
f re
Ġex ist
Ġbere it
6 0
z ess
Ġbie ten
t y
ĠK ann
ĠSch rift
ĠkÃ¶nn te
f asst
Ġt as
ĠD an
ĠM or
Ġsub ject
Ġg lobal
ĠEst onia
w h
Ġin tegr
ĠOr t
Ġexper ience
ĠA genda
Ġges agt
ban i
Ġw aters
st ru
Ġl ange
Ġaut hor
4 9
ĠA US
ĠVertre ters
D ER
or ge
le tz
ĠH el
Ġprov ide
ĠRo om
r id
ĠT ages
Ġe conomic
ĠF ar
ĠO pen
Ġwor den
ĠColom bani
Ġde ut
ĠGe w
ĠPressek ontakt
ĠL ett
Ġb esser
Ġbet rifft
ĠReg ion
Ġble ibt
ĠW ichtig
Ġv e
Ġre du
ĠJ USTI
en ces
al en
Ġst op
ĠSec urity
ĠProdu kte
ĠProje kt
Ġhe alth
Ġw ind
Ġmember s
Ġho ffe
ĠRom ania
ĠLit auen
wÃ¤ sser
t on
ab ility
Ġor ig
Ġ2 99
ĠL iste
Ġach ie
i ere
Ġs end
Ġer klÃ¤r
IRTSCHAF T
in formation
ge w
ĠLat via
en cy
ĠSe hr
g ment
ĠF ISCH
Ġso zial
ruct ure
k o
200 7
th ers
Ġus ing
rÃ¤ gt
pp en
pro chen
ĠPol icy
Ġtool s
fet y
am b
Ã¤n ien
ĠAus schuss
ris is
ĠEst land
Ġm ind
ĠB uch
ĠG leich
Ġen g
ĠD inge
OR T
ĠW asser
sch ein
ĠHe ute
ZI EH
P S
ĠN icht
Ġnet work
E IT
ĠG ibt
Ġl ine
Ġden ke
ag er
Ġro ad
Ġword s
ar te
en se
Ġh Ã¶
Ġres erv
Ġers tellt
ĠLett land
fe hl
Ġres t
Ã¶ff net
Ġs us
ĠC om
ĠRe port
Ã¤ch st
ĠProdu kt
ĠUns er
ĠZug ang
Ġl ive
gan gen
Ġass istance
ĠAg re
Ġwe iÃŁ
urop a
ĠGeschÃ¤ fts
ĠP ra
Ã¼ l
IS S
Ġits elf
Ġinv ol
Ġm ar
ĠW ITH
um e
ĠSch ritte
gen cy
Ã¤ d
Ġke ep
ĠInn ovation
h an
k on
we gen
Ġm ess
Ġho use
ĠRum Ã¤nien
Ġden n
Ġn ah
Ġret urn
itizen s
Ġg raph
Ġser ious
Ġbath room
Ġm ob
ĠNew s
Ġh ard
Ġr ate
tel le
Ġfe at
ar ly
TI N
Ġpos itive
Ġunder stand
ĠU ms
ĠPre ise
reib ung
ZIEH UNGEN
Ġsec urity
Ġmak es
k i
Ġse le
Ġg ame
Ġver w
Ġconcern s
g leich
Ġw Ã¼n
ier ungs
ition en
k ra
Ġin form
ĠN amen
ont rol
CI AL
ĠBulgar ia
ĠD is
Ġto gether
ĠFinan cial
ĠMich a
ĠEntscheid ung
ĠAll geme
4 7
f Ã¤h
ĠAnne x
U B
lich es
z immer
Ġ ir
Ġs tellen
Ġste p
ĠMan y
Ġs ide
ĠE d
Ġo cc
ĠR ahmen
ĠVor s
Ġ8 0
s etzung
re if
ĠT O
Ġpack age
Ġe t
ĠJun i
uÃŁer dem
u elle
se e
Ġ201 3
ĠRe al
Ġunsere m
fort unately
ĠV ol
on n
Ġse a
Ġsp rechen
ĠS Ã¼
ro du
la x
ĠComm un
conom y
ĠV is
ke y
ĠSch ul
part ments
Ġsim ple
ĠREL ATIONS
L ICH
ĠS im
Ġsch Ã¶n
Ġide al
ĠBulgar ien
Ġzw eite
ĠStÃ¤nd iger
pe cted
z Ã¼
ĠA USS
Ġp at
tab l
lli ard
r Ã¤n
Ġ x
ĠT re
ĠM ac
ĠJ uli
ĠPro f
ĠF est
ĠBe lliard
Ġatt ention
8 8
ĠC H
Ġres taurant
Ġ29 6
V ER
ber g
ĠAb kommen
Ġt yp
ĠEr st
ĠTod ay
Ġg l
O D
lich keit
Ġro le
IT Y
ig ation
tern al
A b
o f
ter m
st ad
ĠR olle
Ġl ink
ĠBe ziehungen
Ġintern et
ĠCOM M
2 3
ĠW ritten
id ence
ĠGemein s
Ġte il
ĠIhre m
ĠDec ember
Ġextrem ely
ĠSlovak ia
Ġp ost
c ing
Ġ201 2
Ġco ver
igkeit en
ĠD abei
ĠB innen
ĠNat ur
Ġinclud ed
p table
ĠS eit
Ġf air
2 000
Ġsie ht
o ung
Ġso on
ear ch
Ġer forder
ĠDown load
it ors
Ġh och
ake i
Ġble iben
ĠTschech ische
te ile
ĠE G
ĠunterstÃ¼ tzen
Ġ Ã¼
ĠD av
Ġm iss
ĠReg ionen
Ġst ate
Ġ201 4
Art ikel
ĠMÃ¤r z
on es
ĠA ud
Ġm il
ĠK at
Ġd ort
ĠM inuten
ĠB ES
ĠO per
ĠK omp
ĠEin ige
Ġbeaut iful
ute t
Ġacce pt
m Ã¤ÃŁ
ĠWe bs
Ġbel ow
Ġih nen
m ost
s ide
w ahl
Ġalle m
Ġ ur
re et
EH R
wert ung
ĠSchrift liche
ĠDe z
Ġp urp
Ġver fÃ¼
ĠK ons
ĠEnerg y
ĠSlow akei
Ġ u
re am
ĠB as
ĠJ av
UN D
me work
ĠOr gan
Ġmeet ing
Ġeben falls
Ġt reat
ar f
sch ied
Ġch allen
ile d
ĠOn ly
Ãľ R
h ilfe
Ġw a
im al
Ġdem oc
fl icht
ĠArbeit sp
stit ution
ĠT V
ĠD om
ĠD ialog
Ġo pp
ik en
ar ante
o ver
Ġperson al
A V
ĠE W
Ġacc ount
ĠMad am
ĠBen utz
Ġs ure
ĠS P
ll er
ĠN ein
ĠMÃ¶ glichkeit
ĠC ase
qu ir
Ġr ichtig
ĠAm end
ĠFisch ere
b a
un ch
Ġh ours
ĠFrau en
Ġfr ont
Ġnah m
H ER
ich tet
Ġres earch
ĠDem okrat
ĠL oc
pl es
SP OLITIK
fÃ¼hr ung
iden cy
Ġm is
ĠU se
ĠVerbrauch er
at ur
Ġhat te
ord ing
ĠPe ter
ĠCON TEN
bere it
I ER
Ġpropos als
ĠÃĸffentlich keit
u ck
ĠE ben
ĠB US
ĠUn ivers
Ġle ad
Ġben Ã¶t
ĠMicha el
ĠS port
Ġm ark
Ã¤ uf
Ġl onger
ĠRe lease
Ġd ra
ĠD im
ES C
ĠK ap
ĠPl ay
l arge
Ġtra ining
Ġhe iÃŁ
Ġ14 2
igr ation
Ġa k
ich en
G ER
or ted
Ġ6 0
Ġon ce
ĠThere fore
ĠIN HALT
Ġsh are
Ġhe ad
r im
te xt
Ġg ra
il i
8 7
m et
ĠA D
Ġst uff
z w
Ġex tra
8 5
Ġgen er
re icht
Ġrel ations
h od
it a
ĠB y
ĠO N
10 40
EM EIN
Ġreas ons
ĠSONSTI GES
Ġlie gen
wend ung
ĠgehÃ¶r t
b et
Ġre lax
ov a
Ġbed e
Ġbe iden
ĠT reat
Ġn or
ĠG ra
ĠGes amt
ĠPh il
v oll
ĠC D
lie gen
ĠCONTEN TS
ĠA uÃŁen
Ġbuild ing
Ġ Ã¤ndern
ĠO kt
ĠW ork
Ġbe cause
rie f
ar ian
ste llen
Ġmein er
uff et
b lick
Ġs w
Ġe vent
ĠK unden
ab el
ateg or
Ġabsol ute
b ung
Ġpro gram
Ġwen ig
U T
h nen
on y
Ġof ten
Ġa partment
ll ing
e le
Ġt able
M W
at ul
e g
stad t
i ations
ra cy
ĠJ apan
k Ã¤mp
Ġt ype
Ġs tellt
h es
Ġc risis
ĠVers ion
Ġkosten los
e u
Ġs ow
a ff
Ã¤ ter
Ġ7 0
Ġh ig
ier ten
ĠSub ject
Ã¼n ft
ĠGo od
r ic
Ġf al
ra q
Ġrequire d
h Ã¶
in z
ip s
ĠL inks
NE X
Ġimple ment
i os
ĠF a
Ġnot wend
Ġqu ick
Ġget an
A CH
m inistr
ĠD isk
Ġ0 9
auf en
Ġvers te
I ES
ĠBe fore
Ġ0 4
pl atz
f ull
ĠT age
ges tellt
ĠR ad
ĠK licken
ol a
ĠN ote
Ġer hÃ¤lt
reib en
ĠAUSS EN
ĠT ime
ĠAN NEX
Ġrece ive
ĠStell vertreter
Ġd i
an ta
ĠJ ud
Ġge e
AL L
Ġcomm un
ĠT RA
Ġl ater
IN ESS
Ġfollow s
Ġfre uen
kra ine
u z
st ra
Ġre cht
la d
Ġman agement
Ġ199 8
ĠM od
ing ungen
Ġp ort
ĠF er
Ġunter stÃ¼tz
umen te
ĠFed eral
ĠBem erk
d itions
t ig
Ġstat ements
R ule
Ġl ight
ĠBUS INESS
e x
ĠV I
ĠBild ung
p rÃ¤sident
ĠG raph
Ġes tabl
Ġcom es
Ġins gesamt
R EN
en ted
ĠHaus halts
ĠFebru ary
Ġ ess
ĠKommissar in
rech partner
G RA
Ġv ielen
ĠR ue
ĠVer walt
Ġ5 00
Ġsit u
Ã¼n st
ĠNe xt
ĠPr iv
ĠVerb esser
Ġbesonder s
ch an
Ġd istr
Ġdar Ã¼ber
Ġleg al
Ġopin ion
Ġs ug
ĠNat Ã¼rlich
Ġproced ures
Ġapp ly
ĠOn line
Ġgraph ics
F T
re cht
Ġv ia
Ġh Ã¤t
Ġl and
ĠIn st
Ġnot ified
Ġair port
ĠP ers
Ġhand elt
is on
Ġprior ity
Ġre fer
Ġer n
Ġstr ong
Ġcl ass
Ġloc al
Ġdou ble
g n
m os
ĠSp a
au ber
Ġ 00
Ġd est
ar a
Ġwork s
ĠWo hn
ĠM art
ĠR aum
ĠO st
) ;
ish ing
Ġb ased
scha ften
V er
ing en
end et
Ġqu iet
zie ht
bes ondere
Ġder zeit
ach sen
ĠSch w
ĠSe cond
ĠAnsp rechpartner
Ġs on
Ġb ank
ĠW TO
ent lichen
ĠMein ung
Ġgem acht
Ġwr ong
L AN
b on
ĠH uman
Ġ0 7
com ing
ĠIndustr ie
U K
ĠP la
ĠB ra
Ã¼n f
Ġhotel s
ĠS el
ĠAgre ement
% .
Ġs ett
ĠK Ã¼
omm od
9 3
ll schaft
Ġent ire
Ġinst it
Ġgemeins ame
8 1
k re
t es
Ġ3 4
Ġus ers
ĠSo ftware
Ġ93 96
m us
ĠM ark
ĠBet rifft
Ġaddition al
ĠVertrag s
er nen
op s
Ġstrateg y
Ġv Ã¶
if y
ĠDa fÃ¼r
y le
ĠAn n
Ġle ast
Ġcertain ly
og raph
Ġbede utet
Ġb rief
Ġm at
Ġm id
Ġm ult
ĠF Ã¶rderung
Ġab ove
Ġen c
ontro ll
h ib
Ġc itizens
ab ly
ach r
CH E
mer ksam
f assung
an ces
tell ung
Ġ14 9
Ġpark ing
Ġmonth s
K EHR
Ġg entlemen
AND EL
ĠBed eut
ĠK le
am a
ck s
ch ange
Ġadd s
ĠHer aus
Ġdel iver
ĠE M
ke i
m als
Ġw rit
Ġf Ã¼
Ġpro gramm
oug ht
K L
ĠD on
Ġer reicht
Ġex pect
ĠCh ar
ĠHer z
ĠS outh
ĠS eiten
E n
ab our
ĠRicht ung
ĠWe ll
ĠPar is
ĠWichtig ste
ak et
ĠKl ima
ĠJanu ar
Ġobject ives
35 5
ĠErgeb nis
Ġhist or
ĠEX TERNAL
as on
ĠV ideo
Ġte am
ĠFe hler
Ġso ftware
b uch
ord in
Ġremain s
ĠMember s
G e
O W
Ġm ag
ĠG R
ĠL uft
S E
Ġt ro
Ġs ize
ĠT or
ĠK os
ĠunterstÃ¼tz t
ĠF ÃľR
ĠK raft
ver b
ĠAn hang
Ġinvest ment
f el
Ġne u
pl ay
Ġma xim
Ġstand ard
ĠRel ations
y a
Ġm al
Ġz ie
Ġne got
ĠS ache
ĠP ass
Ġse arch
ĠSch ritt
ran ge
Ġfun ction
Ġetw a
ĠVorsch lÃ¤ge
ĠF igures
ĠLe g
Ġtak es
ides h
9 4
Ã¼ t
ĠStrateg ie
n ow
ug ht
vorsch riften
U CH
ĠN ord
Ġsoll en
ĠTur key
en a
ĠB ro
ic an
ĠV iel
Ġhe ar
Ġ199 7
Ġple as
ĠBinnen markt
5 7
ut t
Ġwar m
ĠReg ional
Ġactiv ities
ĠBedeut ung
L AND
er o
200 5
Ġfac ilities
ĠDav id
ie ten
Ġholid ay
ĠDez ember
s on
Ġte le
inistr y
ĠvÃ¶ llig
Ġg ab
ĠPro te
ichter st
E W
pe cts
ov o
Ġadd ed
ĠK ol
Ġcomplete ly
ĠEntschlieÃŁ ung
ĠErw eiter
ĠV ice
ĠSch we
Ġg ot
ĠV ize
ĠWer de
ĠChrist op
Ġcho ice
hr en
ĠZ us
if iz
ib e
ik an
ĠS m
ĠG reen
med i
F OR
ĠA R
ĠA ction
ĠW achst
ĠJu gend
Ġgrow th
ĠW issen
ĠC ap
Ġcom b
ĠDes ign
Ġhe art
Ġent halten
ĠN orth
Ġab ruf
ION S
Ġgu arante
Ġindivid ual
Ġm aterial
Ġz ahl
ck t
Ġcon ditions
wend et
schl uss
Ġs ent
ĠB ad
TU RE
Ġw ichtige
Ġme isten
ĠBe wertung
ĠHintergrund information
Ġtra in
Ġappl ies
ĠBil der
_ _
m in
ĠF ern
la den
Ġr isk
en der
ĠM inistry
ur f
ĠR a
Ġat tra
Ġbas is
ĠGraph ik
ĠO l
ER G
age gen
ire d
ĠK OM
ĠA C
ber t
os ed
Ġcent er
b esch
ra chen
ĠU kraine
le i
Ġhapp y
ĠMill ionen
Ġt ranspar
Ġf ive
ĠD anke
Ġbe w
Ġne ues
Ġbek annt
ou l
ier s
gl ieder
Ġacc ommod
Ġf ocus
ĠA cc
ag ing
wer k
UNG S
b l
d am
Ġc olle
ĠP ost
Ã¼ss e
ĠSl idesh
Ġrece ived
rech te
Ġim age
Ġtra vel
Ġth ough
Ġy oung
Ġpre vious
Ġw es
est s
ĠVer p
Ġpart ners
tain able
bild ung
Ġcon clud
ĠRes taurant
Ġe ig
ĠUn fortunately
we ll
ĠLe ider
Ġper form
taur ants
achr ichtigt
ĠF ind
Ġj oint
Ġab ge
ĠTe am
ĠAuf gabe
Ġprov ided
7 7
Ġres ources
ĠProje kte
9 0
ĠK urz
ĠIn tegr
Ġr ent
Ġ9 0
Ġben achrichtigt
Ġfull y
ĠI D
ir t
ck er
ĠHe alth
pro gramm
Ġwichtig sten
Ġc ases
ĠG lobal
fr inge
Ġprodu ction
ĠInter ior
Ġdirect ive
ĠeuropÃ¤ ischen
ĠBundes minister
4 1
Ġapp ear
ĠUr teil
Ġgel ten
ĠNÃ¤ he
Ã¤ m
ck e
Ġc ard
ĠC ity
ĠK a
res ident
ul a
ok es
lin ien
Ġaller dings
zo gen
ĠDemokrat ie
d ig
ĠI ts
Ġc entral
ĠO p
on nen
Ġsein er
g ra
la ck
ĠUms etzung
h il
Ġs ystems
ĠO ver
Ġex act
ĠBer ichterst
Ġreg ister
R IC
Ġs al
Ġw onder
ĠS E
ies en
Ġpro ceed
l le
ĠB lick
Ġappl ication
ĠTÃ¼r kei
Ġwrit ing
Ġw he
ĠK ern
ĠAn trag
Ġer g
ĠWh ich
Ġcont ent
Ġdirect ly
95 86
Ġmus ic
ĠSlidesh ows
un ikation
00 352
ĠVer antwort
Ġso und
Ġges am
Ġconcern ed
Ġcho ose
Ġihr en
ĠRuss ia
c ent
le ar
ĠP H
Ã¼n fte
ĠMad rid
BE ZIEHUNGEN
kÃ¤mp fung
ĠSch wer
ste hen
Ġch anges
ĠWill kommen
Ġmention ed
Ġabruf bar
ĠH Ã¶
Ġsub s
S EN
Ġd am
ĠE ducation
ic ial
Ġih m
ĠK om
Ġall geme
u k
on z
Ġfor t
mb H
Ġrespons ibility
U C
iv ely
ĠGe org
olog ie
ipp ed
Ġcre ate
isher ies
ar ten
ĠO ffice
leg ation
ĠM A
ĠK op
AN G
ĠMob ile
ĠAmend ment
ĠE ach
Ġe f
ĠG al
ĠHin weis
p age
ur t
et a
Ġj ob
Ġsch ein
teil t
ĠT AC
ĠM ot
Ġe ffic
Ġse par
ĠJahr es
Ġpropos ed
25 5
Ġfil es
f onds
Ġsa fe
GRA M
Ġt arge
at ives
Ġsch rift
Ġprincip le
gl es
Ġletz ten
4 2
ungs verfahren
Ġpers Ã¶n
ĠForsch ung
d ing
Ġde v
Ġsa fety
Ġdoc ument
ed om
ĠEn g
Ġreg ional
Ã¼nd et
ĠAngeb ot
mos ph
ĠD el
ĠE S
ĠW ant
ĠB alk
omm er
Ġcomm ent
ĠEC U
Ġsp ace
Ġw omen
ĠF R
Ġle ben
Ġaut omat
Ġcal led
V II
Ġ ).
Ġd ialog
ĠL AND
ian s
ĠPl atz
Ġmo ve
ĠEmp fehl
Ġindustr y
o le
res h
sp r
iz ation
Ġ29 7
ĠQual itÃ¤t
ĠAUSSEN BEZIEHUNGEN
is iert
Ġv an
ĠL og
m ann
at ten
ĠT ro
Ġe mail
f u
un Ã¤chst
Ġm er
Ġr uh
Ġgen ug
ĠStr and
le ben
ĠG mbH
ĠBeit rag
6 1
x is
un e
ĠJo hn
or der
Ġm oun
ĠM ARK
ĠP ay
ĠNe ue
Ġupd ates
ĠK ind
ma ÃŁnahmen
Ġand ers
orte ur
4 3
at ors
Ġf lex
Ġdis p
Ġlegisl ation
d ate
Ġ ident
ĠB reakfast
ĠBe ifall
Ġhel fen
ĠFISCH ER
ĠTreat y
ir c
ĠDeb atte
ĠBeschÃ¤ft igung
h Ã¤ng
ĠL ink
Ġr und
ĠWie der
Ġdoc uments
al ten
Ġe ver
5 1
Ġc amp
ra el
ĠV iele
gr atul
ĠGl Ã¼ck
Ġgan ze
6 8
ĠF ir
ind ung
Ġmein en
ĠArbeitsp l
large ment
at ory
ĠT ab
ĠA uÃŁerdem
ĠL adies
.. ..
ff iz
ĠY es
Ġtr y
Ġinter ess
V D
Ġv oting
et te
ĠV al
our n
Ġen s
Ġgesch ehen
Ġsol che
Ġarbeit en
k omm
u ed
la uf
pe cial
ĠCo operation
ĠBesch l
u el
Ġhal ten
ĠM itteilung
ic les
ct ive
Ã¤l le
clus ion
let ter
ĠChristop her
L ER
s st
z t
Ġclear ly
Ġask ed
Ġ3 355
Ġnotwend ig
E V
Ġbet re
Ġwo hl
Ġmak ing
P resident
fer t
ĠPres idency
ĠConta ct
ĠEN ERG
a den
b are
ĠS ind
Ġo thers
alt ung
ĠIns gesamt
Ġsitu ated
as ing
im s
il le
ĠFran z
ĠPerson al
Ġide a
Ġmess age
Ġn a
ĠP C
am ents
ure d
Ġw ahr
ing t
Ġfunktion iert
ĠHeraus forder
ĠW est
ĠL i
Ġkann st
Ġcompan ies
er ve
ĠG reat
full y
ON OM
il s
ĠVer ordnung
Ġsp Ã¤ter
Ġout side
Ġmet hod
Ġamend ment
ic ies
Ġpurp ose
5 9
e uropa
Ġsch lieÃŁ
IS T
Ġterm s
ĠOkt ober
d le
ĠI T
ĠM c
Ġto ok
Ġauf ge
Ġam ount
Ġz ust
rop ri
Ġcon tra
ess ment
ue llen
ang er
Ġent hÃ¤lt
Ġappro ved
ĠR is
sch n
ist ic
ste in
zeich net
Ġhappen ed
b ahn
c al
o o
Ġer w
ĠThe men
ÃŁ t
ĠReg ions
v is
ĠTages ordnung
Ġb ad
ĠI S
ĠH och
ĠReg ulation
Ġein gehen
ĠN utz
Ġr en
ip ment
ĠEx p
Ġgroup s
a ktion
Ġh erv
Ġer wÃ¤
ĠPrior ity
Ġhal te
ĠT ax
Ġet c
ĠO H
Ġer folgt
ub e
gricult ural
ĠAfr ica
Ġp ubl
Ġver d
Ġpe ace
Ġins besondere
co ver
Ġcompet ition
ĠBES CH
a der
al y
ĠW eiter
ge ord
Ã¤r en
rie den
Ġrece ption
Ġkon n
Ġel se
ĠW Ã¤hr
ĠG onz
ro ffen
Ġparticular ly
Z EN
on se
ĠA lex
ĠL ond
sta at
f Ã¤
ĠI gles
icht igen
Ġr ange
Ġdire ction
h aps
Ġst or
ges etzt
ĠAllgeme ine
Ġf Ã¼nf
ir es
Ġess ential
Ġj ud
or f
ĠBe g
Ġbeste hen
Ġchar ac
ĠR ese
ale z
ĠIgles ias
ra cht
de ut
ĠGonz alez
I O
ĠP olit
Ġan t
Ġde f
Ġ3 255
Ġ6 5
ĠGr and
ĠMar isa
Ġs uper
ĠA p
EL T
Ġreg istr
Ġger ade
Ġvoll stÃ¤nd
Ġc r
Ġin fringe
st ant
pp el
Ġbefind en
l icht
m and
en ch
Ġt er
ĠT error
ith er
ĠRe ise
Ġopport unity
Ġs ession
ĠF rei
ig ten
Ġa uÃŁer
ge legt
ĠIn ner
Ġwen iger
ĠEntschlieÃŁ ungsantrag
f assen
ĠS il
ĠW ert
Ġp ot
ig ungs
ĠN etz
Ã¶ m
ist ics
Ġsein en
ĠInn ern
ĠStell ung
ĠKos ovo
Ġd agegen
ĠM E
ĠH ans
hand lungen
ĠTRA DE
ONOM IC
K I
ĠH aben
ĠAn fang
Ġph one
ĠSÃ¼ d
6 6
f on
ĠF ol
ĠBeisp iele
Ġkom ple
e es
ĠP an
ĠH igh
ver letz
la v
Ġ3 3
Ġunter b
Ġachie ved
ĠErweiter ung
Ġs un
Ġo ption
ac y
ĠEntwick lungs
Ġchange d
Ġschw ier
k Ã¼nfte
Ġg round
ĠV illa
ue ll
Ġeigen en
Ġsum mer
ĠSel bst
p unkte
an st
id ers
ĠIn sel
ffe e
ĠHand els
it el
ĠA B
Ġle ave
Ġkn own
ĠBenutz er
at iven
ĠB Ã¼
la us
ha fen
reif en
f rei
i us
Ġl ov
ĠRe chn
Ġte ll
ĠCl ub
Ġcre ated
Ġach ieve
pecial ly
ĠE D
ut es
ĠGesch ichte
w ord
ĠT ake
ĠT ranspar
Ġ3 00
ze igt
ĠInvest itionen
er y
ĠE mail
TE L
G EL
ĠS EC
ĠF IS
Ġfin anz
ĠVize prÃ¤sident
ĠT wo
Ġevery one
Ġbra ucht
ĠZahl en
Ġallow ed
5 2
Ġl ove
Ġsch ool
Ġpre c
ĠBerichterst atter
ĠT a
le y
Ġc rit
ĠH ANDEL
ĠV OR
ĠAus wahl
Ġcorre ct
Ġs ens
ĠA gr
Ġst immen
ien en
ĠEC ONOMIC
Ġl at
Ġde p
ĠSt ruktur
OM E
quir ies
Ġim medi
ass ili
Ġsp ac
led ge
str ument
Ġd at
ĠPro gram
Ġso gar
Ġihr er
i ol
er st
he less
Ġv ideo
ra gen
ĠV ON
ĠÃĦnder ungen
UL TURE
cel ona
ĠLond on
ent ur
ĠMa ÃŁ
sche iden
ĠDo es
stru ction
ĠRese arch
ĠAn y
Ġver wendet
Ġra pp
Ġo bs
Ġse en
ĠMe er
OU T
b ott
Ġs ag
Ġal most
ĠIs rael
r Ã¼ck
y mb
tend ed
Ġseem s
it zen
ĠF uÃŁ
ol z
um mer
Ġstar ted
ĠEW SA
Ġw orth
ar ity
ĠSchl uÃŁ
ĠS olid
Ġp ath
ĠL Ã¤ndern
ess ional
Ġincre ase
ĠHintergrundinformation en
es te
ĠJ ean
ontrol le
O G
Ġ $
ĠM AR
Ġcon ven
Ġany thing
ĠUr laub
Ġinclud es
Ġinclud ing
ĠRechts s
Ġun ver
rie ben
Ġbeginn ing
un sch
Ġc op
ĠgroÃŁ en
Ġof t
Ġer folg
Ġprov ides
ĠfÃ¼hr t
ĠM ost
ĠRe c
Ġle ider
Ġhe ld
ĠHa ve
ĠPrior itÃ¤ts
ĠStand ard
U P
Ġn utzen
leist ungen
R e
ĠE ESC
ic o
gese hen
ĠheiÃŁ t
re ad
Ġent wick
Ġfre und
Ġcontrib ution
assili ou
te id
ĠAnd re
Ġerforder lich
O IN
Ġat ta
Ġus er
m as
al og
Ġpl ann
w a
Ã¼ gen
ĠC amp
Ġl ik
uf rieden
cl ar
Ġco de
Ġnat ure
ĠSu pport
Ġprior ities
Ġm ight
ro so
ĠW ould
ĠD at
Ġc reat
Ġv ol
il en
com es
ĠInter esse
ĠZw eit
il f
Ġent zieht
ĠDar Ã¼ber
b ook
h Ã¤
ĠD i
op er
Ġyour self
utz t
C K
Ġ 01
ĠT ar
ent en
ĠRe i
Ġthank s
Ġa ge
ra k
ĠRe f
Ġrec ord
Ġweiter hin
angu ages
ĠK olle
qu es
yste me
row ser
ĠFer ien
it ure
ĠT erm
Ġre ady
sch ul
Ġup on
Ġamend ments
ISS ION
FOR M
t he
Ġp ast
ĠG olf
ĠK re
ĠSt art
Ġ3 7
Ġpay ment
Ã¤h ere
ump ing
ĠVerantwort ung
it able
ne y
Ġar ch
Ġact ually
ĠTRANSP ORT
Ġherv or
an e
Ġs or
fahr t
Ġcap ital
Ġabsolute ly
om it
ĠC al
Ġr ichtige
ĠBr it
ac ce
8 2
W E
Ġ est
ĠN ame
Ġam b
Ġreg ul
Ġmehr ere
ĠBar celona
ĠgehÃ¶r en
Ġb ill
ĠA U
Ġfor ce
Ġr ather
ug s
ĠPhil ipp
or r
Ġe m
ĠNach t
Ġpre p
Ġemp loyment
ien ste
ES T
ament al
Ġstand ards
miss ions
ĠL E
ĠN O
Ġge Ã¶ffnet
ĠSta ff
gesch lagen
Ġre v
os en
ĠAb geord
ĠSte uer
ĠGro ÃŁ
Ġze igt
Ġdistr ib
M ARK
Ġto wards
ĠEN V
Ġval id
c i
Ġun acce
Ġex pected
ha upt
Ġher z
Ġd istance
ĠD EC
ĠC entral
ĠZ ust
Ġd ist
ĠEurop as
Ġr ates
ĠEn d
ĠPr Ã¼
hand el
ĠJed er
Ġfra mework
ĠWachst um
stag ung
wh ere
ĠH ar
ĠEin w
Ġdar an
Ġtrans l
Ġpar ts
gesch lossen
201 0
Ġtak ing
BE IT
ĠA K
ĠB ern
Ġcon ference
Ġer ne
Ġresp onse
Ġhal f
Ġev ents
Ġprogramm es
o z
ie ht
Ġh on
Ġal ong
ĠAr g
Ġcons um
Ġs atis
ĠA S
Ġe arly
ĠZ entrum
ast ic
ĠFr ench
Ġwel tw
Ġrep res
ĠWoch e
ĠFischere i
ĠMart in
Ġh old
ĠB E
Ġl ate
oun ts
ĠJo e
Ġtalk ing
H O
n es
ĠI ran
ĠEr k
AR EN
Ġ199 6
Ġunacce ptable
9 2
re gel
gr if
ĠSe a
pro du
itz er
e ch
ĠE le
Ġp urch
Ġre d
ne te
Ġdiscuss ion
ĠfÃ¼hr en
ĠVors itz
ĠVerbesser ung
an ted
ĠAn gaben
ĠEr fahr
Ġpict ure
Ġak zept
Ġconclud es
ĠF ret
ter dam
Ġst ra
Ġer r
Ġle icht
Ġgo es
ĠCh ance
Ġalle in
ĠComm on
Ġde pend
Ġact ions
SP RA
Ġexact ly
he ad
ĠE ast
ĠM ann
Ġk licken
ik o
Ġapp ropri
-- --
g ing
ĠD igital
tern ative
AR D
ob by
Ã¤ch lich
Ġimp act
ĠVertrags verletz
ĠA ccess
ĠE m
Ġtra dition
ĠMus ik
Ġpict ures
Ġmat ters
Ġlat est
Ġf igures
ĠB au
ĠB oth
Ġ( %
end s
Ġoff ice
Ġexp ress
c ies
Ġin ner
ĠH am
Ġ1 000
ber icht
ĠSt ock
Ġjed em
o de
p ted
Ġa ud
un k
ĠD VD
Ġz us
ĠMit arbeit
ĠRat stagung
l i
Ġv ill
ir a
ĠSta bil
r ied
ig te
ÃĦ R
Ġnat ural
Ġfriend s
y d
Ġt ick
ĠB IP
Ġso fort
wir kungen
Ġschrift lich
ĠFret well
ĠP ap
ĠB is
ĠIn frast
ss en
ze p
ĠFor um
ĠAuf merksam
Ġsign ific
b el
Ġp assen
kt ionen
US T
use um
Ã¶l ker
ĠGru ppe
F R
im um
all s
imm ing
Ġbet rÃ¤gt
ĠWes tern
Ġa ffe
Ã¤ hlt
ĠU K
sp okes
Ġ199 5
ie te
Ġsch le
ĠSpe cial
ĠAkt ions
ĠWITH OUT
inz ip
ch s
ĠO pt
Ġwh ile
ĠEr n
ahr en
ring en
sel ves
SPRA CHE
ĠAufmerksam keit
d ruck
ĠB u
ed er
ann er
EC spokes
Ġbest imm
Ġbel ie
Ã¼hr en
Ġele ments
Ġdemoc racy
ou d
age d
ĠFortsch ritte
M it
al ter
ĠB os
ĠG EMEIN
ver stÃ¤nd
Ġ4 8
reich e
Ġbis her
Ġequ ipped
cript ion
ĠWettbewer b
an y
Ġein deut
av ing
ĠNe u
ĠAUS SPRACHE
Ġeig entlich
as ur
qu al
AN N
Ġ4 3
ĠSta ats
ĠBus iness
Ġe ither
ĠL es
Ġbu y
ĠMARK ET
7 3
m m
ens ive
ĠErst ens
. "
9 1
ĠD G
st Ã¤r
00 00
ĠGD P
V EL
b our
l ant
ic ated
ĠR u
ĠK amp
Ġgood s
Ġpolit ische
Ġexam ples
ĠChe ck
pre is
Ġbeh ind
ĠOH NE
Ġsol utions
Ġpol icies
ICH ER
ĠFlug hafen
Ġw oll
ĠE IN
Ġbe hand
uf act
ult ural
ĠWe ise
stand en
ĠLat est
ĠKr ise
ĠWettbewer bs
m ary
w ise
ĠG ed
Ġein zel
Ġgo vernment
Ġstr ength
Ġfund ing
o ke
il ien
Ġes pecially
ĠAll es
Ġdis k
ĠEUROPÃĦISCH E
f eld
he im
ĠP et
ĠL eit
ab kommen
Ġcon gratul
ĠEuropÃ¤ ischer
Ġ6 4
ĠKon ferenz
ĠPRESS E
ĠDisk uss
Ġsug gest
p f
s b
un a
Ġwas te
ĠSp rache
ĠIN S
IR ON
Ġmarket s
Ġrapp orteur
Ġbe endet
ce pt
hal te
ĠAus kÃ¼nfte
Ġint rodu
ere cht
Ġk ennen
ier ungen
Ġsp ielen
ĠLe ist
Ġinvol ved
L I
ĠD EN
ĠD ire
ĠA ugen
il ar
ation en
id el
ĠOr d
Ġrec og
rie b
Ġgar den
ĠFebru ar
Ġpract ice
T W
ĠS ince
Ġm m
ĠEn ter
Ġ5 8
Ġ199 4
fr ist
Ġvar ious
Ġfeat ures
ĠverfÃ¼ gt
IRON MENT
C Y
Ġbed s
Ġbed room
ĠTechn ical
Ġequ ipment
ĠEmp loyment
Ġnor mal
Ġbe kommen
ut h
ĠGrÃ¼n de
Ġinde ed
Ġ #
un st
ĠS am
Ġk it
pe kte
Ġi P
Ġpos it
Ġhin aus
Ġpers ons
ĠFIS HER
un t
Ġver g
ail y
ĠMich el
ĠTRANSP AREN
ĠerhÃ¤lt lich
ĠhÃ¤t te
Ġs uchen
ie ÃŁen
ĠV an
Ġkle ine
Ġreach ed
ĠENV IRONMENT
Ġd anken
Ġe ducation
ill s
ĠFINAN CIAL
5 4
p or
Ġa uss
ĠC los
Ġupd ate
c en
v ement
z er
ab y
Ġcon dition
Ġam ong
ĠMit glieder
pr ise
ĠProte ction
Ġschein t
Y P
o bs
Ġm ass
ĠG as
Ġre ality
ĠU MW
gr u
ungs st
ix ed
ĠPrior itÃ¤ten
ĠInvest ment
Ġrequire ments
bo ard
Ġadv anta
Ġw anted
ĠS ommer
ĠJ e
Ġal one
we isen
ac ity
Ġact ive
Ġra d
Ġrep ly
Ġ28 5
ĠFo od
hil fen
Ġdialog ue
Ġf ight
hen s
Ġmein em
ĠCo de
Ġakt iv
Ġter ra
ĠM iss
ĠW ahr
Ġl ar
sch t
ĠRed e
Ġletz te
Ġf urn
Ġj oin
Ġacc ording
ĠAG RIC
Ġenvironment al
O Y
a uss
es ter
Ġhier zu
ĠEinzel heiten
ĠZwe ck
Ġverschieden e
C L
il es
Ġer z
AS T
Ġprop ert
Ġtechn ical
Ġp ages
Ã¶ st
ĠO L
ĠWir d
Ġ0 8
Ġtr ip
Ġbu ilt
ĠFISHER IES
7 45
Ġs ense
ĠB on
ll a
ĠL ib
ĠSt ar
Ã¤n ge
ha ft
Ġwalk ing
E GEN
W IRTSCHAFT
u a
ĠT at
Ġh ot
Ġl isten
Ã¶r en
ĠArt icle
i ents
z uf
ĠK are
ĠN Ã¤ch
ĠKol legen
ĠFISCHER EI
ĠA M
ĠW inter
Ġum fasst
rit ts
Ġcl imate
ĠAut o
ĠLin ux
ĠZweit ens
E A
w Ã¼r
Ġl iving
Ġst ark
Ġst imme
ad urch
ĠSt unden
OIN T
Ġo il
ĠC ont
te uer
Ġe conomy
ab ase
ĠY et
fen ce
MEN TS
ari at
ĠWoch en
at tet
sp rÃ¤sident
halt ung
ĠT est
tra gen
entr ale
Ġerwar ten
m eld
Ġ urg
ĠL is
Ġmod el
Ġbo ard
p rÃ¤
Ġf rei
id s
Ġer fÃ¼
Ġple ased
opp ing
Ġl ow
oc iation
Ġmon itor
ĠRuss land
Ġtas k
Ġimplement ation
Ġp o
la in
Ġwill kommen
Ã¤n gt
Ġtechn ology
arm on
g y
ĠD ruck
ĠF us
id ing
de b
Ġun ique
op h
Ġra il
Ġhist ory
Ġquick ly
und s
ĠFin ally
enn is
ruct ural
Ġstat ement
U n
Ġc ame
ĠPro v
Ġ5 5
ein ander
Ġ0 6
je kt
200 2
Ġrep resent
Ġmen u
ĠJud gment
MARK T
ĠP ie
ĠB re
ĠB ahn
Ã¶ ne
ĠBer at
Ġconta ins
Ġ29 8
Ġher aus
Ġt ut
Ġas pects
ĠParl aments
ĠÃ¤ uÃŁer
ĠAgr ar
Ġab st
arbeit en
ĠAd d
Ġverb ess
Ġopt im
at o
Ġsch wer
Ġcomp uter
Ġmor ning
zÃ¼ glich
b ack
k ret
Ġd au
as mus
ĠIn itiative
ĠBe gr
Ġour selves
itteil ungen
Ġserv ed
ymb ol
P ress
m at
ĠM ITTEILUNG
sch ieden
ĠKe ine
Ġmob ile
Ġern st
Ġsag te
h ab
es ten
Ġp oor
Ġh inter
ĠR est
ĠL o
Ġex c
AG UNG
ĠGrÃ¼n den
ĠIn halt
ign et
ĠAll er
Ġend g
amer a
it err
Ġl ies
Ġus ually
ateg ory
U G
ĠZ oll
t igen
ĠK rie
ut ter
Ġdis play
ĠUMW ELT
u ted
Ġd ue
ĠD etails
Ġc ou
ĠB ot
Ġ0 3
Ġ6 7
ĠIm m
str Ã¶m
Ġsur round
Ġdeut lich
ĠGeschÃ¤fts ordnung
6 2
ĠB AR
ĠAmer ica
ĠM id
ĠB i
Ġk am
ĠIn de
Ġag o
Ġgesch ieht
ĠKomm ent
ĠVerp flicht
ĠLAND WIRTSCHAFT
j ahr
Ġz we
Ġge Ã¤ndert
Ġst ock
Ġvor hand
ĠFolgen des
S ta
b all
at eral
ĠC ulture
st at
ĠAn mer
ĠPro zess
ĠGegen teil
L USS
Ġd om
Ġf ran
Ġse ction
Ġobject ive
ĠCost asur
ĠJUSTI CE
W e
p erson
al ys
Ġc irc
Ġan geb
ĠL as
ad or
ĠAl b
Ġdec isions
1 00
o on
w s
ĠP rop
Ġsh ower
Ġcomm it
R IS
ĠC roat
EM ENT
7 8
l Ã¤nder
w ort
w esen
al ia
ĠO der
ĠJ ac
ak ing
Ġso c
Ġdem and
Ġimport ance
Ġwel che
ĠGru ppen
Ġsele ction
Ġsignific ant
ĠGEMEIN S
L IN
ĠH al
Ġex plan
Ġ4 75
ĠEx per
ĠÃľ BER
ĠDeb ian
ĠAir port
w ers
ig ur
ĠVer tra
IN NEN
OR K
Ġjed e
Ġwichtig er
ĠSer ver
Ġlegisl ative
S TE
s k
Ġd iv
ar en
ĠF ull
Ġv o
ĠK M
ĠCost a
ĠVertragsverletz ungsverfahren
Ġa genda
Ġt Ã¤
Ġf ine
ĠTh urs
ĠFra ktion
ĠAus wirkungen
Ġagre ed
ĠTranspar enz
or re
ĠS ign
ĠG EN
Ġge geben
ok er
Ġreg ulation
Ġfar m
Ġacce pted
Ġsozial e
Ġaccommod ation
Ġspac ious
Ġzus Ã¤tz
ICHER HEIT
ĠAGRIC ULTURE
j ust
on en
is ted
Ġc ross
ĠAn satz
ess ere
ĠRe v
ĠPa ul
w ide
en gen
Ġa partments
an ced
ĠA c
Ġdes halb
Ġsh ows
Ġhin zu
il itÃ¤t
Ġer fahren
Ġ3 6
ĠAr ch
ĠSta aten
ĠST A
ĠKomm unikation
Ġve h
ĠInner es
ĠKare l
Ġl ack
ĠFr ieden
teil ung
ielle icht
ĠFil m
745 13
Ġt el
ĠV ielleicht
Ġsol id
Ġgut en
Ġintern al
ĠWor te
ĠAntw orten
tab el
fÃ¤h igkeit
ch ise
is ieren
Ġp ain
ut en
ĠRe chte
ĠGen ehm
Ġconne ction
ĠbenÃ¶t igen
hes ion
Ġr ue
ĠAb end
Ġhat ten
ĠZeit punkt
Ġbas ic
ĠlÃ¤ sst
o x
ab les
ĠO ber
ĠMinister ium
Ġwar um
tz dem
Ġ15 0
Ġnegot iations
O ffice
ĠT H
ĠB udget
Ġg ern
ĠCon ference
Ġopen ed
iber al
Ġeffect ive
ĠEben e
Ġd ring
ĠB al
Ġan im
ĠKe y
Ġchallen ge
Ġa f
Ġin fl
ĠP AP
Ġan ges
ĠR ot
ome ter
ms el
ĠReg ierung
ĠGemein schaft
Ġt w
ĠS OL
ĠD oc
ĠG i
ĠK unst
our cen
Ġgen ehm
Ġar g
pect ive
ĠMal ta
Ġsk i
miss ion
ĠJav a
Ġvorhand en
7 2
8 3
it en
ĠT ats
Ġc at
Ġc riter
Ġad ministr
geb ung
Ġfre edom
ĠA ms
Ġc ru
ĠDE VEL
ĠAnt i
TIN G
ĠIntegr ation
Mit glied
ĠM ont
ĠC op
ĠH OME
Ġwir tschaft
iven ess
prÃ¼ ft
HEIT EN
ĠSecond ly
ĠPH P
msel ves
ĠDEVEL OP
Ġw atch
ĠM ult
Ġg as
ĠAnd ere
Ġser ver
br igen
ĠhÃ¶ ch
b est
k osten
y m
ĠE v
ĠW all
IC KL
ĠFamil ie
ĠLebens mittel
Ġinn ovation
ĠThurs day
Ġthe mselves
us h
ra b
Ġde ine
Ġlim ited
Ġdat abase
5 6
Ġent scheiden
Ġqu al
ĠAN GEL
ST R
An toine
A d
er c
Ġb reak
Ġin itiative
ĠM oment
ĠK an
ĠEr asmus
Ġsh opping
Ġers ter
ĠgroÃŁ er
ĠDate i
Ġinfringe ment
ECspokes Antoine
b ility
k r
ĠF unktion
ig ent
Ġl ic
la re
og le
Ġemp fe
ĠGemein schafts
l im
m itt
Ġh ar
ĠC le
ĠK ein
icht lich
Ġst reet
EN S
hand lung
Ġset zen
ĠwÃ¼r den
t t
Ġst Ã¤r
Ġpart ies
ĠIN NER
ĠComp et
Ġgef unden
m el
al ien
ĠAn sicht
ĠAn wendung
ĠInformation s
Ġval ues
LA GE
ĠT un
ĠM IT
ing er
Ġbe zahl
EN Minister
Ġreport s
Ġpa ar
Ġfal sch
ĠAller dings
in ne
ĠF el
and id
ind est
ĠAn zahl
IS C
ĠAs pekte
zeug nisse
Ġbring t
Ġrespons ible
Ġbenef it
ĠJUSTI Z
ĠWebs eite
ĠRechtss ache
z if
Ġver Ã¶ff
ĠFl ash
Ġinterest ing
Ġdeliver ed
h le
m ore
Ġc redit
ĠF otos
ĠO ut
Ġvor geschlagen
ner stag
ĠEx ternal
Ġhand eln
Ġz entral
Ġ4 6
arbeit et
Ġhapp ens
Ġpass iert
Ġkle in
Ġinn ov
O B
Ġ il
ĠB INNEN
ĠAn nahme
ide os
Ġoff icial
ĠEN TW
ĠTechn ische
ĠMo de
l ang
is tet
Ġin quiries
ĠW Ã¤hlen
uch e
Ġst yle
Ġver kauf
Ġj obs
Ġres taurants
ĠHa up
clar ation
ĠMitarbeit er
7 4
z us
Ġd anger
un ge
Ġw ide
Ġb illion
ĠL abour
ph one
Ġbo x
Ġorig inal
8 4
g u
y er
Ġs ix
Ġth ought
ĠZ wei
ens ter
Ġread ing
roat ien
d i
f g
r ik
v i
ĠM ED
ĠB a
ent al
Ã¶ÃŁ e
ĠnÃ¤ch ste
iterr an
ĠCroat ia
Ġ ill
ch sel
ip l
hal f
Ġph otos
ĠBed ingungen
Ġrele v
Ġsatis f
b ody
u ern
Ġd aily
ir l
Ġgo vern
OR G
Ġob l
fall en
riter ien
ĠAms terdam
ĠT op
ta ge
ĠDar um
mosph ere
ĠINNER ES
un ities
ĠL am
Ġre icht
ĠVer teid
TI V
Ġsow ie
en ken
Ġb ald
Ġe y
ĠF A
ra f
Ġl os
ĠL ast
hn ung
ĠPrior itÃ¤t
Ġinternational e
ĠDEBA TE
Ġopt ions
Ġorig in
Ã¤uf ig
Ġbe half
ĠSt Ã¤r
hal tige
Ġen largement
Ġpart ner
Ġoper ation
sto ff
Ġf an
ĠB Y
ĠH A
for ts
onta kte
Ġcons ult
olog ical
ĠÃĦnder ung
Ã¼tz t
Ġeindeut ig
R IT
S ch
an zen
Ġl Ã¶
ĠN och
tr y
ĠÃĦnder ungsant
ĠChrist ian
F ER
i very
Ġge k
Ġha ving
Ġpla ces
Ġac ross
Ġcomple x
EGEN HEITEN
ĠDEVELOP MENT
ĠANGEL EGENHEITEN
Ġl anguages
ran g
be ziehungen
Ġro und
Ġ9 2
ĠIs land
ĠDo ppel
Ġmo der
ĠDenn och
ĠDon nerstag
7 1
Ġc m
ĠM os
Ġv erein
ĠK ategor
ĠCon vention
Ġcustom er
ĠBug tra
Ġtreat ment
Ġd eta
Ġbe antw
Ġk os
Ġinter ested
Ġenc our
M L
Ġb re
ĠK roatien
ĠVer handlungen
Ġman ufact
Ġrel ativ
Ġkon kre
yn am
F ocus
Ġf inis
ed ing
ĠN ice
Ġne uer
ĠGemeins ame
ĠBugtra q
Ġs le
Ġf ail
ru it
Ġsim ilar
Ġeing er
uc lear
S p
T raq
Ġa ware
ĠJ on
Ġer schein
ĠPro ced
ĠEn joy
ĠAb out
ST A
Ġpop ular
Ġverste hen
r Ã¼
Ġs auber
ĠM ic
ĠW IRTSCHAFT
ĠP rÃ¤
ĠK ir
id iar
Ġde ad
ĠIN TERNAL
ĠGesch enk
Ġange zeigt
Ġcharac ter
f il
Ġt em
and a
Ġdec or
ennt nis
ĠBug Traq
ĠVII I
ĠSecurity Focus
Ġverw enden
ĠRei he
c er
t te
ĠA ct
Ġl ux
av igation
ĠAs yl
Ġitem s
ĠÃ¤uÃŁer st
ĠBINNEN MARKT
ĠENTW ICKL
6 3
ĠI X
ĠUn der
lin es
ĠAd resse
ĠT ick
al tet
ro gen
Ġc ulture
ĠM ass
ĠG ese
and e
ab or
ĠSer b
Ġbal ance
ĠInst all
ĠKM U
J A
ĠRe ad
stimm ung
ĠSon st
. -
C D
ur d
ge gen
ent y
ĠTh ose
for d
io de
Ġ8 5
ĠGen au
richt ung
ĠSchwe iz
Ġz ufrieden
ĠGe wÃ¤sser
Ġcomp rom
Ġdar um
Ġemp loy
ĠTeil nehmer
Ġsupp orted
ĠH is
ĠO S
Ġse ason
ĠMon ate
Ġdou bt
Ġentsp rechen
ĠF isheries
Ġfor e
Ġfind e
ho use
Ġ20 20
Ġges tellt
tain ed
ĠSchl Ã¼ssel
zeich nung
Ġgef Ã¤hr
iterran ean
h as
ĠM i
ĠM and
Ġl ernen
ĠV oll
Ġein igen
Ġver treten
Ġat mosphere
ĠWer k
Ġgegen Ã¼ber
vert heless
C h
Ġw Ã¤hlen
ĠS telle
ĠG old
ĠBe kÃ¤mpfung
ast rop
ĠAl t
ian o
ĠPrÃ¤sident en
ĠerklÃ¤r te
Ġhig her
at ure
re ise
ĠS ICHERHEIT
ĠSt imme
iz es
Ġknow ledge
Ġcent ury
ĠST RA
besch reibung
ĠPhilipp e
c le
c ement
Ġd igital
Ġth us
ĠL u
ĠVer anst
ĠSch engen
Ġex change
ĠBe ide
me hr
ĠRes erv
zie hen
ĠVER KEHR
Ġeigen e
Ġconven ient
D A
ĠS TE
ĠS ME
ĠE as
ĠB ud
ĠU R
Ġvor gesehen
Ġthrough out
ĠFamil ien
ĠCent re
w ach
ĠR ES
Ġand eres
la f
ore a
Ġaus gest
ĠDe legation
ĠAus sch
ĠPRO GRAM
Ġeas ily
ĠInvest itions
Ġfund amental
bere ink
Ġtyp es
Ġverg essen
ar th
Ġb ody
ĠP L
qu are
Ġ% .
Ġeven ing
Ġestabl ished
Ġpubl ished
5 00
Ġf ant
ĠG ran
ĠL auf
Ġre in
ind en
uf fer
Ġun ten
Ġzu g
ok ing
ĠPressem itteilungen
ĠStat ist
Ġpleas ant
Ġwonder ful
schn itt
grif fen
S e
Ġis land
ĠM Ã¤n
ic ip
ĠR EG
ta k
ĠIn c
ĠFra gest
ĠFl or
ĠGes etz
ĠwÃ¼n schen
g a
ĠT err
ĠM ir
Ġto uch
end ing
ĠAN LAGE
Ġar range
Ġbeginn t
h aben
Ġf ace
Ġp an
ĠF Ã¼hr
Ġv iol
ĠH art
ĠN otes
Ġim ages
rÃ¤s ent
ict ion
lÃ¤ ss
ĠKons ultation
Ġdra w
Ġimmedi ately
O K
it arian
Ġne g
ĠWe in
EN CE
Ġrem ark
ĠGo ogle
ĠFragest unde
7 9
ot ion
ĠEn ts
TI G
AM MEN
Ġbring en
Ġwhe ther
sp ro
ĠPre m
i i
Ġh err
em e
Ġk ur
ĠU s
ĠAn g
aus schuss
et h
ĠO hne
Ġ0 5
ĠCh arl
ĠSta d
Ġob vious
ĠP osition
ĠL ou
ver age
Ġcom ing
Ġkomm e
Ġwind ow
t ion
Ġt err
Ġsh own
Ġpre fer
ĠER NEN
f ace
h otel
er er
Ġt error
Ġw ays
Ġp ie
et en
ze ugen
Ġres ol
ĠAbstimm ungsst
ĠbegrÃ¼ ÃŁen
Ġsw imming
Ġcriter ia
ĠD id
ĠF an
Ġv ict
Ã¤ ude
Ġl esen
Ġfo ot
Ġweiter en
ĠlÃ¤ uft
Ġpropert y
Ġgenehm igt
ĠERNEN N
ĠAbstimmungsst unde
Ġh uge
Ġst immt
ĠVor teile
EL L
ĠAnd ris
find en
Ġpa id
itzer land
ĠW ed
ent licht
Ġl adies
ĠL ook
Ġver m
Ġ4 4
Ġ4 00
ĠCommun ication
Ġmaxim um
b us
w enden
Ġim m
end es
ĠPro cess
tr ie
IL D
ĠVorsch riften
ĠS us
ĠO P
ER UNG
ate ll
Ġsta ge
ĠBer g
Ġreg ular
Ġher unter
ĠServ ices
a pe
Ġw ine
us ion
me er
ĠHo ff
Ġstart ing
Ġfund s
Ġterra ce
Ġw Ã¤hr
ĠB ER
ĠEuropÃ¤ isches
ĠEUROPÃĦISCH ER
ĠSub mitted
Ġweltw eit
o ff
Ġg ives
ĠL im
ĠAn lage
Ã¤t zen
Ġav o
Ã¤nd ig
LICH E
Ġopp os
O UR
P resse
Ġ ung
ĠT ier
ĠE ing
ĠM el
ateg ie
Ġtrans fer
Ge wÃ¤sser
% )
T A
p ut
ĠT agen
ta ins
ions k
Ġmed ia
Ġmot or
Ġbenef its
on te
Ġw ent
re te
ĠT as
ĠP RE
om as
ĠV AT
... ?
Ġcons ultation
Ġbeg innen
ĠMag st
D e
it ation
ĠH or
ĠÃ¶ff entlichen
Ġimpro ve
ĠMobil tel
ĠHANDEL SPOLITIK
7 6
l assen
Ġa gricultural
ĠDokument en
Ġprof it
ourn al
P O
Ġs outh
ĠE ven
Ġe hr
Ġg reen
ĠY ork
Ġdr ive
ĠIndustr y
ĠFINAN ZEN
ĠbegrÃ¼ ÃŁe
Ġerwar tet
ĠPriv at
Ġf ill
Ġb lock
Ġein s
ab hÃ¤ng
IN D
schlieÃŁ end
ĠSk ype
Ġprof essional
ĠMÃ¶glichkeit en
Ġeffic ient
Ġkonn te
" ,
A U
Ġd ir
it ness
ib r
ĠÃ¼ber haupt
imm ung
ho ben
ĠLie fer
Ġfield s
Ġprep ared
fg han
z we
teil en
Ġdesign ed
ĠBemerk ungen
ĠWissen schaft
ĠSolid ar
Ġsoc iety
F OL
Ġw ritten
ĠA partment
Ġex tens
se hen
ĠIN D
ĠIntern al
ĠRAT ES
ĠKar te
ĠKomp rom
Ġcommun ication
w el
ĠS tellen
Ġp aper
ter t
el ie
ĠMan agement
ĠkÃ¶nn ten
gese llschaft
ĠLoc ation
ĠLis bon
d own
ĠB ur
ĠH IN
um m
ze uge
Ġwar ten
Ġ9 6
Ġges prochen
Ġgut es
ĠOrgan isation
Ġtranspar ency
v Ã¶lker
ĠS uper
ed s
Ġdo or
E F
z entr
Ġ ip
Ġb ott
ĠA fghan
Ġn ennen
ĠGe orge
ktor en
ĠHome page
T UR
Ġb il
Ġv ac
ĠSta at
Ġget ting
Ġkos tet
or den
ĠP f
ĠP ina
os it
Ġse i
ĠPro m
ĠRat sprÃ¤sident
Ġconcern ing
Ġpass word
ĠProgram ms
Ġkit chen
Ġs av
ĠP ack
Ġg ese
Ġtra ck
Ġph oto
Ġdiffer ence
Ġimp ress
Ġens ure
ĠwÃ¤hr end
P OLITIK
ar ia
Ġe mer
ĠR ub
Ġbe ide
if el
Ġbed eut
bo x
ĠCas ino
ĠPers pekt
ĠS onder
ĠK n
ĠN a
ĠEr d
oin ted
UR ITY
Ġmeas ure
ĠVerwalt ungs
Ġinner halb
V I
Ġd im
Ġb uffet
Ġc ivil
ung ss
Ã¤ ss
ig ure
ĠO R
Ġhe ard
Ġsch affen
bal gs
Ġcap acity
CL US
Ġl i
Ġl au
ab on
Ġex pl
Ġ7 4
Ġapp e
ĠGr enzen
ha gen
Ġcol or
ĠFirst ly
Ġrecog n
Ġc ategory
ĠP ad
id ge
Ġer k
ĠAuf ent
Ġser ies
Ġfa cts
ĠPie balgs
L e
b ark
ĠS yr
ir it
ĠK ur
Ġer laub
ĠDem oc
Ġweek s
Ġopport unities
Ġcover ed
ĠP aper
Ã¤ um
ĠC ustom
ĠAn fragen
ĠImp lement
ĠÃ¶ff entliche
ĠW ord
ĠF RE
ĠC r
ĠThe ir
if fer
ĠSp rachen
Ġform at
ĠAPP OINT
E urop
le icht
Ġp erm
ĠR ules
ĠL U
Ġ4 1
Ġrequ ires
Ġkein er
ĠFinanz ierung
ĠSw iss
Ġguarante e
Ġvill age
Ġt im
Ġsa ve
ĠGeb iet
ĠAkt iv
ĠMo dern
Ġstud y
leit ung
Ġarr ival
Ġpot ential
ĠtÃ¤ glich
E r
ĠV en
Ġre pe
Ġun bed
Ġst ory
ne hm
ag raph
ĠY ear
ĠWar en
ĠUp date
d rÃ¼ck
ĠE conomy
ĠIn t
ER S
Ġcon sequ
ĠAL L
ĠSEC URITY
l ass
s am
Ġa head
ie gen
Ġf ishing
as ts
Ġb or
al a
Ġc aus
Ġre chts
Ġr ule
ĠWh ite
Ġ5 2
US AMMEN
ange b
ĠMe x
Ġjed es
lemen te
En gl
ĠSchwer punkt
p rechen
Ġs il
ĠB ay
ent wick
ĠR ess
ĠG M
ĠG ip
ĠN Ã¤here
ell es
Ġsuccess ful
Ġsele cted
K AN
n ungs
w es
Ġb orn
ER ATION
Ġcon tr
Ġad vert
Ġsit es
ĠRes ort
uff ic
ĠSicherheit s
ĠSCH LUSS
ĠBemerk ung
idel ines
Ġf ish
ste ad
ĠQ U
Ġinstit utions
Ġren ov
F AH
m on
es tens
he ben
Ġg ames
ĠL iss
um n
ĠBe ach
Ġapp re
per iode
fl Ã¤
ĠImp ro
Ġmot ion
ĠB log
st ances
os p
sch ie
je cted
ĠBer uf
ĠLÃ¶s ungen
Ġabsol ut
Ġed itors
h ung
en eral
Ġin iti
ĠP A
ĠG ES
Ġl ost
ĠDe fence
ĠAnd ro
Ãľ SS
ĠSitz ungs
ĠBeit ritts
ĠGenehm igung
in ary
he l
ĠW unsch
ta usch
ach se
Ġge legen
Ã¶r t
fÃ¼hr en
Ġsel f
Ġide as
ĠDirect or
ĠTele fon
Ġgan zen
Ġmil it
ĠAU F
j Ã¤hr
s a
Ġt en
at ic
ĠS A
ĠA partments
ĠM itte
ĠB O
ĠK ontrolle
ĠN utzen
ick en
ĠComp uter
Ġbook ing
ĠRegel n
or sch
ĠS ingle
ĠE ur
ur a
ĠG ast
Ġl ay
ap t
Ġ199 3
Ġbeg in
xim ately
ĠSw itzerland
Ġoppos ite
bark eit
Ġs ource
Ġc ause
Ġse x
OL L
ĠDar auf
r as
Ġs ort
ĠD ata
Ġc ards
ĠP aket
ĠC CI
im b
ĠL ive
Ġex hib
200 8
Ġagre ements
Ġparticip ants
5 3
6 9
ĠEx ce
ĠAmer ican
5 8
Ġp en
Ġh our
ter ne
ĠC ard
ĠR et
ĠK enntnis
ĠZ unÃ¤chst
ĠEin satz
ĠTe x
Ġfound ed
ĠCON CLUS
Ġdefin it
Ġhig hl
Ġwoll te
FOL GER
ĠG ott
ĠL uc
ĠVer Ã¤nder
Ġ3 9
los s
ĠAb s
Ġincre ased
Ġdevelop ed
ĠMer ger
mÃ¤ÃŁ ig
g ern
Ġf ahren
ĠBe teil
Ġrep la
Ġgemeins am
Ġincre asing
Ġeing es
Ġverschieden en
Ġsus tainable
ĠFus ionsk
A uss
is er
Ġf and
ol o
id a
Ġre gel
Ġk il
ĠIn stitution
TE G
200 9
Ġdec ided
Ġgew orden
ĠNor way
ĠUnivers ity
ĠFir ma
ĠRechn ungs
ĠKamp f
Ġcomprom ise
er cial
ar ing
ĠA gency
ier ter
Ġcon text
ĠDer zeit
Ġind ic
cr ibe
ĠÃĸff entliche
Ġsl ow
Ġgesam te
ĠLiss abon
re m
ĠR em
ĠL esen
ĠTh ird
Ġcl ar
zeich en
ĠStrateg y
Ġbal con
Ġappropri ate
P l
P AR
Q L
z Ã¶s
it er
ĠC e
Ġbe vor
ĠZ entral
cc o
Ġpart y
Ġprop er
ĠDenn is
Ġvar iety
ĠDiskuss ion
deb ate
g liche
k arte
v o
Ġw inter
ĠHe ad
kl us
Ġhappen ing
Ġbro ad
IF E
Ġef forts
* *
Ġs ale
ut ive
Ġcon struction
Ġso le
Ġze igen
sto ffe
nes day
p id
z one
Ġs port
ĠM ail
am ous
ib ilities
Ġer hÃ¶
Ġgo al
Ġreg ions
att ung
Ġuse ful
Ġexp ensive
Ġmin imum
ĠLeg al
ĠEmpfehl ung
uffic ient
Auss prache
te te
Ġin tens
ge f
ĠV AN
Ġ3 8
Ġfolgen der
rat ic
Ġexce ption
D EN
b auen
Ġm ail
ĠM igration
ĠH E
ĠMr d
Ġcom fort
Ġres tr
ÃĦ N
ĠPer haps
ĠÃ¤ hn
ĠProced ure
a ders
ĠS ource
ĠA k
ĠI raq
ĠM Ã¼n
ĠW and
ĠH ins
ĠJ oint
ĠMar g
Ġout come
ĠPe ople
Ġexper ien
199 9
Ġsepar ate
ĠErk ki
Ġcongratul ate
k m
Ġb ackground
ĠI C
ĠF ach
ĠG ift
ĠK riterien
ĠV e
de cken
kt iv
Ġst ructure
Ġver n
Ġle dig
ĠAm b
ĠAss ociation
Ġreserv ation
ĠverÃ¶ff entlicht
ĠÃĦnderungsant rÃ¤ge
ĠSCHLUSS FOLGER
E O
ĠE rach
ĠP o
ĠSch lieÃŁ
ĠBe cause
ast le
Ġte ach
OM M
200 3
Ġgew Ã¤hr
ĠKÃ¶n nen
verstÃ¤nd lich
STR Ãĸ
Ġrelev ant
ĠAfghan istan
ĠErach tens
d aten
r al
Ġth reat
ind ern
ĠVor bereit
Ġsein em
Ġzw eiten
Ġpolit ischen
Ġakt uelle
Ġkle inen
Ġledig lich
c omm
d ienst
Ġin frast
ĠB EI
ĠF lex
Ġg ing
ber to
oc ol
ĠDes wegen
ĠUr s
ĠGeneral se
G N
I Z
Ã¤ ne
Ġal t
ĠPro z
erv ice
OR S
ĠZahl ungen
vert y
Ġeinz ige
n ungen
ar es
ĠT EL
ĠP ool
Ġan alys
ĠRe in
Ã¶r per
ĠPra xis
ffiz ien
zep tabel
K S
Q U
p al
Ġm ap
ĠP ower
Ġgee ignet
ĠSpa ÃŁ
Ġeinzel nen
ĠS icht
ĠD I
art ige
arbeit ung
ICH T
Ġplay er
Ġpra kt
Ġchallen ges
ĠHart mut
t d
ĠA pplause
ĠE lect
Ġh or
ĠH u
ĠH olid
ĠZ imm
ĠAr ten
Ġdis app
Ġtr uth
ho od
Ġph ot
upt ion
ĠAnt on
Ġsupp l
ĠEngl isch
Ġje we
ĠChe m
Ġpract ical
ĠSum mary
ĠInfrast ruktur
z y
Ġ ign
ĠW ater
Ġe uch
ĠG est
os es
Ã¤t ig
ĠNe elie
Ġadv ance
mÃ¶ glichkeit
Ġerfolg reich
ĠWed nesday
C O
us st
Ġl ives
ĠAN H
Ġspe ed
ĠX II
ĠPart ners
Ġprote ct
Ġlevel s
Ġev al
ĠZe ichen
UCH T
ĠNutz ung
Ġlov ely
ĠVorsitz es
ĠERNENN UNGEN
he b
Ġh Ã¶ren
Ġpro b
EC AF
Ġ20 2
AM E
Ġconsider ed
Ġpop ulation
te chn
ĠP ak
ĠB ade
Ġv ari
Ġg ain
ra hmen
Ġde ath
Ġbest Ã¤t
Ġcar ried
Ġresp ond
Ġber Ã¼ck
Ġrun ning
ĠBos n
a f
ch ed
ĠO ffic
Ġpl us
ĠHer zen
Ġeng ine
Ġobs erv
ĠEle kt
Ġfore ign
F ra
i ro
ĠFor est
Ã¼ck en
ĠQu elle
Ġben utzen
Ġoffer ed
ĠMÃ¶ chten
ĠVerkehr s
Ġpres ented
Ġlim it
ĠNews letter
ĠReal itÃ¤t
Ġperform ance
i ann
Ġo l
ĠR oy
TI C
ied r
be hÃ¶r
Ġpr Ã¼
ord ination
ĠMed ia
Ġunterb richt
ĠBerat ung
s uch
an cy
ro ck
ĠPro di
Ġunter schied
ĠZusammen hang
Ġhigh ly
ĠSub s
h ere
en hagen
Ġs etzt
ĠS and
ĠS inn
ur ance
Ġen orm
L AR
c ia
Ġd ream
Ġw id
Ġh ost
Ġex ternal
imm ungen
Ġdel ivery
ivers ity
Ġdisk ut
ĠSitzungs periode
ĠH en
os al
ĠVer t
TI S
ame ter
enn ung
Ġsu itable
Ġgu ter
Ġla unch
Ġmin ute
Ġvisit ors
Ġwa iting
r ies
Ġm em
le isch
Ġn Ã¤
ĠP ut
ĠVor gehen
ĠAus wÃ¤r
Ġins ide
Ġ28 2
ĠFrei heit
Ġunbed ingt
M ember
i kt
Ġ ;
Ġw ants
Ġf resh
ge fÃ¼hrt
Ġk aum
ĠYou th
bar en
Ġmy self
AM T
Ġrel ated
Ġemp has
ĠGo vernment
ĠApp ro
Ġsupp ly
Ġanim als
D ok
it le
Ġf ert
ĠIn fl
la w
ran ce
ĠReg ul
Ġviel leicht
Ġeuro s
Ġelect ric
K A
ĠD ort
um b
ER AL
ĠAb satz
Ġ8 00
AT EN
ong s
Ġtra gen
RA GEN
Ġcall s
i ance
ĠS or
ĠL A
ul ted
ud em
Ġ8 8
str uments
gehen d
ĠQuest ions
ĠBereich e
Ġmov ement
Ã¼l tig
Ġtarge t
Ġna he
ĠDEC IS
Ġdring end
s es
Ġs agt
ĠS ud
Ġv irt
ra y
our able
ist isch
lo b
ang ing
ĠAb bott
Ġ6 00
Ġfe ed
Ġrele ased
ĠRedner in
ĠSCHLUSSFOLGER UNGEN
STRÃĸ M
h am
ĠD ritt
ĠA T
ĠB la
ann en
Ġme chan
Ġsch l
Ġen gl
ĠWer te
Ġho he
ĠBei hilfen
Ġann oun
ĠANH ANG
D O
or a
Ġo ben
Ġc y
ĠR ich
ĠG U
hr te
ĠCh o
att le
ĠPrioritÃ¤ts achse
Ġs an
ĠT A
ĠD ol
ĠD uring
ter en
Ġl ines
ĠZ udem
ĠLe ute
Ġdiscuss ed
ĠIde e
ĠP ier
Ġ( âĤ¬
ĠN ic
ĠAn other
ER N
ĠSt Ã¼ck
men ted
Ã¤t igkeit
ĠDE F
Ġ25 0
ipp ing
ZI AL
ĠDec ision
U RE
f isch
ie he
Ġc ele
ĠN ik
ĠIn stit
ĠRe le
Ġab geschlossen
tw och
ull a
ĠMenschen rechte
Ġans wers
ĠBook ing
Ġmoun tain
Ġempfe hlen
Ġappre ci
k n
ĠK enn
ĠGe walt
Ġcar ry
ĠAfr ika
ĠÃ¼ brigen
ĠMaÃŁ nahme
Ġeinger ichtet
ĠCONCLUS IONS
ĠT on
ĠP E
ĠP rag
ĠH all
ĠG od
ĠK y
ĠK arl
Ġsh op
ĠGe fahr
Ġ199 2
ĠSpan ish
Ġakt uellen
ĠHÃ¶ he
ĠEinw Ã¤nde
Ġurg ent
n d
Ġf all
ĠT OT
ĠB R
ĠB SE
Ã¤ us
iv ity
ĠCl imate
Ġimpro ved
Ġinstit ution
ĠTerror ismus
Ġherz lich
ĠKrie g
ĠAPPOINT MENTS
s c
ĠR ights
ĠO ff
Ġde ep
ug os
Ġ5 1
olog ies
ĠVertra uen
Ġil leg
ĠFusionsk ontroll
h one
ĠC re
ĠL td
ta ke
ĠSe ine
ud s
Ġgew esen
Ġappl ied
ĠKar ten
ĠStra ÃŁen
ĠKÃ¼ che
ĠBÃ¼ ro
Ġb an
ĠD ay
res p
Ġal ternative
Ġver h
Ġwer t
oun ge
Ġ4 2
Ã¼n sche
ĠFl Ã¼
zeit ig
Ġpar agraph
Ġzie hen
Ġd ich
un ion
Ġf amous
Ġc urr
Ġc ultural
ĠM at
ter e
em in
ĠN on
Ġk Ã¼nft
pp er
ien cy
Ġcl ub
ĠDim it
Ġdeta iled
G A
c ame
f angen
f Ã¤lle
Ġf Ã¶r
Ġc la
Ġz entrale
ĠIn nen
th ough
ĠSt Ã¤d
gr Ã¼ndet
ĠWer den
OP ERATION
ĠENERG Y
Ġsle ep
5 19
Ġw inn
Ġb log
ge ber
ĠN ie
Ġk o
ĠIn iti
err y
CH N
ĠSe k
Ġpl ans
bed ingungen
ĠHins icht
ĠTOT AL
e ing
Ġc ert
ĠP ed
Ġl Ã¤nger
Ã¼r z
Ġ- -
Ġpro t
ĠPro s
Ġor al
ĠKommission s
ĠCh ild
ĠIN TER
ĠHaus halt
ĠJed e
ĠgrÃ¶ÃŁ te
ĠverfÃ¼ gen
ĠVerwalt ung
ĠWieder auf
ĠerwÃ¤ hnt
Ġschwier ig
Ġs up
Ġb ase
Ġc ook
Ġre ag
00 1
ĠSch laf
ĠDe ut
pl ant
pl Ã¤tze
ĠLe on
ĠVerb indung
ca pe
hÃ¤ s
ĠOrd nung
m essen
Ġ ),
ĠD ina
em and
ĠO ption
Ġer Ã¶ffnet
ĠVer l
AR BEIT
leg ung
Ġtre ten
ĠAv ra
WE IS
Ġausgest attet
ĠSolidar itÃ¤t
s Ã¤tze
v ote
Ġn orth
Ã¼ tzen
ĠH enn
ĠV iew
Ġer reich
Ġgreat er
SS ON
Ġbr ings
ĠRegel ung
ĠHerausforder ung
M A
T HE
c ure
g as
ĠD ISC
al er
ĠM ON
ĠR O
Ġex erc
200 6
ĠTag ung
Ġgleich e
Ġd etail
Ġh Ã¤ufig
Ġan z
ĠH at
ann es
Ġex clus
ĠNe vertheless
Ġsim pl
Ġappl ications
ĠDate ien
b re
r ichten
or ed
ĠD rit
il er
Ġal b
Ġver folgt
ĠWir kung
Ġum fassen
Ġsp ielt
Ġpl at
Ġcons umer
zeit en
Ġcomple ted
Ã¼nd liche
201 3
ĠMid dle
I X
V IT
in os
ĠI R
ĠC at
ĠK ong
Ġwh ite
ag ue
ĠBesch reibung
CC CC
Ġentsp richt
mÃ¶ glich
Ab stimmung
Ġgese hen
ĠAvra am
G eneral
k raft
Ġs ays
ĠM useum
Ã¼ b
ĠJ ul
Ġne igh
Ġr at
ze ption
Ġch ance
Ġpr im
ĠMit twoch
ĠAuf gaben
ĠAut hor
Ġconf irm
Ġbro ught
ĠTour ismus
Ġruh ig
Ġcrit ic
f ass
r ank
s etz
ar us
ich ert
ian e
ĠPal ace
Ġaddress ed
Ġjeder zeit
ĠVerpflicht ungen
Ġanges prochen
c ul
s weise
Ġb i
Ġn ights
Ġbe came
uf e
ain t
Ġno ise
ĠNe hmen
ĠHaus e
ĠStand punkt
Ġholid ays
rim in
Ġakzept ieren
ĠWahr heit
S V
Ġd ise
re hens
Ġb lack
ĠM ess
ve y
ĠDe fin
Ġ8 9
d ire
f urt
Ġf ire
Ġb lo
Ġc as
ĠL IFE
ct ors
ĠO J
ĠWe iÃŁ
AN T
Ġsch Ã¶ne
cl es
ĠReg istr
ĠWill st
Ġfil m
pend ent
VER KEHR
Ġpurch ase
is ely
ĠS ir
ĠB lack
ĠC ECAF
ĠG anz
Ġre jected
de te
ĠAn na
ĠCh in
Ġtra ffic
TION S
Ġco ffee
Ġsc reen
ĠRo ad
stell ungen
Ġorgan is
Ã¶t ig
ĠCent er
ĠSO CIAL
ĠFa cts
Ġfreund lich
ĠJac ques
Ġin fo
Ã¼ ÃŁ
Ġcon v
ĠBe vÃ¶lker
ĠAr mut
je kte
EL LE
ĠBericht s
ĠAngelegen heit
Ġche ap
Ġprincip les
ĠT U
ĠM ond
ĠB an
ic kt
ĠIn f
ĠVer kauf
Ġle isten
Ġges p
Minister in
ĠJed es
b and
Ġg lad
ĠK al
ĠK rit
tell er
ED ER
ĠPr ime
rech end
Ġpress ure
ĠStat ement
Ġlo ad
Ġson dern
ĠSm all
bereink ommen
. ,
V EN
i h
ĠD ou
ĠW a
ĠV assiliou
Ġstand s
ĠBereich en
ĠSc ience
ĠAngeb ote
wand el
Ġentire ly
ĠBrit ish
ĠVerteid igung
p ass
Ġb uchen
Ġg ran
Ġgro ss
Ġpre par
Ġmach ine
ous ly
Ġart icle
Ġstrength en
n el
Ġ ut
er ing
ĠV ier
ĠEurop ol
ĠAuf trag
ĠRed aktion
M AN
or tet
ie g
ĠF Ã¤
ĠL ang
ĠUnter such
Ġany one
200 4
Ġass essment
verkehr s
ĠKap ital
Ġsett ing
ĠSME s
Ġbalcon y
Ġs uffer
ĠP as
ĠB ere
ĠH on
ĠH ist
Ġge d
Ġme ters
Ġ4 9
Ġ9 5
Ġfre qu
ĠAss essment
reit en
Ġregister ed
in em
Ġd raft
an lage
ĠU l
Ġ7 6
gel t
ĠMed iterranean
ĠX IV
Ġappro ximately
Ġstat us
ĠBo den
Ġ75 3
ĠCas a
Ġexist ing
Ġwa it
ĠMc C
H A
a ign
Ġt Ã¤tig
on str
an ten
ĠE igen
und ert
Ġg Ã¼nst
ĠV ill
Ġse he
Ġsch ed
ĠAl ter
Ġpr in
Ġwork ed
ĠCon clusion
Ã¶ff nung
Ġho ffen
ĠMon at
Ġplay ers
Ġgar ant
Ã¼tz liche
zw ischen
ĠHerausforder ungen
Ġcru cial
ĠGese llschaft
w asser
ch ter
Ġw under
ĠN umber
Ġj our
Ġqu ot
Ġvor liegen
Ġcomm unity
ĠCon clusions
ĠAd dition
Ġstat istics
ĠSO ZIAL
ĠerklÃ¤r t
Ġentwick elt
Ġlar gest
L IC
ĠC arl
ĠV om
Ġpl ant
Ġcons ist
ĠPl en
ĠPR ES
Ġvers uchen
ĠInd ia
ĠDienst leistungen
ĠwÃ¼n sche
__ __
Ġsal es
ĠHolid ay
f alt
ĠS inne
ĠI l
ĠM acht
ĠF our
if fe
ik er
Ġall oc
ĠGr enz
geb iet
ĠMen ge
ĠTra ining
ĠWo hl
Ġdr ink
Ġmajor ity
Ġaim s
Ġgesam ten
Ġconsum ers
ĠLes ung
ĠAnmer kungen
OMM UN
( )
ĠA UD
Ġn Ã¤m
ĠP un
ĠG Ã¼n
Ġpre vent
Ġmein es
itÃ¤ re
folger ung
ĠNot hing
ĠAg entur
Ġtot ally
oss ible
Ġzust immen
ĠBESCH L
schul d
ĠNÃ¤ch ste
ĠAndro ulla
ĠnÃ¤m lich
h op
y an
it iveness
Ġw in
ie llen
al es
le b
ĠG O
ĠK abel
Ġge fÃ¼hrt
UNG SPOLITIK
Ġra ised
ĠQual ity
Ġkur ze
P E
ĠS ur
ĠM ake
ĠM aterial
el a
IL L
ĠAs ia
Ġcol lect
ron ic
ĠCons umer
Ġerne ut
ĠPerspekt iven
p olit
ĠS Y
ĠR ob
Ġex port
Ġas pect
ĠFin al
ild ing
Ġbet roffen
Ġco ast
stand ing
ĠDaten schutz
ĠÃ¤ uÃŁ
Ġnie mand
ĠSal z
ees c
Ġlik ed
ĠErfahr ung
Ġlau tet
Ġh ilf
ĠB io
ĠB AL
ĠF enster
ĠAus gang
Ġdis cover
ĠAm t
ĠAd ministr
ĠBar roso
Ġsay ing
ĠZw ischen
Ġindustr ial
Ġintegr ation
ony m
ĠAlex and
Ġdau ert
E x
I t
re y
Ġan tw
Ġl Ã¤nd
Ġwe il
AT ES
ĠSh ow
Ġnumber s
Ġihre m
ĠCar lo
ĠGar ten
ĠbenÃ¶t igt
ĠAufent halt
l am
Ġt ats
he t
ĠT im
ĠK urs
ĠZ U
ĠRe view
ub a
tell te
Ġknow s
az za
Ġze hn
Ġmaterial s
ĠprÃ¼ fen
ĠHenn on
N e
i able
p ack
s eit
en ze
ĠT er
Ġb ag
Ġh ostel
ĠB ack
Ġl aufen
Ġst ress
zen z
con t
ĠOn ce
ĠVerein bar
ĠKOM M
Ġef fort
Ġrepres ented
519 25
Ġs yn
ĠM P
Ġth ous
ĠTh us
ĠAus bildung
ĠCO OPERATION
Ġthink ing
ĠJo h
vers ion
ĠnÃ¤ch ster
ĠSpiel er
prÃ¼ fung
ĠGesundheit s
Ġbehand elt
Ġsolid arity
he et
Ġf irm
Ġb essere
ĠI rak
ĠW ien
ĠW olf
ĠP os
Ġh Ã¤lt
ĠB UD
Ã¤ te
qu em
Ġde term
Ã¤n gen
ĠDe claration
sp olitik
ĠOr der
Ġrec ent
Ġrem ov
ĠSh ar
mb uds
Ġsec ure
ĠForsch ungs
Ġauthor ities
ĠOp fer
ĠGEN ERAL
n o
Ġt rifft
ar io
Ġb aby
ro es
ĠE isen
ĠG ute
ĠV ien
Ġun be
ĠItal ian
Ġsupport s
fa ult
ĠRoom s
ĠPlay er
Ġestabl ish
USAMMEN ARBEIT
G R
l ast
it ial
it ude
ĠW E
ĠP oker
Ã¤ llt
Ġse chs
Ġgen ommen
ÃĦ F
Ġwel chen
ĠAm ts
Ġdel iber
ĠSan ta
Ġregistr ation
Ġcou ple
H R
p ret
re chts
ĠN AT
Ġk g
ow ers
Ġden ken
AN A
Ġfolgen des
str umente
ĠII a
ITTE L
gra de
Ġerlaub t
A l
f iz
ch mal
Ġd an
Ġn ames
ĠC ontrol
ĠH T
ĠK redit
Ġcon cept
ens ions
Ġbut ton
Ġworld wide
ĠRom a
Ġactiv ity
leit et
Ġwr ite
ĠKop f
ĠKomment are
ĠLou is
l Ã¤ndern
v ements
ĠS omet
ge geben
Ġh ous
Ġan sp
id o
Ġfor ms
Ã¶ hn
ĠTh ree
Ġch em
IN S
ĠMar c
Ġ12 0
ĠMe et
Ġregard ing
ĠE L
Ġer sch
Ġro ute
Ġpre m
Ã¤hr ung
schlieÃŁ lich
zeug t
zieh ung
bereich e
Ġmark ed
ĠENERG IE
a ction
ĠD adurch
Ġp ick
ĠF unkt
ĠC F
ĠH O
ol den
ind e
ĠO sten
Ġwe ak
Ġauf bauen
Ġr ichtigen
ze g
ĠBer ichte
Ġsp richt
Ġcomm ercial
Ġend lich
ĠTo ol
Ġwen ige
Ġeffe cts
ĠKo hÃ¤s
ĠDat um
ĠBahn hof
ÃľSS E
ĠA ktion
ĠG ut
Ġl ake
Ġk aufen
ann ten
Ġsp Ã¤t
Ġserv iert
ĠArbeit en
Ġplay ing
Ġadv ice
Ġfinan cing
ĠHam burg
Ġmonitor ing
ĠR en
est ic
Ġer folgen
Ġ5 3
Ġ8 4
Ġco ol
ĠÃĸ l
Ġsc r
cr ib
mittel n
Ġtour ist
ĠMot or
mÃ¶glichkeit en
D aten
le istet
ĠM O
ĠF Ã¼
Ġl abour
ib el
Ġex ec
ĠÃ¼ber w
ak ten
Ġwork ers
Ġstar ts
ĠSuch e
emp loyment
ĠWohn ung
Ġjud gment
ĠNO TE
Ġveh icles
om b
ic it
ĠG RE
ER V
av es
Ġfre ue
ĠBet rieb
ĠEvery thing
ĠTre ffen
ĠBESCHL ÃľSSE
R Y
S tr
Ġm atch
ĠM un
im ent
et ter
ĠDies en
wer te
ĠAus gaben
ĠBel arus
ken nen
Ġappro val
ĠDok umente
ĠGeb Ã¤ude
ĠBl ue
Ġenjoy ed
Ġocc as
ĠOper ation
Ġ04 75
ĠerfÃ¼ llt
ĠKategor ie
n y
ĠM as
Ã¤ hl
Ġk omp
Ġk lare
Ġon es
ĠO mbuds
Ġr is
ĠBe zug
Ġ9 7
ĠMe ter
Ġfe hlt
ĠAt lant
Ġange geben
ĠKo ordin
ĠRess ourcen
ĠDISC USS
or gan
ĠA F
ĠM asch
ur b
ĠC AP
Ġbe achten
Ġz unÃ¤chst
ĠTh omas
Ġge kommen
Ã¤n den
Ġwo od
Ġcontin u
ĠLa w
Ġprom ote
ĠDim ension
ĠBeg inn
ĠExce llent
Ã¼ her
ĠB ol
ĠH olz
ĠR ome
Ġcon fl
od es
ang t
Ġsch lÃ¤
Ġapp lause
Ġbes ondere
Ġ199 0
Ġcons ists
Ġrem ember
Ġplay ed
ĠPar te
Ġprote cted
ĠZahl ungs
ĠUnternehmen s
ĠFurther more
Ġfeat ure
an ze
ĠM old
ur en
ĠB ILD
Ġl ower
and al
ver treten
ĠSt ructural
Ġ4 7
Ġpay ments
ĠWettbewerbs fÃ¤higkeit
FAH REN
Ġinfrast ructure
Ġe her
able d
Ġcomp on
Ġtr ust
ĠJahr h
ĠUm gebung
Ġ% )
ific ations
Ġwish es
Ġimple mented
ĠLin ie
ĠKle in
Ġposit iv
Ġangeb oten
m lich
u is
ĠS et
ĠP ot
ig a
ra w
ER B
ann te
fahr ens
fol ge
Ġunser es
Ġfin ally
Ġacce ptable
ĠOpen ing
Ġprec isely
E TING
G EMEIN
P A
Ġf allen
ar u
ĠT yp
al led
Ġin struments
ĠF oto
Ġst ore
EN D
AR E
ĠMon ica
ĠFre und
Ġelect ions
ĠÃ¼ b
fu hr
gru ppe
ĠRele ases
F IN
H U
l en
Ġs ymbol
ĠR SS
ĠVor haben
Ġ7 00
ĠNe ues
ĠUnter kunft
Ġover all
ĠSh op
hol en
Ġnetwork s
ĠEmpfehl ungen
meld ung
Ġerschein t
P F
or ies
ĠK orea
Ġbe comes
ĠV o
Ġre ich
Ġver stÃ¤r
ĠAs pekt
ĠGer icht
ĠMet ho
aff t
H e
l Ã¶s
Ġd ynam
Ġs ufficient
ĠM ik
ĠG row
Ġbe teil
ĠJ ack
la ufen
ĠFra mework
her es
Ġgleich en
Ġadvanta ge
person en
Ġexplan ations
ĠHA US
E AR
f ish
Ġ {
Ġc amera
ll es
Ġl ength
ĠL icht
Ġre act
Ġsh ops
Ġhe av
ĠGr Ã¶ÃŁe
Ġprodu ced
ath an
ĠZwe ifel
ĠSTRA TEG
Ġiniti atives
ĠFusionskontroll vorschriften
B er
Ġd ates
ĠH as
ĠV ia
den ken
all ery
be zogen
Ġtra ve
Ġcons ulted
ĠKon zept
Ġhand s
ĠGo vern
anc ing
ĠStud io
Ġfunktion ieren
FORM ATION
b ringen
h re
Ġ Ã¶
Ġd on
Ġh ol
et ary
ĠRe zeption
Ġsh ip
reich end
Ġke pt
ĠNach bar
Ġzw ar
org ung
ene w
Ġgeb oren
ĠOther wise
ĠGar ant
Ġsozial en
Ġplann ing
ĠKolle g
n issen
y ond
ĠB ru
ab we
Ġun z
Ġge grÃ¼ndet
bar ometer
Ġcomm ittee
gel n
net en
Ġspeak ing
Ġmet res
Ġvoll kommen
Pro gramm
ĠUse ful
Ġtele phone
ĠFel der
ĠVorbereit ung
E EC
I EL
g ers
p ark
ar ily
Ã¼ ter
ĠC a
ĠH ers
ere i
TI GE
Ġgr und
Ġbr and
ĠBesuch er
Ġpartners hip
ĠGEMEINS AME
Ġconsequ ences
ĠPak istan
S F
Ġb zw
ĠD re
ĠE F
ir us
Ġre den
Ġge ts
ire less
og raf
ĠTe ile
Ġset s
Ġhigh est
forder ungen
ĠRE P
ĠVol k
Ġur ban
Ġcolle ction
ĠArbeitspl Ã¤tze
ĠPolit ical
Ġstra ight
Ġerr or
Ġfant astic
K ommissar
l it
p ool
ĠS ach
ion e
ĠF ire
il a
Ġbet rach
ĠCon trib
IRTSCHAF TS
ontro llen
Ġbezahl en
Ġavo id
ĠPartners hip
ĠVien na
an ies
ĠS und
Ġand erer
ĠIn strument
Ġsch eme
ĠLe arn
Ġbest immt
ĠMore over
ĠAnn ual
ĠHerz lich
ĠPass wort
Ġdanger ous
ĠPROGRAM ME
ĠFÃ¤ llen
Ġm and
Ã¼ d
Ġg ave
and o
Ġde g
oll ar
ĠBe hÃ¶r
RO L
pl iz
ĠCh ange
Ġ199 1
ĠMor gen
Ġdefinit ely
ffizien z
ĠP uer
Ġan gen
ad em
Ġr u
Ġall ows
ĠAbstimm ungen
ĠMen sch
Ġexp end
ĠNet work
Ġspec ies
Ġrele ases
ĠCommun ications
Ġcamp aign
ĠIS O
ĠOL AF
wÃ¼r d
wach ung
ĠschlÃ¤ gt
B AN
Ġs inn
Ġf ear
Ġb rowser
ĠPr inzip
ĠBet r
ĠLie be
Ġdevelop ments
ĠMil ch
utt le
Ġtranspar ent
ĠMode ll
b Ã¼
p ress
Ġn uclear
ĠK auf
am ing
Ġst ates
ĠSch aden
ĠBe h
Ġsta bility
ĠGe ben
Ġappro x
Ġcar s
Ã¶rder t
Ġwes entlich
ĠInde ed
T OR
b ha
Ġc red
Ġdes k
Ġsp irit
Ġstay ed
UT Z
ĠTab elle
ĠSchlieÃŁ lich
A IN
h ner
r ia
Ġa verage
it ime
ĠS oll
ĠM ak
Ġl ag
Ġl ok
Ġver k
ern er
Ġfollow ed
Ġgr ate
ĠInd ien
Ġdr itte
Ġarbeit et
Ġcontra ct
Ġplann ed
Ġkonkre te
Ġprob ably
Ġcele br
Ġs ides
ĠW IRTSCHAFTS
ĠG N
ĠAn ca
Ġcon du
iv iane
Ġch ann
ĠSh ould
ather ine
ĠReform en
ĠBeschÃ¤ft igungs
ĠSum mit
ĠBot schaft
ĠlÃ¶ sen
ĠDECIS IONS
k ommissar
w ill
Ġd uty
ĠEr Ã¶ffnung
be zÃ¼glich
ĠHa fen
leg ant
ĠBei hilfe
ĠUmwelt schutz
Ġconf idence
Ġinterest s
Ġcare fully
ĠPra kt
ĠBas is
ĠALL GEMEIN
S C
b u
Ġt rÃ¤gt
on om
ĠA id
ĠI d
ĠC ONS
Ġbe ar
am ed
ĠEu ch
rÃ¤ gen
ĠVor aus
Ġper cent
AC E
ĠRE V
Ġele ment
GES AMT
ĠCOMM ON
T e
b ad
or es
ĠM em
Ġp oll
ic ed
Ġl isted
Ġer heb
Ġent ry
Ġfe e
ĠOr ig
Ġsol chen
ĠDi am
Ġbestimm te
qual itÃ¤t
Ġviol ence
flÃ¤ che
ĠRoy al
L OS
Ġd inner
Ġp urs
ĠB alt
ĠV AL
igh ted
geb aut
ĠUnter schied
Ġbed arf
ĠAg ain
ĠPartner schaft
aly se
comm un
ĠnÃ¤ her
ĠT urn
ro ad
ĠE mer
ĠW ald
Ġtr ying
ĠVis it
Ġcop y
Ġinnov ative
Ġs n
ĠT onnen
ĠT itel
ĠW ik
Ġp ure
ĠH y
ĠK roes
ĠJ ournal
Ġr ich
RO M
Ġdec ide
Ġpack ages
Ġnational en
Ġeinz ig
Ġlearn ing
Ġant i
Ġdistrib ution
gy pt
ĠHIN WEIS
G ET
c is
l as
l Ã¤nd
t ime
w an
ĠD rogen
ĠE ffe
Ġbe gan
ĠL ake
Ġver ab
Ġde fault
ben e
AC K
war en
Ġreform s
Ġarr ived
ĠAD OP
ĠLeit linien
A Y
G I
s eite
Ġf igure
ĠT R
Ġin tend
ĠM ut
ĠG el
Ġ( *
ĠN ichts
Ġk ontakt
ick s
Ġent schieden
Ġspe ech
ĠThank s
ĠBes te
Ġexp lain
Ġmed ic
ĠFisch ler
ĠHin weise
Ġann ual
Ġaffe cted
S Minister
z ielle
er weise
ch em
ĠN Ã¼tzliche
der ung
Ġj emand
Ġor d
Ġres ort
fÃ¼hr ungen
ĠTra dition
ĠGes prÃ¤
ĠGeneral dire
ĠTechn ologie
ĠNor wegen
Ġupd ated
Ġbl ue
Ġdam age
Ġrail way
Ġjour ney
Ġris ks
B eit
ĠS un
ĠD rei
ĠF ot
ĠC atherine
eit her
ly mp
ĠSt rom
ĠÃ¼ber all
klÃ¤r ung
Ġprov isions
Ġequ al
Ġfl ight
BER G
!! !
assiliou EU
roso ft
ĠKomprom iss
Ġgrate ful
D I
M ar
N L
V assiliouEU
m ack
s ichtig
Ġs ports
ĠB MW
ĠC ould
ĠO K
Ġcon stant
ĠVer gleich
ĠVor lage
Ġ9 8
Ġsol d
ues day
EI GN
ĠGeld b
ĠIde al
ĠKlima wandel
ĠTro tzdem
N AH
or ca
Ġw est
Ġb order
ĠD O
ĠE ssen
ĠM B
ĠWe ge
Ġconta in
fl anzen
icher ung
hÃ¶r en
ĠFrank furt
Ġir gend
ĠJon athan
ĠImplement ation
entwick lung
Ġgrund legen
h me
ĠS H
ĠS ant
Ġf ruit
ĠA rab
ĠF act
Ġto urs
ĠG entlemen
am ber
ind ustr
ĠJ ose
Ġne ben
AL M
Ġnach haltige
Ġbit ten
ĠStellung nahme
ĠINS GESAMT
ĠMic rosoft
behÃ¶r de
ĠDimit ri
Ġansp rechen
c ceed
s ichtigt
Ġs omit
Ġf uer
ĠC ivil
Ġge plant
Ġde part
ag ne
iz ont
Ġimp ossible
Ġrecommend ed
ĠIde en
ĠfÃ¶r dern
ĠKOMM ISSION
t ze
Ġe missions
Ġl uck
ĠV oting
ĠO ld
ĠZ ivil
ĠSch Ã¶n
ĠSe arch
Ġlook s
Ġconc rete
fin anz
ĠFOR EIGN
pre ise
ĠbegrÃ¼ ÃŁt
Ġinde pendent
Ġaud io
ĠDire kt
Ġverbess ert
ÃĦF TIG
3 00
k retÃ¤r
ĠM onta
ĠW LAN
Ġn Ã¶tig
Ġh Ã¤ngt
ĠF Ã¤lle
Ġbe quem
ĠGe legen
olog ien
ĠMal m
Ġsur pr
Ġreason able
ĠÃ¶ff entlich
Ġabst ain
s iehe
Ġd ed
it ate
Ġf ixed
Ġb ir
Ã¼ g
ĠF akten
Ġg ere
ĠR ou
am in
Ã¶ p
ĠIn form
ĠAn s
ĠCh air
Ġspe zie
Ġpla ced
ĠRed ing
ET Z
ĠKon fl
ĠPROC ED
ĠMittel meer
Ġfra gen
Ġart icles
Ġredu ction
ĠhÃ¶ her
ĠPla za
Ġappear s
ĠME ETING
Ġschle cht
ĠTRANSPAREN CY
Ġtats Ã¤chlich
C A
p m
Ġs age
Ġb ind
ĠD istr
ĠA ID
ur aru
ĠR A
ib ly
ĠSt ano
Ġhe ut
be kÃ¤mpfung
Ġmet ro
Ã¤tz lich
ĠOb ject
ĠAuÃŁen beziehungen
Ġzahl reiche
ĠBeschl uss
Ġcommit ment
Ġterror ism
ĠSus tainable
Ġexpend iture
b ett
Ġb ur
ĠB ir
ĠC AR
ĠSch iff
los e
IN E
AR Y
wo hner
Ġco vers
Ġges etzt
Ġjust ice
olog ische
Ġausge wÃ¤
Ġdevelop ing
ĠMobil itÃ¤t
Ġopin ions
Ġmind estens
onn es
rim inal
Ġrelax ing
Ġeffic iency
ĠpersÃ¶n lich
ĠPrÃ¼ fung
ĠiP hone
Ġs enden
Ġh armon
Ġe arl
ĠL ife
Ġk rit
Ġj Ã¤hr
ak te
ĠVor auss
ubl in
Ġgen ieÃŁen
ĠWel ches
Ġgew Ã¼n
ĠBes onder
Ġph ase
ĠSpe zial
ĠDis c
ifiz ierung
une hmen
ĠTar if
ĠAktions plan
Ġappe al
ĠALLGEMEIN E
n am
n ern
Ġt ru
or ary
ĠT em
ĠB reak
Ġver Ã¤ndert
RO W
oc co
ĠAl tern
Ġsu cceed
ĠEuro stat
richt ungen
Ġele kt
ĠFrÃ¼hstÃ¼ck sb
Ġtre ffen
ĠAud io
ĠJav ier
ĠRu he
ĠCompet ition
H T
f est
v ision
as c
ĠE lemente
Ġan imal
ĠH ol
ĠK en
ĠAn teil
Ġat tend
Ġvor bei
iz in
Ġgu ide
ĠIr ish
Ġser ve
ĠBo ard
ĠBank en
ĠWes teren
Ġrecommend ation
ĠTRANSPAREN Z
ĠPad uraru
Ġanalys is
ĠDrit tens
S L
s y
Ġc oll
ĠW il
Ġh om
Ġv ess
ĠUn it
Ġsta ke
tr ies
IT Z
Ġste ts
Ġnach stehen
ĠFr id
Ġcour ses
ugh ter
Ġoper ations
Ġinstall ation
ĠhÃ¤t ten
Ġautomat ically
fÃ¤ llt
Ġpo verty
o hl
r ate
Ġd ur
ĠA SS
Ġm el
Ġn umer
Ġfor get
lo ok
ange l
Ġreg ret
Ġoff iz
ator en
ĠComp anies
Ġakt ual
ĠProtokoll s
Ġbek omm
Ġperfect ly
Ġ ult
Ġc ities
ĠW Ã¼r
ul f
ĠVer wendung
ĠEuropean s
IT ÃĦ
fr ika
Ġdurch gefÃ¼hrt
Ġcl ients
ID IG
ĠVER TE
Ġbesch Ã¤ft
Ġimpro vement
sequ ently
ĠFar ben
Ġmis take
fu hren
komm ens
ĠChild ren
rehens ive
c am
Ġa griculture
ar ies
Ġm ut
Ġbe in
ĠL etz
um in
ver standen
Ġent scheid
Ġ7 3
Ġsp oke
ĠMa x
Ġrec ently
Ġph ys
ep uty
ĠForm ular
ĠPressek ontakte
Ġtick et
s pe
Ġd ank
Ġf isheries
te mp
Ġb on
Ã¤ st
Ġse ll
Ġst ring
Ġver tra
ĠBr ian
ont in
ĠCo hesion
Ãľ N
ĠApp l
Ġfest gelegt
Ġgrow ing
Ġredu ced
Ġrefer red
Ġbedroom s
ĠKrit ik
ĠPRES ID
B r
S cript
S QL
T R
z iert
Ġd re
Ġc e
ĠM ID
ĠP ER
am mer
ĠBe im
ĠEuropÃ¤ er
Ġcomp l
Ġsp end
Ġbes uchen
ĠMitglied staat
Ġgew innen
ĠgroÃŁ es
ĠComp any
Ġsecond s
Ġtour ism
Ġparticip ate
ĠBeschl Ã¼sse
Ġrepres ents
) ?
Ġd ram
Ġs and
ĠS ara
ich ern
ĠH ost
ĠR ule
ĠK or
Ġy es
ine a
Ġsh o
ĠSe ktor
scha fter
Ġvor gelegt
cht est
chn et
co de
Ġopen ing
ĠTor res
ĠZus atz
ĠRich ard
ĠVERTE IDIG
b it
d ienste
r d
Ã¼ ge
ĠC ome
ĠK O
Ġst re
Ġme ant
RO GRAM
rÃ¤ ger
Ġgen annt
ED EN
ĠAnt id
ĠSu ites
Ġserious ly
por ate
Ġvo ice
ĠPRE PAR
ĠBUD GET
ĠGrow th
ĠMalm strÃ¶m
Ġa ward
Ġa uÃŁerdem
ĠM ov
ĠW i
Ġe en
Ġg olf
il ing
et ten
ĠK reat
Ġl as
Ġfor mer
Ġcon ver
ass ador
Ġ5 4
Ġpr int
Ġpl enty
ĠSa fety
Ġverb unden
ĠEvery one
Ġtas te
ĠFISCH LER
Ġflex ible
ĠAbgeord neten
E UR
f Ã¤lt
Ġa ffairs
ĠS atur
us ed
Ġh all
Ã¼r ze
sch w
oc i
Ġcoun ter
ĠLand es
ĠRes ults
Ġsc en
iend ly
ĠDar an
ĠMÃ¶ chtest
Ġfac ing
ĠTod d
ĠGerichtshof s
Ġdim ension
ĠCe cil
Ġphot ograph
ĠInfl ation
Ġantw orten
F i
b ie
g ien
Ġs am
ĠT uesday
ĠM ig
ĠW affen
Ġl obby
ut s
Ġnot ice
ug g
Ġdem onstr
Ġ19 89
ĠMen Ã¼
Ġsomet imes
forder t
Ġcontin ues
Ġverl oren
ĠFest ival
B R
c raft
Ġd ient
ĠD am
ĠE igent
ĠG E
Ġbe fÃ¼r
ĠL ist
ĠSch war
ĠSch aff
TE C
Ġsp ot
Ġacc ord
Ġben utzt
Ġcl ient
ĠFre iz
Ġask ing
Ġgemeins amen
Ġbrief ly
ĠAndre as
ĠPier re
O s
d o
n etz
s et
Ġd rop
as is
ĠT al
ĠH ard
ig end
ĠN one
ĠO lymp
Ġwe bs
qu ate
ik ing
IN A
ap ter
Ġper haps
lÃ¤ uf
ĠFre unde
ĠRicht linien
ĠVers and
BER EIT
Ġprof ession
Ġcontrol s
Ġrecommend ations
Ġstud ents
ĠunterstÃ¼ tze
Ġmean ing
schein lich
Ġgl ass
ĠCOMM ISSION
ĠBESCH ÃĦFTIG
regel ung
Ġdepend s
ĠCho ose
ĠBevÃ¶lker ung
ĠCecil ia
S I
c ast
f ers
m od
ĠT isch
Ġc old
Ġin itial
ĠK ris
Ġre ference
ĠN ob
Ġpro ud
ad o
ĠSch e
Ġus es
Ġum gesetzt
AL E
Ġ7 7
Ġprodu ce
201 2
Ġsum mit
go ing
ĠFar be
ĠMont i
Europ ean
Ġexerc ise
i ant
k an
p la
z ig
it ts
ĠD avon
Ġc ategor
Ġin sp
Ġv ital
ly ing
der t
ĠSt unde
we gs
Ġhe t
ĠSe lect
los igkeit
pr ene
10 7
ST AGUNG
ĠPrior ities
ĠST R
Ġandere m
ĠApp arte
Ġlot s
AB IL
ĠWahl en
Ġrent al
ĠTab ak
Ġtradition al
ĠDoc uments
Ġbeantw orten
ĠEnts p
Ġvict ims
D S
ĠT ype
Ġc ell
il ft
Ġl ands
Ġk Ã¼
ta us
ul s
ĠVer fasst
Ġr ub
Ã¤n glich
Ġfe ll
ĠIr ina
ĠCl ass
Ġtechn ische
Ġglaub en
ĠEM PL
Ġbetre ffen
ĠSchluÃŁ folgerung
ĠStaats minister
ĠOffic ial
z il
Ġw Ã¤ren
ĠE missions
ĠP op
Ġg irl
ĠR os
um ption
Ġden en
ĠBe handlung
se ktor
fÃ¼ gt
ĠNach richt
Ġtr end
Ġdel ic
ĠRo bert
Ġ! !
Ġinternational en
ĠAkt ionen
ĠWes halb
weis ung
Ġ.. ..
ĠDurch fÃ¼hrung
ĠSICHERHEIT S
A id
D ennis
T P
w eit
er a
Ġw ichtigen
re ens
ĠS ite
ĠT en
ĠT ib
Ġbe it
tr itt
Ġpl ug
ĠEuro barometer
Ġposs ibility
ĠHo f
ĠRechts vorschriften
Ġmed ium
ĠInternational e
Ġnear by
Ġparticip ation
Ab bott
ĠKat astrop
Ġzahl en
ĠFol ge
ĠVOR BEREIT
ĠPrioritÃ¤ts achsen
ĠAppro val
Dennis Abbott
m Ã¤r
Ġs we
ro b
Ġin tended
ĠP ia
ĠF uture
Ġz ul
Ġr ural
ĠSe in
Ġ5 6
fe ct
ĠNe ben
Ġste el
Ġcoun t
ĠHa ut
ient ific
ĠTeil nahme
Ġinvest igation
ĠAss istance
ĠWirtschaft liche
Ġcol our
ĠWith out
Ġhuman itarian
Ġerreich bar
ĠADOP TED
M ittel
Ġw ann
ĠS ow
ĠD ir
Ġin ak
st attung
ĠL ag
sch Ã¤tz
ib ilitÃ¤t
sp iel
Ġtra ding
Ġcomm itted
ĠKontakt personen
ĠÃľber gang
Ġdisc ount
ĠBest immungen
ĠEntscheid ungen
ĠMin ute
Ġmid dle
EW G
ĠKom fort
Ġbetre ff
IO JA
ĠForest ry
ĠSubs idiar
Ġcurr ency
Ġalb um
ĠFacts heet
T h
b ourg
Ġs now
om an
ĠF eld
Ã¤ cht
el ia
il ot
Ġbe ge
ĠSt re
Ġaus reichend
ĠAb schlieÃŁend
ens ichtlich
Ġ6 3
Ġdurch aus
Ġra ise
ict ions
ĠHer zeg
ĠBes tellung
kon om
Ġson st
ĠWell ness
Ġcr ime
Ġfran chise
5 45
k arten
w ind
ĠT iere
ĠE t
Ġe mb
eit s
rÃ¤ ume
Ġ7 2
OM IOJA
ĠÃľber blick
Ġla den
str ategie
ĠUS D
ĠGem e
richt linie
acht ung
ruct ures
ĠNov ak
zahl ung
ash ion
Ġgem Ã¤ÃŁ
ĠNÃ¤ heres
Ġocc up
lob ale
ĠTU OMIOJA
Daten bank
ĠS ystems
ĠD us
ich e
Ġc os
ot he
ce ption
ĠAn wend
Ġge fallen
Ġver antwort
Ġwith d
ik es
Ġch osen
ang s
ĠSp iele
ĠZeit en
ĠZusammen setzung
Ġpar ad
ĠKr ank
Ġpleas ure
Ġerg Ã¤n
Ġautomat isch
ĠschlieÃŁ lich
ĠRis iko
ĠZust immung
Ġsatisf ied
T V
d orf
Ġw all
ĠT able
ĠE gypt
ĠB rowser
ĠK ON
Ġr iver
Ġmo de
ĠGrund lage
schl Ã¼ssel
ĠStra ÃŁe
ĠVors itzen
ĠGal ile
Ġcontr ary
ĠContrib ution
ĠAntid umping
ĠM all
ĠL ate
ĠL iber
ort ion
ip le
ĠCh anc
Ġbes tellen
Ġmehr eren
ĠKl im
ĠAD D
Ġtransl ation
Ġtick ets
b rech
d ed
f ree
p a
w in
or ia
ro y
Ġc ur
Ġto ld
ĠRes taurants
fÃ¼hr er
ĠZusammen fassung
gest immt
ĠSte uern
Ġmeet ings
gew iesen
Ġmob ility
rÃ¤n kt
ĠFerien wo
ĠEnter prise
ĠClos e
c u
e v
ĠT om
Ġo k
ig ations
ĠR und
ĠV ideos
ĠL ernen
ul d
ĠSch nell
Ġex t
Ġ6 1
ĠAll ow
ĠAuf bau
ĠEx am
Ġpre vention
Ġfr Ã¼her
ĠEntw urf
ĠVER B
Ġsk in
ĠSon n
ĠHal b
ĠPuer to
industr ie
C l
S K
o be
t ieren
Ġt onnes
Ġw on
re l
ĠD ublin
ĠE val
Ġp al
ĠB and
Ġfor dern
ĠO s
ĠEr ste
ak es
ĠMinister s
ake te
ĠMar iann
ĠCoun try
Ġgu idelines
ĠGro ss
Ġmin or
Ġabs urd
199 8
ĠStat us
Ġrun s
Ġhistor ic
Ġendg Ã¼l
ĠDEF ENCE
ĠKohÃ¤s ions
ĠF air
ed ia
Ġbe yond
ct ing
ten eg
ĠZ UR
ild et
ĠZeit raum
ĠUm st
ĠBet ter
ĠAre a
ĠMein er
ĠBeit rÃ¤ge
Ġtax i
Ġlim its
Ġmoun tains
Ġkontakt ieren
V P
ĠD EM
ind ungen
pp ing
cl ing
Ġ8 7
ĠMe as
ĠIN VIT
ĠDar in
Ġstar ten
ĠPark platz
ĠLie chten
Ġsicher lich
unter nehmen
ĠDan ach
letz t
Ġocc ur
Ġteil en
Ġlead ing
Ġallgeme inen
ĠWÃ¤hr ungs
TIV E
Ġneg ative
ĠSud an
E ICH
V O
ĠD orf
Ġe th
Ġe legant
el be
ĠL ong
kt op
ss ystem
ĠSch n
ick ing
Ġsch reiben
ĠHe im
Ġstatt finden
ander ung
kret ariat
ĠCle an
Ġmilit ary
ĠPed ro
ĠVERTEIDIG UNGSPOLITIK
w urf
re form
as bourg
ĠT ob
ĠA RE
ĠP or
ĠB isher
ig it
ind ruck
Ġge prÃ¼ft
ER O
Ġle aders
och en
Ã¤r m
ĠNach richten
rei ber
ĠCon c
Ġinst ruct
Ġeben so
Ġintegr ated
Ġmil k
ĠOper ational
ĠBE ZIEHUNGEN
Ġverbess ern
ĠStÃ¤r kung
D UC
v an
v iel
he bung
ĠW in
ĠB aum
ĠC am
ĠH ER
Ġz one
ĠO ffen
ĠEin fÃ¼hrung
ical s
ĠProdu ktion
Ġbook ed
Ġperfe kt
Ġsl ight
ĠTour ism
ĠCOMM UN
Ġzie mlich
ĠAR BEIT
Ġdev ice
Ġerz ielt
Ġcat alog
ĠInvestitions bank
ĠEMPL OY
ĠVORBEREIT UNG
S O
u ber
ĠA th
ĠM S
ĠK Ã¶rper
Ġl ose
Ã¶ nen
ĠZ iffer
ĠRe fer
ĠMar io
Ġclos ely
Ġdar aus
ĠEx ec
ĠFran chise
ĠInter vention
Ġappl ic
ĠAut ob
Ġfamil ies
cript ive
fre und
Ġrelations hip
ĠAcc ording
Ġadvanta ges
Ġelectric ity
ĠNovak ova
r ich
s v
or ing
ĠD ring
ĠC la
ĠC ook
ĠR Ã¤
ĠN ick
os ter
wer b
fl uss
ĠMan uel
Ġwel comes
Ġrequ ested
Ġweiter es
Ġmiss ing
VII I
Ġmethod s
ĠGip fel
gef Ã¤hr
ĠSek unden
ĠMeet ing
g ung
u y
en ing
ĠE qu
ĠM esse
ĠP oss
Ġh ilft
Ġan zu
il ateral
Ġbe wer
ĠN ahr
ĠSt o
Ġ6 2
Ġacc ident
Ġdeb t
Ġfr Ã¼h
Ġange messen
Ġbegr enz
Ġcontrib ute
Ġfa iled
ĠCap ital
Ġtarge ts
Ġverd ient
Ġpie ce
ĠShar rock
ĠLiechten stein
S KI
Ġt ack
Ġc ash
ĠW ollen
ĠO thers
ĠSch ool
ĠWir klich
Ġex tend
Ġsu ite
ret ty
Ġgesch Ã¼tzt
10 2
Ġacc om
Ġacc ounts
iver se
ĠHa ft
ĠVerein fach
ĠSk i
ĠRuss ian
Ġmov ing
ĠBern ard
atell ite
ĠPROCED URE
ĠFrid ay
? ?
Ġs quare
it ious
Ġin strument
Ġg one
ig ungen
Ġz Ã¤hlt
ĠN iel
Ġdes crib
ite ct
Ġqu ar
Ġvor her
ger ufen
Ġsp a
Ġdar in
ĠKl ar
37 9
Ġmov ed
Ġnews letter
ĠHel p
Ġkonn ten
Ġemploy ees
ĠNie mand
i pe
l iste
t l
ĠA gricultural
ĠE re
ĠM Ã¼
ĠR ab
Ġein ig
gen cies
Ġwe ather
ident ial
Ġcomp rehensive
Ġapp oint
Ġvers ions
les en
Ġeinfach e
Ġcontin ued
Ġfact or
sh op
Ġinform ed
stra ÃŁe
ĠSchwer punkte
Ġstor age
Ġfurn ished
Ġadvert ising
ĠPros pective
vertreten der
ĠGelegen heit
Ġtru ly
Ġinak zeptabel
B ahn
b ast
b ased
on ien
an i
Ġs ources
ĠA z
ĠE du
ĠP ension
ur i
ĠC OR
st re
ĠK as
ĠK Ã¼rze
Ġbe coming
Ġl if
od ge
ĠVer halten
ĠSch ne
Ġ5 9
ĠEin richtung
Ġvor ge
ish es
ian a
Ġma x
fra gt
ĠRes olution
wÃ¤r tig
Ġmain ly
Ġless ons
ĠBra zil
Ġdiv ided
ĠAnton io
ĠIniti ativen
Ġ(* )
E in
M ITTEL
y mp
ĠS yn
ĠI b
Ġo w
ĠG AS
ĠL os
Ġun er
ĠSe hen
ĠHand eln
ĠInd ones
Ġinst alled
ĠSecret ariat
ĠBo ot
Ġrequest s
cel and
ĠEng land
ĠGlÃ¼ck w
ĠVizeprÃ¤sident in
Ġregul ations
Ġbelie b
ĠRet urn
ĠInstitution en
Ġeval uation
ĠDou ble
ĠPun kten
s etzen
ĠS omit
ĠM AT
ed eral
ĠG laub
eit ert
ĠLe hr
alt ungen
ĠAd op
ĠFran co
Ġconc entr
isp iel
ffiz ient
ĠExp ress
zuf Ã¼gen
ĠAng st
ĠBalt ic
ĠFrÃ¼hstÃ¼cksb uffet
M a
V IS
i ot
Ġt a
ent scheid
ĠF un
ĠV iet
Ġcon clusion
ĠBe weg
Ġdem okrat
pro gramme
ST EN
Ġdel ay
ĠMon aten
Ġaccess ible
ĠPh ase
ĠVerein igten
UL TUR
Ġmiss ion
ĠAbgeord nete
Ġvac ation
ĠProz ent
ĠJoh annes
ĠGalile o
teneg ro
re is
Ġb ars
Ġis ol
ĠB Ã¼r
ĠF ab
ĠSt reet
bar a
ĠSta hl
Ġlie be
klÃ¤r ungen
AND E
ĠSte in
Ġtechn ologies
ruf e
ĠFolgen de
Ġmid day
osp ital
ĠBAL KAN
Ġearl ier
ĠEMPLOY MENT
D ate
K on
m Ã¼
Ġt ill
Ġin stead
ĠM indest
ĠB ased
ĠF OL
ig are
ĠR ural
Ġl ift
Ġre ject
ĠSt il
Ġad j
ĠQ ue
ĠPr ices
ĠIhr es
fr ont
ĠComm it
ĠIs lands
Ġwichtig es
ĠBes uchen
Ġsel ten
prÃ¼ fen
uz z
ĠKurz beschreibung
ĠFA Q
ĠCharl ie
ĠRechnungs hof
ĠVereinbar ung
ĠSatur day
d oor
ĠA part
Ġc oin
Ġn iedr
ĠF onds
ĠR og
Ġein heit
ĠN avigation
Ã¼r zt
ĠJ es
Ġver folgen
Ġwe g
Ġsh ared
ze igen
ĠSe x
ĠEin en
fÃ¼ hl
Ġra pid
Ġweiter er
ĠProdu ct
ĠRom an
ĠTechn ology
ĠAut om
Ġcre ation
ĠStud ie
Ġwind ows
ĠBalk on
ĠSchluÃŁ folgerungen
Ġbehand eln
Ad resse
mitt lung
ĠTerr asse
Ġremark s
ĠAuswÃ¤r tigen
k ap
in y
ĠS W
ĠD auer
Ġp m
ĠB or
ĠB ORG
ll o
ĠG ent
ĠG AL
Ġfor um
am s
Ġmain tain
ĠUS B
hol t
Ã¼nd ung
Ġsec ret
Ġallgeme in
Ġcrit ical
ĠStabil itÃ¤ts
Ġey e
Ġvern Ã¼nft
Ġappreci ate
ĠChin ese
ĠPREPAR ATION
l or
Ġf it
ĠD EL
ĠF L
ĠH an
ĠK lage
Ġun abhÃ¤ng
ĠVer fahrens
Ġam az
scha u
Ġ7 9
wo gen
ĠMa xim
auf trag
ĠReg ierungen
Ġsome one
ĠHier zu
ĠUr mas
Ġber uf
Ġprof ile
gangen en
Ġerforder t
ĠChar ter
ĠPay ments
ĠRis iken
Un ter
ĠJava Script
ĠCr ist
Ġhighl ight
Ġconfl ict
n ach
u ction
ĠS D
Ġf rag
Ġm Ã¼ndliche
Ġc ore
Ġc andid
ĠF Ã¤h
ĠJ ens
Ġal te
Ġst opp
ss on
ĠSch iffe
ĠÃ¼ber prÃ¼ft
Ġle bt
Ġmod els
pen den
Ġsc ope
Ġkon zentr
hol m
ĠMÃ¤r kte
Ġarr ive
ĠSchw ier
ĠschlieÃŁ en
ĠRec ommend
Ġsor ry
ĠPrÃ¼ f
ĠErfahr ungen
ĠPap ier
ĠAddition al
V orsch
f igur
j o
z ed
it o
at ible
ĠS C
ĠC L
Ġl ock
Ġl oss
TI TU
Ġad just
ĠAus nahme
Ġar m
ĠEx tra
ium s
ĠArbeit nehmer
Ġrel ig
Ġaccess ed
Ġexce pt
Ġfl at
ij k
amm lung
Ġchar ges
Ġinfl u
ĠPA ET
Ġt emp
Ġt itle
ĠA qu
le bt
ĠP O
ĠH ong
ĠR EC
ĠV b
ĠN H
for dern
Ġde le
ĠSt immen
Ġch arm
ud ge
wer ke
tell vertreter
ĠCh amp
Ġpl ants
ĠHe il
RE CH
ĠDes cription
Ġbusiness es
Ġtest s
ĠAud itors
ĠLeg isl
Ġprofit ieren
ĠStÃ¤d te
ĠNAT O
EAR CH
c ific
ĠS end
ĠT y
Ġo ber
Ġe at
ĠH ence
Ġg re
sch lag
gr iff
ĠEin igung
ĠIN FORMATION
Ã¤hr t
Ġpropos es
ĠFre m
ĠMehr heit
ĠTele komm
ĠFund s
bour hood
kr ise
ĠRES EARCH
1 01
r uch
ĠS IM
ar o
Ġe c
ĠF ac
ĠH ot
Ġfor est
ach s
Ġj Ã¼n
Ġqu e
Ġcomm and
Ġgel angen
erk ennung
ĠGl as
ĠGar den
Ġdemoc ratic
Ġlead s
ifiz iert
ĠLi zenz
ĠvollstÃ¤nd ige
ĠKolle ge
ĠAlt stadt
ĠPrem ier
ĠMÃ¼n chen
ĠKy oto
ĠId ent
h ow
p assung
Ġf ro
ĠB ig
ĠB anner
Ġto ile
Ġg erecht
ĠG B
ĠG az
ĠN ero
Ġwe gen
qu er
Ġauf genommen
Ġch anging
ĠBr as
ĠEx port
ĠPre isen
Ġprov ision
ĠPart y
ĠVER FAHREN
Ġcal cul
yr ight
ĠMus ic
ĠStellung nahmen
Ġkomple tt
ĠArg ent
ĠGed anken
ĠAktiv itÃ¤ten
E P
d umping
y e
is y
ies t
ĠIn halte
la ut
ĠPro gress
Ġam tieren
ĠAll ah
Ġsee k
Ġers tellen
ĠDes criptive
wit ch
ĠMy SQL
ĠBest and
St ate
ĠPat ten
Ġpurp oses
ĠAC P
ĠKa iser
ĠTerm in
Ġdisplay ed
Ġeinges etzt
Ġgran ted
ĠKoordin ierung
ĠDring lichkeit
N ET
h ers
t ten
Ġa wa
ĠS om
ĠE th
ĠM inder
ĠW he
ĠG AP
ĠL iberal
Ġz Ã¤hlen
Ġun ivers
Ġyou th
ĠPro ject
ĠEr wÃ¤
ste lle
Ġch urch
AL TH
ĠBr and
Ġcomp ar
Ġsa w
Ġacc omp
IC E
IC ES
utz ung
II I
ĠMan aging
Ġcor ner
ĠSozial es
ĠgrÃ¶ÃŁ ten
ĠFo und
ĠHerz lichen
mosph Ã¤re
Ġarrange ments
ĠHoff nung
ĠUntersuch ung
ĠBESCHÃĦFTIG UNG
B L
G L
M IT
f Ã¶rderung
g ere
h y
k rÃ¤
Ġt ransp
es telle
it ar
ĠS ing
ĠS up
Ġf ax
ĠT Ã¤tigkeit
ĠA ward
Ġn one
ĠP flicht
ĠB ill
ĠC ong
ĠR ail
Ġ1 10
ĠN iger
Ġal ten
ĠSt immer
Ġauf merksam
ĠEurope Aid
ok en
ĠAb fall
ĠBeit ritt
Ġnational e
ĠCor azza
ĠViel falt
Ġamb itious
ĠAussch uÃŁ
ĠBeteil igung
Beit rag
Ġcategor ies
o oth
er ver
an ien
ie gel
ĠI celand
Ġc atch
ĠB ett
ĠF O
Ġg iving
Ġver t
Ġde legation
Ġfind ings
Ġ9 1
Ġhier fÃ¼r
ĠMe eres
ĠMe chan
Ġwel cher
Ġwel coming
Ġwichtig ste
Ġexp la
ĠGeb iete
Ġoper ational
Ġtop ic
ĠSol che
Ġmess ages
ĠImm ob
STA ATEN
ĠInstall ation
Ġdan ach
ĠgewÃ¼n sch
h i
Ġb and
ĠD ienste
le hnt
Ġp ermanent
st all
Ġein verstanden
Ġst Ã¤ndig
Ġwe ight
Ġer leben
ap est
cl ude
ĠAl p
Ġsp read
OM inister
ĠMa ja
ĠZeit plan
ĠÃľber prÃ¼fung
ĠAm elia
ĠBar bara
Ġexp and
Ġinv ite
ĠDienst ag
ĠBuch ung
ĠFir men
ĠvollstÃ¤nd ig
ĠCamp ing
ĠLE B
ĠEas y
ĠMond ay
ĠEisen bahn
ĠSchaff ung
n ot
s m
s ystem
t rÃ¤ge
er ie
Ġd essen
ĠS aint
ĠC olle
ĠH armon
ĠV alle
Ġre ch
ta gs
ĠTh ail
Ġse ven
if ik
Ġ5 7
be k
ĠAr men
Ġ13 7
ĠÃĦ g
ĠBar n
Ġaccess ion
kon ferenz
ĠVol ks
KL ÃĦR
ĠSund ay
ĠChair man
S H
Ġd adurch
it age
ie ll
Ġf at
ar tet
ro chen
Ġc ra
ĠM aster
ĠC od
und red
ut ch
ĠSt ill
ĠEr zeug
Ġent rance
alt y
ĠAd obe
ĠFran cis
AF O
Ġturn ed
Ge b
pf lich
ĠCont in
Ġtem per
ĠGÃ¼n ter
Ġvess els
F L
a cc
p Ã¤
z entrum
an as
or gt
ĠS ysteme
Ġm ic
ĠW ES
Ġv olle
ĠH ilf
ic i
Ġfor mal
gr Ã¶ÃŁ
ern t
be w
Ġvor an
Ġunter nehmen
Ã¼ck e
pr ises
UR T
ĠBed arf
Ġbo at
ĠAss oz
ĠEnvironment al
Ġbig gest
ĠAUS W
ĠGew inner
Ġdest ination
Ġattra ctive
ĠWall strÃ¶m
ĠInt rodu
Ġbor ders
ĠAuthor ity
ĠViet nam
N IER
ĠS ho
Ġf elt
Ġz eit
Ġre con
ber ge
ER T
Ġcon stit
ien te
ĠSt ation
ĠAb schluss
Ġent gegen
Ġgesch affen
ĠFe ier
ĠGrund e
ĠWor ten
Ġverl ieren
Ġkom pliz
Ġbank s
ĠPla ce
Ġsuggest ions
commun ications
ĠEre ign
M IN
R icht
f Ã¤nger
h old
ur er
ol i
ĠAn liegen
Ġver z
ĠÃľber nahme
ĠER S
ĠRom ano
sicht igen
ĠCom b
Ġabge lehnt
ĠBalk an
Ġsor gen
Ġintrodu ced
ĠzusÃ¤tz liche
ĠSerb ia
ĠZimm ern
Ġplat form
Ġaccord ance
A us
Ġw eder
ĠS n
Ġb all
ĠD A
Ġin hab
ĠC all
ou ch
id ung
ĠAn gel
ĠAn schluss
ĠBe k
Ġsta bil
IS TER
AL T
wo hl
ĠPl ug
Ġwel chem
fÃ¼hr ungs
ĠEC O
Ġoffer ing
Ġeas ier
Ġgem Ã¼t
Ġeigen es
ĠFOR SCH
ĠAlex ander
ĠMAR G
Ġhon est
Ġfarm ers
Ġarg ument
Ġlic ense
ĠHE ALTH
ĠlÃ¤nd lichen
Ġdepart ure
Ġbon us
K ommission
c ar
Ġd ark
ĠT ai
ĠE xt
ĠM w
ĠW HO
Ġp retty
ĠC ross
Ġl auf
ĠV W
Ġk orr
Ġim ag
Ġim pl
ĠÃ¼ber nehmen
ĠAus fÃ¼hrungen
Ġget roffen
ISCH E
Ġbeg onnen
ĠEntwick lungen
Ġrel ates
hol ung
Ġlet ter
ĠDis cover
Ġtro tzdem
gru ppen
Ġfert ig
Ġwebs ites
S B
t i
er ap
ĠS av
ĠS uchen
te x
ĠT it
ĠE tw
ĠW en
Ġn orm
Ġh op
Ġe arn
ĠH aving
ĠG rad
Ġfor ec
Ġdie d
ĠIn strumente
os is
os oph
sch reit
ver se
ĠAn kunft
Ġal tern
ann is
Ġer Ã¶r
ag ues
Ġinter pret
Ã¼h ungen
ĠDar f
Ġsign ed
Ġauthor ity
LICH EN
Ġflex ibility
Ġrad io
Ġaf ford
Ġey es
ĠFlÃ¼ cht
f s
m ot
z ip
Ġ rom
ĠT emp
Ġg Ã¼ltig
ĠR ent
ĠL y
ote d
ĠWe i
ÃŁ burg
Ġzu dem
ist ische
Ġman aged
ĠAl ban
Ġav ail
ĠWer bung
ĠRes p
ĠER W
Ġsupp lement
Ġpresent ation
bed arf
Ã¤mp fen
ĠAnsp ruch
ĠMet ro
akt ionen
ĠWork ing
ĠKind ern
Ġlik ely
Sta atssekretÃ¤r
Ġexhib ition
ĠThail and
n ight
w agen
ĠS orge
Ġf ab
Ġin tell
ĠR ANDE
ĠK u
ĠEn largement
ĠDe partment
ĠGe ist
ĠMar got
pro zess
ĠGen ieÃŁen
fl ug
Ġra re
ĠGer ne
Ġdr iving
ĠSan ktionen
Ġweek end
Ġconne cted
ĠFortsch ritt
Ġsow ohl
ĠRad io
Ġbew usst
ĠBAR NIER
Ġwirtschaft liche
rÃ¼ st
ĠSonst ige
ĠMÃ¤n ner
Ġbott om
ĠDeut sche
Ġexclus ive
B S
G AN
k el
z z
Ġa p
ĠS Ã¤
ĠT alk
ĠT ry
ĠM IN
ĠM achen
ĠW ORK
Ġh ast
ĠF ace
Ġto ler
sch m
ĠAn erkennung
if ying
Ġdies bezÃ¼glich
ia gn
Ġsh ipping
ard o
ens wert
anz ler
RA UCH
Ġrec o
Ġra ce
ĠLand wir
25 8
OU Minister
Ġfra ud
Ġdefin ed
ĠVis ta
UND HEIT
ikan ische
ĠAK P
---- ----
Ġfinis hed
ĠENTWICKL UNGS
ĠFlex ibilitÃ¤t
ROGRAM M
ĠExec utive
W ORK
re p
as te
ĠT aten
Ġb oy
ĠE lement
ge iz
Ã¼ ste
st ieg
Ġun c
kt ive
Ġst ated
Ġdo g
Ġex tended
ĠEr zeugnisse
ungs mittel
ĠEin fach
ru ppe
Ġ6 8
Ġ8 2
Ġgen utzt
IC I
ĠCO ST
vent ions
ĠTra um
Ġho hen
ĠBet rag
zeich nis
ĠSon nen
ĠPriv ate
Ġsubs id
Ġcirc um
mel den
ĠStatist iken
C ET
P T
T ag
g al
o gen
is cal
Ġd ry
or ial
ĠM uss
st es
ĠK oc
ĠV isa
ĠN I
ad es
ĠSch ule
Ġad vent
ĠAl ger
ĠFr ont
Ġgen Ã¼
lie fert
ĠInn ov
ĠRAT STAGUNG
201 1
CHAF T
Ġdisp osal
TEL L
ĠOpt ionen
Engl ish
Ġreag ieren
ĠHT ML
sy ch
B O
p aket
v olle
Ġt ar
Ġf ix
ĠD etail
Ġp ill
Ġh arm
ĠH ostel
ere fer
ĠL ord
em en
ta atssekretÃ¤r
Ġr ise
ĠPro blems
ĠDe fiz
Ġam ounts
Ġman age
Ġ6 6
ÃĦ KI
hand elt
Ġbeg ins
Ġpolit ics
Ġinvest ments
ĠNor m
Ġref uge
anc ic
ĠMil it
Ġkomple x
ĠLeist ung
RIT TEN
Ġherunter laden
Ġbir th
545 30
ĠBarn ier
F ran
y ear
Ġw iders
Ġh es
ĠR io
ĠK il
Ġl iberal
ĠV ene
Ġk orre
Ġqu ant
au ern
ĠAl ternative
TS CH
ĠPr ice
Ġimport s
ĠInter essen
Ġcustom s
Ġcor resp
br uch
licher weise
Ġmov ie
Ġprom otion
ĠErn Ã¤hrung
ĠINS TITU
Ġaf tern
ĠCustom s
Ġol der
a e
or b
Ġp rÃ¤sent
Ġh y
Ġe chte
sch ung
sch reiben
ĠAn passung
ĠVer fassung
ĠSch m
Ġex ists
Ġvor ange
Ġte a
Ġco hesion
ĠAuss icht
ĠIs lam
Ġposs ibilities
Ġgel Ã¶st
ĠPe ace
ĠGu inea
ĠTod es
ĠdÃ¼r fte
Ġtas ks
Ġhear ing
Ġproceed ings
ĠMiss ion
ĠhÃ¶ch ste
Ġlux ury
g rad
ĠD AS
ĠE CH
ĠM oun
ĠF RI
ĠN am
Ġun tern
Ġun fortunately
ĠSch re
ang o
Ġwor se
ĠCh amber
ĠSo und
ĠIm mer
ĠER KLÃĦR
ij ancic
Ġexper t
Ġoper ating
Ġconf ir
ĠMill iar
Ġlang frist
ĠBundesminister in
schie de
ĠStimmer klÃ¤rungen
G H
G erman
p iel
ĠS L
ĠS icher
ic ul
00 27
ce an
isch arge
Ġha ir
Ġdes cription
art ner
ak ter
Ġsp aren
Ġnach halt
Ġkein es
ĠTra vel
com ed
Ġass ess
Ġvis ion
Ġkle iner
Ġorgan ised
Ġref le
ĠÃ¶ff nen
Ġed itor
Ġreserv ations
ĠFranz Ã¶s
Ġconsum ption
ĠMED IA
ĠPut in
Ġgarant iert
cont in
ĠBehÃ¶r den
fÃ¤lt ig
ĠCommit ments
I AN
Ġt ritt
ĠS en
ĠS at
ic ke
et ze
Ġ1 30
icht bar
Ġge leistet
ien s
ann i
Ġr asch
Ġwh om
gl Ã¼ck
ĠCoun tries
lin ge
Ġinter vention
ĠCO URT
ĠÃľber wachung
ris es
Ġown ers
ĠCan ada
ĠTrans fer
Ġvisit ing
ĠerklÃ¤r en
Ġgener ally
Ġsubs idiar
ĠGES UNDHEIT
Ġenorm ous
ĠTA X
ĠÃ¤uÃŁ ern
ĠKoc ijancic
H OL
U GEN
d ie
g ut
k om
s ite
Ġd ienen
Ġw ild
ĠT rop
Ġb la
ĠI o
Ã¼ nen
Ġh it
ĠF ert
ĠC reat
ĠK unde
Ġder en
Ġ( )
Ġun it
Ġver me
ess ions
Ġer kennen
Ġhe ll
Ġdem ands
att form
ÃĦ M
Ġoff ensichtlich
ĠAt mosphÃ¤re
Ġsc ale
ĠSoc iety
Ġsk ills
Ġlang sam
ĠWebs ites
Ġprogram s
Ġfurn iture
zÃ¶s isch
Ġext ent
F e
V A
f air
f ield
k op
z iel
in ated
Ġt ables
he mal
Ġf Ã¤llt
Ġp or
ĠV ir
Ġz ut
am i
be griffen
ĠAus druck
Ġsp ring
Ġunter s
Ġcont ents
Ġact ual
Ġgr unds
ĠBet rie
Ġadop tion
schlieÃŁ en
kun fts
Ġbeach es
ĠFamil y
leist ung
ĠfÃ¼ hlen
ĠOver view
regel n
ĠDemoc racy
ĠThird ly
Ġwinn ers
ĠInf os
ĠMall orca
ĠINVIT ES
F or
at isch
as en
ĠD iv
Ġv ere
ĠN AH
Ġex it
ze ÃŁ
iz za
Ġ201 6
ĠIm port
Ġass oci
ĠMon tenegro
ĠStand ards
ĠGu est
Ġbook s
Ġconsider ation
ĠForm at
Ġnie mals
fo hlen
ĠBem Ã¼hungen
ĠBalk ans
ĠStabil itÃ¤t
ĠerfÃ¼ llen
Ġrelativ ely
ĠVerÃ¤nder ungen
Fra ktion
Ġoccas ion
mÃ¤r kte
Ġreco very
6 00
F in
K OMMEN
K EIT
j au
t est
Ġw ider
ĠS MS
ĠE is
ĠM utter
Ġp et
ĠP AT
ĠF le
Ġto ba
ĠK OS
ĠV inc
Ġun gefÃ¤hr
ĠZ ul
pp y
Ġme at
Ġaus fÃ¼hr
ink en
IL F
ieren de
Ġreg ime
Ġsee ing
lie ben
Ġtr ied
ĠKon z
Ġbo ot
Ġ27 31
ĠSu ite
Ġselbst verstÃ¤ndlich
HAL TS
gew icht
ĠRev olution
ausschuss es
ĠGest atten
ĠbefÃ¼r w
d a
Ġa de
ĠS ad
ed ienst
Ġse ctors
ĠVer stÃ¤nd
Ġno isy
act ive
Ġwel comed
Ġmach ines
ĠKon text
Ġnun mehr
ĠSh are
Ãĸ N
Ġperson ally
vers orgung
Ġbuild ings
ĠArbeits markt
Ġcharge d
fÃ¤h ig
ĠGra f
bl att
Ġdep osit
Ġlar ger
ĠerhÃ¶ ht
Ġilleg al
Ġamaz ing
ĠE AST
ĠB ah
ĠB EL
ĠF err
ĠN ummer
ĠO lli
Ġse at
ĠVer gangen
Ġmit einander
AN CE
Ġsch Ã¼tzen
Ã¼n schen
ĠAus gabe
Ġsp an
abe lling
ĠFl Ã¤
ĠBed enken
ĠeuropÃ¤ ischer
Ġfl ights
Ġsign al
Ġfun ctions
Ġdiscuss ions
Ġdefin ition
alle l
Ġtyp ical
ĠNorth ern
We bsite
ĠKolleg innen
ĠWirklich keit
ĠÃĦg yp
in ations
Ġs ights
ar ma
ro t
ll or
ung al
ĠL EG
ies sen
ĠO bst
ĠJ ames
ĠWe chsel
EN N
Ġzu vor
Ġwe ap
Ġr enew
hal tet
Ġsp oken
ĠUnter nehmer
Ġsol cher
Ġtrans ition
Ġgew Ã¤hlt
Ġbeg ann
ĠFre ude
Ġpass ed
ĠPal est
Ġev idence
IM A
Ġentsp rechend
Ġtest ing
ĠCH F
Ġhistor ical
min ute
ĠWÃ¤hr end
Ġbil den
ĠMex ico
ĠWolf gang
Ġremov ed
Ġcompon ents
brech ung
Ġow ner
Z USAMMENARBEIT
g te
r uption
ro wn
Ġc astle
ĠF ast
ĠC R
ĠIn fo
Ġon to
ure au
Ġso ft
ĠEin wohner
io v
ĠBer ichtig
Ġ8 1
geb iete
ĠEx change
Ġprop ose
Ġlook ed
ĠFre edom
Ġredu ce
Ġmar g
Ġdest roy
Ġguarante ed
Ġdev ices
Ġcreat ing
ĠVeranst altung
ĠStad tz
ĠHon ourable
ĠOrig inal
ĠVereinfach ung
Ġaftern oon
Ġtoba cco
4 00
6 64
H aus
it ze
ĠM ach
ur m
ĠB ran
ĠK DE
ta il
ĠAn der
ĠAn ders
EN SCH
end ar
gr enzen
ĠEin heit
ĠAuf fassung
pr inzip
ĠEnt decken
ĠAd v
ĠDaten bank
Ġfav or
ĠMEM BER
ĠFINAN Z
vorsch lag
ĠCom ple
Ġstrong ly
Ġcharac ters
Ġentwick eln
ĠErn st
Ġadministr ation
Ġencour age
ĠUR L
Ã¤ss ig
Ġcaus es
cure ment
organ isation
schlÃ¼ssel ung
4 10
] ]
b indung
e llen
Ġ ic
is ms
Ġf le
ĠE P
ĠE arth
ĠM ini
ĠW ild
ĠW Ã¼nsche
Ġn Ã¤here
ĠF Ã¶rder
Ġv ideos
el er
ĠR and
ĠL Ã¶
for cement
ad d
Ġsp rach
Ġhier bei
Ġgen u
geb nis
ĠReg ister
IC ATIONS
ĠMan ager
Ġger Ã¤um
ĠFall s
Ġpower ful
Ġpat tern
ĠGeorg ios
Ġarch itect
HO F
Ġakzept iert
teuer ung
ĠTick ets
Ġjewe ils
Ġhous es
ĠOmbuds man
ĠKris en
R eg
k anzler
ĠS AP
Ġthe me
Ġc art
ĠP act
Ġan c
ĠH altung
ĠR ight
ĠK er
Ġbe ob
Ġst ructural
Ġver pflich
uss e
sp unkt
av or
ĠAus bau
ĠLe vel
ĠGen er
ĠCon stitution
ĠFrÃ¼h ere
Ġfeel ing
Ġschnell er
Ġteil nehmen
bahn hof
Ġgovern ance
ĠWiederauf nahme
ĠVergangen heit
P I
Ġ Ã¤l
ĠS ar
ĠT iron
Ġb reit
ĠD or
ĠG RA
ĠK ontroll
Ġbe ispiel
ĠV ict
ĠL ager
hr t
ten ance
Ġun employment
ĠZ usch
ann e
los en
erv ation
ĠFe ed
row s
Ġstr ict
Ġla ut
ĠMon itor
ĠPh otos
ren ch
ĠStell vertretender
Ġshort ly
Ġverl assen
Ġcontra d
ĠAgrar politik
Ġdau ern
ĠAlb ania
Ġfail ure
ĠSerb ien
Ġcritic ism
ĠDefin ition
ĠMun ich
ĠTiron i
C Z
H otel
N S
f leisch
u it
u ens
u led
Ġd ining
or ter
ĠT own
ĠF RA
Ã¤ fen
Ġbe ige
ĠL ight
Ã¶ ss
ce ll
Ġde in
ĠSe veral
ĠNe uer
Ġsub stances
ha fte
Ġ[ [
Ġadop t
ĠUr spr
tab les
Ġgeb racht
Ġimpro ving
ĠDan iel
ĠDom in
ĠSTA TE
ĠCop enhagen
Ġresol ved
klus ive
ĠBade zimmer
Ġlaunch ed
bha fter
Ġdank bar
ĠBras ilien
P R
T Z
k urs
Ġa gencies
le ge
Ġp arliament
Ġe arth
ĠF al
st ar
Ġk ontroll
de ckt
ĠJ Ã¼r
ann ing
iv ier
Ġsh uttle
Ġle gen
Ġus ual
me ister
Ġcomp la
Ġspe ct
ĠPol ize
Ġrel ation
Ġgel ungen
ĠBo x
orn y
amer ika
Ġbr ight
Ġmed ical
Ġtop ics
clud ing
ĠShe et
ĠCurrent ly
Ġdeut sche
ĠGeorg ia
ĠpersÃ¶n lichen
Ġatta ck
Ġatta ched
ĠBud apest
Ġdise ase
ĠIntrodu ction
ĠMARG INS
Ġkorr ig
G B
p ite
r t
ch st
or ama
ĠM ary
ĠM erk
ĠW iders
ll s
Ġbe ant
Ġein iges
Ġk ulture
Ġst olz
gr enz
Ġapp ointed
Ġnoch mals
Ġco ordination
EC U
Ġgr at
ET T
Ġass ist
ĠFinanz ierungs
ĠNat as
ĠLat in
man agement
ĠgrÃ¶ÃŁ ere
TIN I
Ġattra ctions
Ġallgeme ine
ĠTax ation
Ġest ate
ĠENTWICKL UNG
Ġentsprechen de
Ġkeiner lei
Engl isch
LAR G
ĠBreak down
F rench
r iers
z ne
en ne
Ġm inister
le hen
Ġp rÃ¤
ĠH D
Ġg lobale
ĠN av
ta gen
ĠJ ob
ĠAn lagen
ĠHerr ing
ĠFor d
OM S
Ġsol ve
hand els
ĠGes am
ĠWor um
Ġconsider able
miss ionen
Ġmembers hip
ĠPlay a
ĠMark en
ĠES F
ĠZust and
zif ische
Ġemer gency
Ġexperien ced
ĠGeneralse kretÃ¤r
ĠSchlaf zimmer
Ġsinn voll
ĠMw St
f ar
f red
i op
u ters
Ġs pp
Ġm ix
ĠE ss
Ġn avigation
ĠP flanzen
ĠB ang
Ġun mittel
Ġwir k
ers e
Ġpro s
Ġer h
ĠEr de
Ġle hnt
Ġwor ry
aus tausch
bar er
str eng
ilt on
ĠGrund satz
ĠFinanz mittel
Ġfact ors
!! !!
ĠGrÃ¼n buch
wh at
Ġgee hrte
ĠFern se
ĠArbeitspl an
Ġill ustr
ĠLook ing
ĠBeruf s
ĠKabel jau
ĠAlexand re
ĠENTWICKLUNGS ZUSAMMENARBEIT
e ib
h ou
n ummer
y t
Ġd ah
Ġf ul
ĠT ER
ĠW omen
ĠP AL
ra p
ĠN E
ĠJ ord
Ġro ck
iz ing
Ġreg ards
Ã¤l fte
ĠAs ien
Ġover view
Ġcour t
ĠPat ent
ĠAv ailable
Ġsug ar
Ġcolle agues
ĠGlobal isierung
Ã¤m t
ĠvollstÃ¤nd igen
ĠTats ache
Ġbeantw ortet
Ġdecor ated
ĠImpro ving
Ġnumer ous
ĠMID D
ĠVERB RAUCH
ĠPoss elt
ĠRog er
ĠERS UCHT
Ġ ice
Ġa ff
Ġt ag
Ġt ran
Ġs em
it ag
ĠA ch
ĠE dition
ĠE AG
ĠW C
ĠW ies
us es
ur laub
Ġv ary
ĠH ig
ĠSe bast
ĠSon ne
Ġkosten frei
PL AN
Ġinteress ant
Ġcommit ments
ĠWord Press
drÃ¼ck lich
ĠberÃ¼ck sichtigt
Ġcla im
ĠSomet imes
Ber icht
prene urs
5 46
L oud
f are
r um
ĠS M
ĠI ll
Ġin begriffen
ĠM IL
ĠJ er
if th
Ġne in
Ġj u
Ġent h
Ġte uer
ĠMar co
ha i
Ġhelp s
ĠBet ten
Ġelect ronic
ĠUp d
Ġreturn ed
Ġverste he
ĠClos ure
ĠExper ience
Ġfinis h
ĠEas tern
Ġzug Ã¤nglich
Ġextens ion
ĠPrag ue
penden ce
ĠERW EIT
ĠÃĦgyp ten
B el
C S
i rol
w ie
Ġ q
it ten
ĠD ich
ĠW are
Ġh undred
ent wurf
ĠC ru
ĠK now
ĠV otes
ĠN EW
eit ern
ier end
ĠO t
de ck
ote chn
Ġer lÃ¤
ĠVer wenden
TI K
ĠVor teil
Ġpr ize
pt y
Ġout put
itz t
ĠHer ing
ĠEN LARG
ĠGrund sÃ¤tze
az z
Ġprocess ing
Ġvoll er
Ġcol ours
ĠFahr t
Ġenter ed
Ġveh icle
ĠGi ul
ĠKir che
Ġrepe at
ĠMetho de
Ġverantwort lich
ĠFORSCH UNG
U MER
Y N
ĠS ERV
Ġb reat
ĠA cht
le v
st ruct
ĠR iver
ach er
ĠWe ek
EN Z
ĠSch atz
Ġent ertain
Ġup grade
ĠSta bility
Ġrel iable
ĠSte f
hÃ¤lt nis
RI ES
gew Ã¶hn
Ġinform iert
UB LIC
ĠOver all
ĠAp ost
frei heit
ĠStruktur fonds
Ġdistrib uted
ĠGeneraldire ktion
P C
b c
z unge
ĠD R
ĠD utch
Ġin zwischen
ĠB ib
ll os
Ġbe mÃ¼
ill ing
Ġres erve
erv es
Ġspe zielle
Ġtra g
wo od
RE EV
Ġdr inks
Ġspeak ers
schl uÃŁ
Ġhard ly
ĠGemeins amen
bet rag
Ġcondition ing
Ġdom ain
ugos law
ĠMasch inen
ĠSchwier igkeiten
V b
ĠS zen
ĠS quare
Ġm as
Ġe ffizient
im ated
ĠK Ã¼nst
ĠK ontakte
gen ce
ĠRe gen
ub s
ive au
ĠGe f
Ġ9 00
ĠCh ile
ĠSo le
AT TINI
ĠÃľ bereinkommen
Ġfin ance
Ġweiter gehen
ĠRes umption
ĠKon to
ĠTeil en
ĠChr is
ĠSCH W
Ġpriv acy
199 5
Ġhuman itÃ¤re
ĠRechn ung
Ġimmedi ate
Ġobvious ly
ĠVerÃ¤nder ung
polit ische
Ġrub ber
n s
n or
r or
Ġt ab
Ġd et
ĠT aus
ĠT RE
ro up
ĠW etter
ĠW RITTEN
ĠP in
ĠF rit
ĠR ay
ĠZ OLL
ĠJ oin
Ġr ide
Ġent t
ĠSta v
Ġfe es
ĠMa de
ĠCon f
usammen arbeit
Ġfre ie
ĠRo ck
Ġmarket ing
ĠUr ban
ĠLa den
Ġsign s
ĠVorschlag s
sto od
ĠErw achsen
akt iv
ĠEG F
Ġfinanz ielle
oper ations
ipl omat
ĠbestÃ¤t igt
Ġsan ctions
Ġbur den
Fran zÃ¶sisch
REEV Y
G S
G ruppe
g os
p ension
er ung
ĠT ief
Ġb ike
ĠD ach
ĠW alk
Ġn either
ĠP en
ic ts
Ġz erst
ĠAn alyse
Ġst ations
la ger
ok ko
ĠBe aut
Ġus w
Ġent fÃ¤llt
Ġman ual
Ġfe hlen
gel assen
ĠCon sequently
ĠâĤ¬ .
Ġdr ugs
Ġemp f
Ġorder s
ĠGu ide
Ġflo ors
ĠIndustr ial
Ġkind s
ĠAmer ika
SCH E
alen der
ĠKap az
ĠFR ATTINI
ĠInsel n
ĠArg ument
ĠStock holm
ĠLam y
Ġrenov ated
Ġsup erv
ĠPas cal
Ġabstain ed
Ġdescrib ed
ĠTelekomm unikation
Ġsubsidiar ity
5 35
C o
I TE
p ap
v illa
on i
re che
te en
ing u
ĠH ab
ĠG olden
ĠK laus
ĠN ACH
ĠAn streng
kt ors
ff icking
end ung
Ġr ank
ĠEr war
ĠDe velop
Ġgo als
Ġvor bereit
Ġsp ent
Ġ9 4
lin ess
ĠEx pl
Ġsub stant
ĠEnt last
Ġvis ited
Ġdr iver
ĠST ABIL
Ġkon kret
RI FT
Ġverb oten
ĠGet rÃ¤n
vious ly
ĠHaupt stadt
Ġmult iple
Ġnegot i
ĠFern er
Ġvol ume
ĠAnmer kung
ĠstÃ¤r ker
ĠBosn ia
ĠERWEIT ERUNG
N r
m asch
p ot
ĠM uch
Ġh um
ĠB all
ĠB ET
Ġl unch
kt ions
Ġal though
ĠSch on
ĠEr hÃ¶
ack s
Ġ7 8
Ġ8 3
ĠUN TER
ĠAd j
ĠQu ite
ICH EL
Ã¼h m
Ġide ale
ĠKl asse
Ã¤tz liche
Ġref err
undes minister
leit en
Ġlaw s
fa ÃŁt
Ġdeal ing
Ġnote d
leist ungs
ĠTAC s
Ġbestimm ten
Ġadministr ative
ĠDoppel zimmer
ĠENLARG EMENT
H L
P al
b order
h ard
v ere
Ġb attle
ĠE vent
Ġg allery
ĠR am
ĠG ER
ĠG ame
Ġbe wegen
Ġl ibr
ĠN OT
Ġver ur
qu ote
ress ion
all as
Ġevery where
ĠZu cker
co hol
ĠPRO TEC
Ġemp fohlen
ĠPh ys
Ġstar s
ĠKr im
mit glied
Ġfil led
AH R
ĠTur k
Ġlog o
ĠKap itel
ĠauÃŁer halb
ĠIND UST
ĠAUD IT
ĠJahrh undert
ĠAutob ahn
ĠStadtz entrum
5 96
k at
m o
it ter
ro ll
ĠP akete
ĠC UST
Ġbe ha
ĠV el
Ġfor th
Ġfor got
Ġun ion
ĠAn hÃ¶r
Ġge fragt
Ġas yl
be auftrag
tell ungen
pl Ã¤ne
Ġob tain
ĠWel tw
Ġhin zufÃ¼gen
Ġpass ieren
Ġmin i
ĠNot wend
ĠChrist mas
Ġop ens
reit et
Ġtax ation
ĠProf essional
Ġsound s
Ġschool s
Ġexplan ation
Ġelekt ron
ĠDus che
Ġslight ly
ĠINSTITU TION
Ġful fil
ĠMIDD LE
B C
T RA
V ers
it im
Ġc uis
Ġth resh
ĠK m
ĠN G
Ã¶ ger
Ġde fe
Ġwill ing
Ġ3 50
ht on
RO P
ĠSp rach
aus o
Ã¤nd ler
Ġpre d
enz ial
Ġins urance
Ġsmall er
Ġsur vey
Ġpers pective
Ġcol umn
ĠPal ma
ĠPat r
ĠMor occo
Ġbathroom s
Ver trag
Ġdam als
ĠBegr Ã¼ÃŁ
ĠberÃ¼ck sichtigen
ĠDISCUSS ED
Ġasyl um
Ġthresh old
v erein
Ġs org
at ures
ĠS terne
ĠA ge
Ġm igration
im p
ĠR un
il de
et heless
ĠK ontrollen
Ġl atter
id den
sch rift
ab et
ver lÃ¤ss
Ġnot es
Ġdes ired
ĠFr Ã¼
Ġclos er
pro blem
ĠPl us
ĠWel chen
ĠFe hl
ĠHer bst
cond ition
Ġger ing
Ġclean ing
Ġopt imal
Ġregion ale
ĠGleich e
Ġdenn och
quir y
ĠAC TION
ĠBerichterstatter in
Ġehr geiz
ĠGeneralse kretariat
leb nis
Richt linie
Ġcircum stances
ĠERKLÃĦR UNG
ĠPROTEC TION
r aten
ĠS i
ĠV ision
ber gen
de x
Ġde alt
ne w
Ġsta ble
ĠAll iance
glich en
Ġevery body
Ġzw eit
ĠGesch mack
ĠRo berto
Ġdiffer ences
ĠWort laut
Ġkle ines
Ġpres idency
ĠMarket ing
Ġunderstand ing
Ġinform ieren
ĠFind en
Ġfran zÃ¶s
ĠVerwaltungs behÃ¶rde
ĠSyr ia
Ġdiskut iert
ĠSor gen
ĠInstit ute
lÃ¶s ung
igit ale
Ġinhab it
zne im
ĠCUST OMS
G LI
g ast
Ġd ischarge
an lagen
ĠS AN
ĠM AN
ĠB urg
ĠF itness
ĠC ab
ĠC ond
st ance
ĠG a
ĠG UCHT
ut r
iss ens
uch s
ĠRe aktion
ĠBe wer
Ġle d
Ġent re
Ġwar ning
Ã¼n den
ĠNe ed
Ġdis abled
ĠPol ack
Ġausge zeichnet
Ġfra ge
Ġsum mary
Ġfour th
Ġbal anced
ĠWÃ¤hr ung
Ġdiskut ieren
Ġmem ory
ĠTarif a
Ġnachstehen den
ĠAUSW ÃĦR
ĠFace book
ĠMilliar den
a frika
k ur
w ater
Ġa xis
re ck
re ffen
ĠS ier
ĠD ur
ĠE b
ĠM ur
ĠF ER
ĠC ast
ig ible
st ab
Ġbe mer
ĠAn meldung
form ular
Ġwe ist
qu id
ze hn
Ġro b
Ġup load
Ġdeb ates
ĠAuss tellung
ĠEx plan
Ġsome what
ĠÃľber setz
Ġgew iss
Ġnat Ã¼r
ĠTechn ik
ĠSCH RIFT
tag ung
Ġhealth y
ĠEW R
ĠVerbesser ungen
ĠOpt im
ĠSam stag
ĠBon us
ĠREG ION
Ġherr scht
ĠGarant ie
ĠGlÃ¼ckw unsch
ĠECO FIN
Ġavail ability
F I
L a
s icherheit
u ert
en te
Ġa cts
Ġa gency
Ġb at
ol er
Ġk amen
Ġum ge
IS E
ign ed
Ġcomp atible
ret ary
ĠUnter brechung
rif f
20 7
ĠX P
ĠVerb ot
org nis
ĠApp le
itor ial
Ġbesch lossen
IK ATION
Ġhim self
Ġstrateg ic
ĠArbeitsp ro
ĠfÃ¼ llen
ĠInfrast ructure
ĠBosn ien
Ġheav y
ĠVerstÃ¤nd nis
F ort
g g
or al
ĠE SP
Ã¼ p
ĠH Ã¤lfte
Ġbe f
ĠAn forderungen
ĠVer k
ĠSch auen
Ġsh ape
Ġaus ges
ac io
ĠÃľber setzung
ĠProdu cts
zeich nen
ĠAkt ual
Ġcol ors
ĠSer ie
ĠKomm un
Ġbesonder en
zÃ¼ ge
ĠspÃ¤ter en
Ġverd ienen
ĠNetz werk
ĠAlb um
ĠSyr ien
angeb ote
ĠFunkt ionen
ĠCONS UMER
ĠMonta g
Ġded icated
ĠVorsitzen der
entscheid ung
ĠBeweg ung
zneim ittel
L L
a ue
Ġb rit
ĠG ord
ers eits
art ig
ik i
ne ter
ĠY OU
Ġsie ben
av i
iert es
Ġbes ucht
Ġfe et
ph an
ĠOr te
ĠMan chmal
Ġinst ance
ĠSpiel raum
Ġeinge fÃ¼hrt
Ġspecific ally
Ġident ified
Ġverkauf en
ĠDimitri j
C OM
Ġt ram
an im
Ġs ter
ĠT ipp
ĠD ollar
ur ious
ĠC up
ĠH oll
ĠG iov
ĠK inn
Ġfor ums
ĠAn reg
UN ION
Ġch air
Ġsch war
ens us
Ġ8 6
Ġte x
Ġstay ing
ĠUnter schiede
ĠGen eration
ĠAs hton
16 2
ĠKe ep
ĠErw art
ĠGew inn
ĠLoc al
Ġsett ings
ĠKomment ar
ĠAbend essen
Ġsav ed
ĠOR GAN
ĠWand el
ĠTEL EC
ĠCF SP
U E
c an
d et
Ġ id
at i
Ġf alls
ĠT sch
ĠA st
Ġc ab
ĠW ander
Ġn ett
Ġe ight
ĠC oll
ĠR UP
ĠL ind
ĠL arge
ĠL IND
em a
ĠN ationen
Ġver teilt
Ġj unge
ĠEr holung
Ġle aves
CH EN
ĠSe ctor
ĠFor en
Ġvor aus
Ġ7 1
Ġsp reche
Ġgesch rieben
Ġgu ard
Ġges pe
wir ken
ĠRes idence
sel be
ĠMon te
ĠFre qu
ĠFre itag
ĠST ATES
ĠPart icip
Ġreal istic
ĠRE CHN
ĠMittel punkt
ĠPark plÃ¤tze
Ġstud ies
Ġtax es
ĠHel ene
ĠBu ilding
ĠMIT GLI
ÃĦN DER
ĠWeiÃŁ buch
Ġdeliber ation
ĠBILD T
Ġbein haltet
ĠFerienwo hnung
Ġbeispiel sweise
r ates
Ġd ro
ĠS IS
ro x
le m
ĠB Ã¤
ir s
et able
ĠK UK
ĠL obby
Ã¶ der
ach ing
ess a
Ġzu erst
ĠEr nen
ast y
Ġcan cel
se c
ĠAr m
Ġent stehen
geb racht
Ġtr ial
Ġpol ice
UR G
Ġexper ts
ĠTr end
ĠPark ing
ĠAfr ican
ĠOb jekt
Ġteil weise
ĠUnivers itÃ¤t
Ġregel mÃ¤ÃŁig
Ġthous and
ĠendgÃ¼l tigen
ĠGAS P
ĠGent oo
Ġcuis ine
. (
J ust
Ġs witch
ar ische
ĠT AGUNG
ĠD ritte
ĠM I
Ġn ov
Ġn amed
ĠC AS
ĠH imm
ut ies
ab ilities
ul ich
ĠZ Ã¼r
Ġge fordert
pp ed
ĠRe isen
Ġex ports
ru h
Ġout standing
Ġout door
Ġar ms
ĠUm fang
ĠInd ivid
Ġvis ible
15 0
Ġsur prise
mit tag
Ġhome page
Ġve ge
Ġgra du
Ġtele vision
Ġcomb at
ĠKa ffee
ĠAccess ion
Ġproper ly
kn own
ĠHist or
ĠAtlant ic
ĠKonfl ikt
ĠApparte ment
ĠRUP EL
ĠRECHN UNGS
t ate
u i
ĠE p
ĠW ichtige
ĠB le
ĠR ED
Ã¶ se
ann ung
ĠFor ce
ĠEin trag
Ġsta at
wer ts
lie gt
ĠEuro s
ĠComp osition
Ġakt uell
LA V
Ġtre ated
amm t
ĠStaatssekretÃ¤r in
ĠFar b
ĠSim ply
Ġopp osed
ĠOst see
Ġlov ed
LIN K
ĠBY R
Ġprakt isch
ĠSing ap
ĠBegrÃ¼ÃŁ ung
ĠAUSWÃĦR TIGE
1 98
P M
b rauch
r ats
u j
in vest
Ġe p
ĠB lock
Ġg ift
Ġbe zieht
ct ic
gen z
sch lagen
od s
ĠVer z
ag a
ĠBe w
ĠBe ob
Ġam er
iz a
gram ms
Ġgr atis
Ġvers ucht
ĠStr ength
Ġsur face
Ġoper ate
ĠOb ama
clud ed
Ġenter prises
ĠBas el
Ġdistr ict
ĠRegional politik
ĠIT AL
ĠTax i
ĠME P
Ġmoder ne
Ġfrequ ently
pla ce
ĠTai wan
E CH
F A
L ING
g reif
ĠS atz
ĠS ymbol
ar ium
ĠA ik
ĠW ur
ĠH ein
el ine
st ation
ut ral
Ġ1 01
ĠÃ¼ber zeugt
TI M
RO RIS
Ġen large
ĠBr un
ĠAus land
EM inister
Ġserv es
ĠCon ne
ATION AL
ĠBesch wer
Ġinc red
ĠDem o
ĠTechn ologien
ĠRel ated
Ġimpro vements
48 4
Ġsafe gu
ĠVOR S
ĠDid ier
Le bhafter
ĠFRE E
Ġannoun ced
ĠOperation elles
NAH MEN
Ġcompl icated
ĠSto ffe
Ġinflu ence
rÃ¼st ung
ĠECH O
Ġconfir med
ĠAUDIT ORS
F orm
N O
b rit
c ers
x elles
Ġs inc
ĠD res
ĠA GEN
Ġn om
Ġn ieder
ĠP y
ĠF ang
ĠL ad
ĠL eiter
Ġk ons
Ġk ennt
ĠU ser
if ies
Ġcon clude
Ġr id
ĠÃ¼ber ras
ĠÃ¼ber prÃ¼fen
ĠBe zeichnung
io x
Ġ6 9
con s
ĠSta y
ges etz
RE ICH
ĠTra yn
Ġcour age
isten ce
ĠAustr ian
ĠSa ison
ĠEmp fang
ĠRE CH
Ġber aten
Ġamend ed
Ġnear ly
wh ile
Ġdeut schen
Ġpat ent
Ã¤uf er
59 258
Ġhervor heben
ĠLeist ungs
Ġexc iting
Ġsurround ing
ĠTEL EK
ĠStav ros
ĠErwar tete
ĠRECHNUNGS HOF
ĠTrayn or
G u
I AL
S ystem
h at
Ġd ritten
te le
Ġo ught
ĠV ar
Ã¶ sen
sch lossen
ĠJ ung
Ġpro hib
Ġde als
Ġme als
ant ic
ĠEin kauf
Ġad ults
ens es
je ction
av a
ĠMit tag
Ġsol ches
ĠÃľber sicht
Ġgr enz
ĠDo ha
40 3
ĠGem Ã¼
Ġaut h
ĠSitz ungen
Ġrespons ibilities
ĠLit er
ĠWachst ums
Ġurg ently
ĠBegr iff
Ġmand ate
ĠPRESID EN
ĠBÃ¼r gern
Ġverme iden
Ġinhabit ants
ĠSier ra
ĠKinn ock
C P
N A
N IK
d is
l ist
z ub
en kt
Ġs atellite
Ġc able
Ġv ul
ic ians
ĠR EH
ĠR ichter
gen de
Ġde utsch
ĠVer stÃ¤r
ĠVer trie
Ġex cess
ag entur
Ġi ur
ĠCh ic
ĠMar ina
Ġsu it
ĠMa jor
ĠHa iti
ĠMon etary
Ã¼hr t
Ġac quis
Ġnat ur
ĠPort o
Ġprocess es
ĠAut or
Ġsur v
weis ungen
ĠQual itÃ¤ts
ĠStud ien
Ġmen sch
Ġcare ful
Ġlearn ed
ĠKop enhagen
ĠerwÃ¤ hnen
ĠKan ada
Ġdisapp oint
Ġign or
ĠBesonder s
Ġberuf liche
596 67
P G
c ap
in schaft
Ġs ong
re al
re ff
Ġb ist
Ġc ry
Ġh ospital
ĠB OT
ĠB essere
Ġbe we
Ġl ounge
ĠV ote
Ġy e
ĠAn lass
Ġver we
ĠEr g
Ġle gt
ahr t
gl icht
ĠMar okko
ĠReg ierungs
ĠHand y
ĠInter ess
ĠEnerg ien
Ġdirect ory
ĠGeb Ã¼hren
ĠGemein schaften
ĠAkt uelle
Ġorgan isation
ĠKo operations
ĠTRAN S
Ġshe et
ĠSchul z
ĠEben so
ĠVerp ack
ĠGeorg ien
Ġdist in
ĠAK VIS
ĠSTE IN
Ġprepar ation
ĠParte ien
ĠBru xelles
ĠCOMMUN ITY
ĠIo annis
RORIS M
E uro
Ġt ief
Ġm ill
Ġm anner
ĠB ath
ĠF ine
ĠF alle
ĠH i
Ġre pl
qu in
ak er
ĠNe igh
use ums
Ġacc ur
EC D
Ġmuss te
Ġother wise
ĠAs k
ĠAm ong
Ġrem ove
ĠKon sequ
Ġac qu
Ġorder ed
ĠBild ungs
zahl ungen
Ġverb ind
Ġele v
199 7
ĠRel ig
Ġfamil iar
ĠBus h
Ġbudget ary
Ġerg reifen
ĠMA Y
Ġsens itive
ĠLU X
Ġjewe il
Ġgesp ielt
Ġquot as
ĠSTRATEG Y
Ġdeg ree
lÃ¤nd ische
Ġapplic able
Ġbegrenz t
ĠVERBRAUCH ER
D P
F ederal
b or
k es
k rie
o und
he in
Ġb ird
ĠD IN
Ġm aster
ĠP ir
Ġh art
Ġl iter
ĠL odge
Ġfor dert
ay a
ĠSch le
ĠEr leben
rÃ¤ cht
ĠY ugos
out ique
Ã¤t igkeiten
Ġvor be
ĠAus tausch
ĠCh at
Ġ12 5
RA UM
Ġpre j
ĠPre par
Ġmain tained
ĠGesch Ã¤ft
Ġmor al
ĠPort al
mittel t
ĠSa fe
Ġverl angt
ival ent
ĠgrÃ¶ÃŁ er
Ġbeaut y
sh ops
rÃ¤n kungen
Ġem pty
ĠLeist ungen
Ġaccording ly
angeb ot
ĠNob ody
Ġlands cape
ĠTib et
ĠFOL GEN
ĠSom alia
N et
S ON
b Ã¼rger
c s
v y
v ille
z usch
he m
Ġs Ã¼d
ĠW atch
Ġp un
ĠF uss
Ġl Ã¤ng
if ikation
Ġne hme
Ġdes erve
Ġdo ors
Ġle id
ack er
IN EN
Ġro of
fÃ¼ ll
ĠSo f
Ġsu ites
ĠPr ize
ĠIN TERN
Ġinter ior
ĠPl at
Ġunder stood
ĠProdu kten
Ġgeb oten
Ġfac ility
ĠJed en
ĠEl tern
Ġdiscuss ing
ec retary
Ġsus pend
Ġir re
ikan en
Ġmer ely
Ġhold s
Ġsurround ed
ĠSOZIAL POLITIK
Ġbeteil igt
ĠGovern ance
ĠObject ive
ĠAnstreng ungen
ĠTELEK OMMUN
H err
M ed
e ktor
n t
w est
in itiative
ĠS ter
ar kt
ĠC itizens
ra ucht
ĠN ap
uch te
Ġcon dem
Ġle b
Ġsch Ã¶nen
ip fel
ĠEin stellung
etz ungen
ĠÃ¼bern ommen
Ġprov ed
Ġgew onnen
Ġmain tenance
Ġaut om
ife llos
ĠTrans l
ĠGree k
ell er
St ar
IV E
Ġcompet itiveness
Ġeing esch
ko hol
ĠGleich zeitig
ĠSchul den
ĠKomp et
ĠpersÃ¶n liche
Ġpeace ful
Ġpassen gers
Ġsched uled
ĠBetr ugs
ĠGN U
ĠSow eit
ĠGaz a
Ġhes itate
ĠArbeitspro gramm
D eputy
m es
p assen
ĠS em
al te
Ġc ast
ĠW W
ĠB A
ĠF ield
ĠK ommen
ĠL Ã¤nge
ĠBe f
Ġro t
ens ation
ĠGe heim
Ġsa una
ma ÃŁ
rech er
ĠPh one
Ġwen igen
Ġrequire ment
Ġfund ed
Ġconf igur
ĠRel ax
Ġtre es
Ġint ention
ĠPat ient
Ġjeden falls
ĠÃĸffentlich er
ĠschÃ¶n es
ĠVerbraucher schutz
Ġfal sche
Ġabst immen
ĠCompet itiveness
ĠNa hen
ĠGip f
ĠAbs ol
emin ar
Ġorganis ations
ĠAdministr ation
ĠMeas ures
535 93
R uss
h st
i at
ch mark
Ġf assen
Ġb ug
ĠD rag
Ġan melden
ĠH indern
ic ing
ay er
ĠSt imm
ĠVer Ã¶ff
Ġme al
Ġr ichten
art ment
ĠSp ring
Ġzum indest
ĠUm wel
Ġprov iding
ĠâĤ¬ )
ĠStr asbourg
ĠRE FORM
mÃ¶ glicht
Ġpost s
bet ten
ĠKom ple
ourn ment
Ġfinanz iert
Ġarg uments
Ġgovern ments
ĠVeranst altungen
ĠLiefer ung
Ġli ability
Ġperm itted
Ġconfirm ation
rimin ierung
Ġwithd raw
ĠAlban ien
glÃ¼ck w
ĠGord on
u ite
z usammenarbeit
Ġf ashion
al ing
ĠM ap
Ġn ic
Ġh yp
Ġe ast
Ġv ent
ĠC laus
im ul
ĠG VO
Ġbe glÃ¼ckw
ĠN L
ab l
ind ik
rop s
ĠZ ert
Ġpro curement
Ġer inn
ĠUn ions
ial ly
up ts
Ġsch lagen
Ġ" .
OR E
Ġbes itzt
ĠCO W
kehr t
Ġrel ating
ĠHo he
ĠSpe icher
ĠSpe cific
Ġless on
ĠOb viously
ĠJa ime
Ġsure ly
ĠEng ine
Ġinteress iert
fert igt
ĠLi ikanen
ĠPolit ische
ĠInc re
ĠCharl es
ĠBur ma
ĠHen ri
ĠFO OD
ĠEntlast ung
ĠAdj ournment
- ,
d s
p asst
v in
w or
Ġa cht
Ġf lag
Ġf aster
Ġm ittel
ĠW itt
ĠW EST
ĠB aby
ĠF RAN
Ã¤ usch
ĠV IS
Ġfor ces
Ġre ichen
00 01
Ã¼r en
ber ger
Ã¶ ten
os h
Ġal arm
ress ourcen
od ies
Ġme ist
ak a
me chan
Ġch at
Ġres pekt
ĠAl though
US A
Ġpl ays
ĠAuf schlÃ¼sselung
str asse
Ġbus y
Ġsur f
Ġfl ow
ĠPal Ã¤st
ĠPer fect
ĠStra f
AK IS
ĠMer c
Ġgee hr
Ġauss ehen
Ġpie ces
Ġextens ive
ĠSalz burg
Ġhilf s
ĠHAUS HALTS
Vorsch riften
Ġtar iff
Ġuntern ommen
ĠMITGLI ED
1 000
p ol
t own
re isen
ĠT arge
ĠA uge
Ġm useum
ĠW Ã¤
ĠP oul
ĠB ON
el ess
ĠR USS
ĠV O
ĠIn stead
sch irm
ach te
Ġun its
Ġun mÃ¶glich
Ġver standen
ad ing
ĠSch loss
ste ht
Ġum gehend
ĠEin leitung
ĠAus stattung
Ã¶r ter
ĠAuf nahme
Ġdis ag
cy cling
Ġcont est
Ġob jects
Ġbel ong
Ġgreat est
co very
Ġsc ientific
ĠDen ken
ĠZahl ung
ij n
ald o
ĠMay be
ASS NAHMEN
ĠHel en
Ġexpect ations
Ġinfringe ments
ĠSolid arity
dienst leistungen
ĠbestÃ¤t igen
ĠDritt lÃ¤ndern
Ġangen ehm
ĠjÃ¼n g
Fort setzung
ĠTELEC OMMUN
D oc
S h
b as
e ben
o om
r upt
w els
en ary
Ġd iss
Ġd uties
at ik
Ġw alls
Ġw oman
Ġb urn
Ġb ildet
Ã¤ dt
und ed
ĠR ate
ĠK orr
Ġbe fassen
ĠN EU
qu ality
Ġde te
Ġde claration
Ġauf nehmen
end um
ON I
Ġch ain
che z
ĠEUROP A
act ory
ater ini
Ġcont ro
ĠFe uer
ĠSh ort
az ine
Ġstar ke
hol ders
Ġgleich zeitig
Ġdou b
Ġcompet itive
leit er
Ġatt itude
frast ruktur
ĠSchul d
Ġgl Ã¼ck
ĠEng agement
este in
Ġappropri ations
Ġjoin ed
ĠCle arly
ĠHaup tz
ĠMex iko
ĠQU ES
Ġincreasing ly
ĠHu bert
ĠNiel son
Ġaccomp an
ĠFound ation
ĠImmob ilien
ĠPRESIDEN CY
2 10
C la
c ard
k ontrolle
u tern
Ġs izes
ĠT rag
Ġc riminal
us er
Ġp owers
Ġh orny
ĠB ab
ĠH IV
Ġth r
ou ts
Ġst yl
ĠWe il
Ġpro of
och e
Ġres ource
ĠDe ine
ĠAr zneimittel
sp rach
ov ina
ĠFr iendly
igh ten
ÃĦ L
ĠGen e
II a
ans ion
ĠGrund rechte
ĠMehr werts
Ġsupp osed
Ġplan et
ĠLoc ated
Ġdra wn
ĠInformations gesellschaft
tak ing
Ġmechan ism
ĠÃ¼b erein
Ġinstruct ions
ĠPremier minister
ĠZÃ¼r ich
8 00
F S
M T
l ight
p on
Ġ Ã¤ndert
Ġc ult
Ġc lock
ĠF ly
ĠC V
ĠH ann
Ġbe ziehen
Ġl ists
ere m
ol as
res t
if en
Ġst one
ĠDas selbe
ib ution
Ġdes erves
ĠVer he
ĠFor sten
grund lage
ĠMar ke
Ġgr ant
Ġher gestellt
Ġfre ien
stand s
Ġsel ber
RI AN
ij a
Ġpriv aten
Ġber u
Ġpres ence
ĠArbeits losigkeit
Ġkom for
Ġmot iv
sequ ent
Ġexist iert
ĠCommun ities
Ġwahr scheinlich
ĠSelbst verstÃ¤ndlich
Ġstock s
ĠArch iv
ĠTex te
Ġprim ary
Str ategie
Ġdelic ious
ĠREH N
N or
P ort
f it
z unehmen
ch o
Ġf em
Ġn ar
el te
Ġy ester
Ġge halten
Ġge zeigt
Ġver Ã¤ndern
ĠSt reit
od a
Ġaus schlieÃŁlich
ĠY oung
Ġen h
Ġvor gehen
beit rag
ĠBr ief
Ġ8 81
Ġte ile
ĠAN T
lie fer
ett ing
Ġlie ber
ĠPl Ã¤ne
ĠÃľber n
Ġend s
ĠZimmer beschreibung
ĠFinanz ielle
ĠCl ancy
Ġcre ates
ĠChrist os
Ġbegr Ã¼ndet
Ġausge wogen
Ġcheck ed
Ġbro ken
Ġinstall ieren
Ġlink ed
ĠStellvertreter in
ĠBro ad
Ġwhe el
Ġwirtschaft lichen
ĠTun is
Ġfeed back
ĠverstÃ¤r kt
Ġheut igen
Ġdur ation
ĠNahr ungsmittel
ĠJÃ¼r gen
ĠAnhÃ¶r ung
ĠVORS ITZ
ĠQUES TIONS
, -
K K
a is
u hl
ĠS UM
ĠT ests
ĠM ALM
Ġn Ã¼tz
ĠF lo
ĠG ab
ĠL ounge
os ing
Ġon going
iss ion
Ġde cl
iv a
iv itÃ¤t
ah nen
Ġent it
ish ment
Ġste igen
ĠPol ish
ĠMan che
Ġgr atul
inn ing
emb ly
Ġzw eiter
itt ing
Ġwieder holen
ĠSa ve
Ġber Ã¼hm
Ġgef Ã¶rdert
ĠProble men
ĠschÃ¶n sten
Ġmil es
ĠDom ain
rim ination
Ġrecord ed
Ġhon ourable
VEN TION
Ġscr ipt
ETZ UNG
Ġbeit ragen
Ġbetreff end
sv ors
ĠErwart ungen
Ġyester day
G r
l ife
u pp
it ch
ĠT IM
Ġb ran
ĠD un
ĠM aus
Ã¼ ne
ĠB RA
ĠH I
em es
ver walt
uch ten
Ġst ick
Ġr ies
ag o
Ġsh ares
IN K
aus ch
AL S
wer be
iz er
ĠGr Ã¶ÃŁ
OM ER
Ġpl enary
iger ung
ĠFl uss
Ġvers ehen
Ġdec re
Ġsupport ing
ĠKÃ¶n n
ĠNat ural
ĠAustr alia
gesch ichte
Ġmet al
ĠSu pp
ĠRE ACH
Ġanswer ed
Ġcall ing
Ġfac il
ĠPer u
AB LE
ĠEinzel nen
Ġcontrib utions
Ġinstall iert
ĠRis ik
Ġexpress ed
Ġentsprechen den
ĠTas k
hel m
Ġpoll ution
Ġconstant ly
ĠMig uel
ĠHeim at
ĠZOLL UNION
Ġtex ts
H o
H ILF
L O
M r
U m
p ed
u pe
Ġt rop
Ġs ad
Ġs oul
Ġw achsen
ĠS wed
ĠM aking
ĠV Ã¶lker
ĠV iviane
ot ic
for ce
Ġab zu
ĠEin es
AL D
hl te
Ġcomp ared
zu ela
Ġco oper
ĠHa ust
Ġhand le
Ġdisc rimination
ĠSan chez
Ġpract ices
Ġcorre cted
ĠSum mer
stra fe
ĠKlima anlage
Ġguarante es
Ġruh ige
Ġstor ed
ode ll
Ġsurround ings
ĠSonst iges
ĠLU FT
ĠModern isierung
ĠElekt ron
ĠMcC REEVY
Ġaktual isiert
Ġstre ets
ĠChanc en
ĠARE A
Ġanc ient
i for
t ler
u able
or am
Ġs ight
ĠT ow
Ġb atter
ĠE PS
Ġan erk
ĠF leisch
ed ig
ic ate
Ġg old
Ġbe e
id as
os a
ĠZ uf
ĠAn reise
Ġor ient
Ġen quiries
iz z
Ġcomp lain
ĠLe ft
ĠCh urch
ĠSo hn
IC A
Ġsub mit
fra id
Ġviel es
oy s
Ġ17 0
hÃ¶r t
Ġeinfach er
FF EN
Ġele ction
ĠPal acio
Ġseem ed
ĠAuÃŁen handel
Ġtable d
ĠAnn em
verb ind
ĠSil ver
li othe
Ġbezahl t
ĠHers teller
ĠGeldb uÃŁen
bie ter
schÃ¤tz ung
ĠEval uation
Ġcatalog ue
Ġtoile t
ĠMIN ISTER
ĠApost ola
ĠExplan ations
ĠAik aterini
brit ann
ĠTELECOMMUN ICATIONS
F RAGEN
l u
Ġd ishes
or ra
at om
Ġp ension
ĠC ertain
ĠG ames
ĠL ab
ĠN OR
Ġun to
Ġge tr
Ġzu ge
ate ver
ĠRe qu
itte es
men s
ĠFor men
ĠAl pen
ĠPrÃ¤sident schaft
Ġacc oun
Ġra in
ET Y
Ġdr ivers
ĠSee le
75 2
ĠNet ze
ĠPar ameter
ĠDec isions
Ġfra me
In d
ĠfÃ¼hr te
Ġstud io
Ġdifficult ies
ĠAusschuss es
Ġrelax ation
ALL I
Ġrev olution
Ġerschein en
ĠZentral bank
Ġconv in
Ġinsp ir
ĠÃľbergang s
Ġverpflich tet
ĠDres den
Cla ude
9 18
D R
k estein
o ft
w ald
Ġs la
Ġs ongs
al is
ĠB ange
ĠB uchen
ĠC E
ĠC S
ĠC ra
ĠR uÃŁ
ĠAn ze
Ġal cohol
Ġhe ating
ĠAb schnitt
ĠVor be
pl ate
ĠEx pected
Ġprodu cers
Ġevery day
hand lungs
ĠRo h
ĠRo und
EI RA
Ġversch w
amer as
Ġcal m
ĠFahr zeug
ĠTele f
Ġdownload ed
ĠCons ult
achst um
ĠPra ct
ĠWebs eiten
Ġcomb ination
Ġdef icit
ĠED UC
Ġerr ors
Ġpassen ger
ĠWochen ende
ĠTats Ã¤chlich
Ġverkauf t
Ġfand en
Ġobserv ations
ĠHist ory
ĠBol kestein
ĠLEB ENS
Ġkorre kt
ĠGiov anni
ĠWitt ling
U ER
b in
m ma
at r
ĠS now
ar re
ĠW under
us ter
ĠR ud
ĠK ontin
ĠK ULTUR
Ġk ids
ess or
Ġit alien
ĠVer m
ure ich
ĠFor st
ungs bereich
Ġman ager
fÃ¼ llt
ret ung
ĠQ uellen
Ġ14 0
Ġlie fern
Ġmost ly
AM A
ĠGer Ã¤t
Ġgeb aut
199 6
fo x
Ġperiod s
met ho
Ġbank ing
Ġmaxim al
ĠJugend her
Ġfort gesetzt
Ġ(% )
ĠSOL ANA
Ġcaus ed
Ġthous ands
Ã¼g igkeit
umin ium
ĠSonn tag
Ġassoci ated
ĠFrit s
ĠTELEKOMMUN IKATION
S c
b ia
d auer
o den
w eiter
z on
z iele
Ġa fraid
is men
Ġs ail
Ġw ireless
ĠS y
ĠA u
Ġc ents
us ted
Ġv illa
ic ted
ĠK ab
ĠK amera
ĠL AN
ĠN uclear
ĠO ECD
Ġr ul
ĠSch olle
ĠEr fahren
Ġhe at
Ġsch icken
ĠSp ace
Ġgen auso
pr uch
Ġany where
EC T
Ġges etz
olog ne
Ġrem ind
Ġbo und
ĠProt ocol
ĠGu idelines
Ġaddress es
Ġwissen schaft
OV A
ennt nisse
alen cia
ĠAgre ements
Ġmar itime
ĠSÃ¼ den
Ġwes entliche
Ġwes entlichen
spr Ã¼n
fÃ¤ llen
Ġherz lichen
ĠDEC LAR
Ġbelie bt
ĠImm igration
ĠSign al
Ġimpress ive
Ġchann el
pÃ¤ ck
ĠGemÃ¼ se
ĠBange mann
6 89
B URG
S eite
g reifen
h Ã¤r
k Ã¼nd
te in
Ġb ought
ĠA ben
ĠI W
ĠM und
ĠM are
ĠM essen
ĠW IN
Ġp sych
ĠP ubl
ĠH alle
ĠH YP
st ens
ĠG un
ĠG Ã¼ter
ĠL uf
Ġcon struct
la c
Ġde inen
ĠVer ord
ĠSch reiben
ĠBe am
ĠEin sch
Ġent ries
ĠGr enze
Ġbed auer
Ġhelp ed
Ġ16 0
ĠHand lungs
Ġsm ooth
Ġbus es
loy ed
ĠLa ur
Ġremain ed
ĠIns besondere
Ġinvol ves
Ġcomb ined
Ġsens ible
ĠAsyl um
Ġbil ateral
Ġrenov iert
Ġhor se
onym ous
ĠPos ted
Ġweap ons
ĠPatr ick
Ġgespe ichert
L IK
M e
Q u
r ise
an en
ĠS ab
te k
ĠM eld
Ġp hen
ing dom
Ġg ap
st al
Ġl abelling
ĠV in
ut ation
Ġse ats
Ġwir kt
th otel
Ġer fre
ub le
ĠSe ien
Ġad apt
ĠFra ktionen
sp rachen
av en
ven ue
ĠComm ents
Ġinter face
Ġges tern
enz a
enz o
ĠLux us
Ġmo use
Ġsc ore
Ġsm oking
Ġrep orted
ĠWor in
Ġpar allel
ĠGeb Ã¼hr
OP OU
ĠSk y
fre ie
Ġerw eitert
Ġfinanz iellen
ĠArch ite
imb abwe
Ġcla ims
Ġestablish ment
Ġphys ical
ĠExam ples
Ġkonzentr ieren
ĠWei hn
Ã¤mt liche
" ?
E Y
P DO
r ant
t ings
w ig
ch ner
is ta
is ure
re b
ĠS V
Ġo d
Ġp g
ĠP fer
Ã¼ gel
Ġe conom
ĠB ungal
ĠF ight
Ġv oor
Ġto wels
ĠR oll
ĠR ap
ĠG ova
ĠK ale
ĠK allas
Ġl it
ĠL ike
ot schafter
Ġun fair
ER LINK
ĠUn abhÃ¤ng
ist ik
ĠBr enn
ĠNe pal
ob il
Ã¼h le
Ġtechn ischen
Ã¤ÃŁ t
Ġel im
ĠSozial ausschuss
Ġu pper
ĠUR BAN
Ġeins etzen
Ġunterschied lich
PF UNG
ĠGesprÃ¤ che
ĠNiger ia
Ġsupplement ary
Ġadvent ure
ĠVene zuela
Ġgenu ine
ĠGova ert
1 10
7 00
M B
p ts
r ier
es ien
as i
Ġm un
ĠF uer
ĠH om
ĠK rÃ¤
ot a
ĠZ imbabwe
ĠJ h
Ġge he
Ġst ructures
ess ler
Ã¼ber schreit
Ġmit ten
ze llen
gl er
ĠNach halt
ĠEnt fern
Ġla uten
Ġsc ience
ĠKo operation
xim ity
ĠFahr zeuge
ĠDienst leistungs
ĠheiÃŁ en
Ġerne uer
mm ern
Ġlisten ing
UG OS
STE IN
ĠKategor ien
ĠReserv ierung
Ġdise ases
Ġalloc ation
Ġverk Ã¼ndet
Ġbind ing
ĠjÃ¤hr lich
Ġcos y
ĠRecommend ation
krÃ¤ fte
Ġforec ast
Ġgrunds Ã¤tzlich
britann ien
ĠEDUC ATION
ĠHYP ERLINK
P U
d ere
u ay
ĠT ap
ĠD raft
le un
ĠM angel
ĠB j
ĠB uffet
ĠC astle
Ġbe er
Ġbe zeichnet
ut a
Ġun ge
Ġwe ar
Ġj ung
ank a
Ġent decken
ĠAl c
AR T
ĠLe ban
ĠAN Y
Ġste igt
Ġdis aster
Ġoff ic
Ġdel ighted
leg ungen
Ġdire kte
ĠNor den
Ġremain ing
ĠCar los
ĠZe ile
vorsch lÃ¤ge
Ġur sprÃ¼n
ĠAmend ments
ĠRei hen
ĠTH IS
Ġpan el
Ġehr lich
ĠStaat liche
Ġpen alty
ĠÃ¤hn lich
Ġgrundlegen de
ĠFreiz Ã¼gigkeit
ĠFrem den
Ġamtieren der
ĠWES TERN
Ġcorresp ond
German y
Ġade quate
2 15
C B
C ommission
E X
a al
k y
s q
w eite
z ent
as ten
ĠA V
ĠA ma
ro g
ĠE ver
ĠW ass
ĠP AC
ent ive
ĠH els
ig i
ĠO STEN
Ġer mut
ĠVer zeichnis
ON T
RO U
ungs k
ink i
ĠLe hren
ĠFr ist
Ã¤nd ige
Ġloc ations
Ġsub stance
ĠProdu ction
leg ations
AC OV
ĠSee zunge
Ġhin weisen
16 0
Ġair craft
tem pt
ĠAkt ien
UM AN
ĠMil an
amb od
ĠEinw anderung
ĠstÃ¤r ken
Ġregular ly
Ġung laub
Ġcert ific
Ġtack le
Ġstopp ed
ĠFranzÃ¶s isch
ĠFRA ME
ĠNotwend igkeit
Ġgratul ieren
g or
n ame
in ian
Ġt id
an on
ie v
ĠD al
Ġin put
us te
ĠP LAN
ĠF rans
ĠF Ã¼nf
Ġbe ein
ĠV ater
ĠL ok
ĠN ET
ow ina
Ġex em
Ġab road
up s
ru ction
Ã¤t igung
Ġman chmal
tell ten
Ġpr ison
use hen
chn ung
Ġco ck
Ġend ed
Ġstr onger
PP E
ĠBed ro
ĠJu an
Ġwo hnen
Ġpar ents
hip s
Ġadv anced
ĠkÃ¶nn t
Ġfol der
ĠPa ula
Ġcare er
ĠRÃ¼ck kehr
Ġmob il
ĠEd el
lichkeit en
ĠOl iven
Ġzust Ã¤ndig
Ġground s
ĠArg umente
Ġaffe ct
ĠDire ktor
ĠAugen blick
ĠNÃ¤ch te
Press edienst
ĠTats achen
zus etzen
Ġgek Ã¼rzt
ĠgefÃ¤hr lich
Ġimm igration
Ġverh indern
ĠBeh inder
Ġmel den
ĠbeschÃ¤ft igt
ĠMITGLIED STAATEN
Ġphen omen
ĠFRAME WORK
G U
i ang
k or
er ts
Ġb icy
ĠD U
ĠE ffizienz
ĠK und
ĠThe or
Ġz un
Ġse as
Ġver urs
Ġer mÃ¶glicht
ĠUn gleich
end o
rom e
Ġle ather
Ġsch auen
32 2
ĠEin er
Ġen em
ĠSp am
tz eit
ĠMa ur
Ġoff ices
ull ing
ISCH EN
ĠÃĦ r
amp f
Ġvis its
dem ark
forder ung
ĠVers ionen
ĠKr ist
ĠzurÃ¼ck ge
Ġfest ival
ĠGet re
ini que
bild ungs
Ġinde x
ĠEd itor
ĠSchul en
En tw
Ġbedeut en
Europ e
nehm bar
ĠMarg are
ĠUrs ula
Ġdynam ic
ugg age
ĠVerhe ugen
ĠVORSITZ ES
K T
L Y
M O
R eding
S ID
T ra
t iges
u um
z ia
er te
at lant
ĠE B
Ġc ommen
Ġin come
ĠW ireless
Ġp ur
Ġe cht
ĠB org
ĠF EK
Ã¤ ten
ĠC ultural
ĠC ologne
ĠR i
ĠR OS
ĠK art
Ġder artige
ĠV irt
ut ing
and en
Ġun anim
isch em
Ġst ream
ER SEN
Ġcon stitution
Ġver wir
op ol
Ġen or
Ġent nehmen
ĠGe fÃ¼hl
IL EO
OL OG
ĠPr in
Ġmod ule
Ġgr and
Ġstr eng
Ġiss ued
ruct uring
Ġsur ve
ĠGu ests
ĠMein es
Ġbas iert
Ġcap t
Ġref lect
Ġpop ul
Ġeinge gangen
Ġreserv ed
ĠOper a
ĠMark os
Ġarch ive
Ġcongratul ations
ĠProm oting
Ġrepe ated
Ġclar ification
ĠgÃ¼nst ig
ĠKredit karte
Ġcontinu ing
Ġtrave lling
bu ilding
ĠValle y
Ġrefuge es
ĠKÃ¼nst ler
Reding EU
B ES
c ow
m ap
Ġ Ġ
er ce
in ens
ĠS IE
Ġf ly
te hen
Ġin e
Ġe dition
ll ers
Ġan nehmen
Ġv oc
ĠC ad
ĠC row
Ġl Ã¤ÃŁt
ol es
ĠL ov
ĠL anguages
ber n
Ã¶ konom
ĠJ UN
Ġer leich
Ġaus geschlossen
erm ann
ĠCh a
lie b
ĠNach haltige
Ġtr ends
amen te
lÃ¤ gen
Ġval uable
16 1
ĠNor mal
Ġinvol ve
Ġur ge
OW SKI
ĠAp onte
ĠChance llor
Ġrecog nis
Ġmass age
ĠCont ent
Ġinfl ation
Ġlay er
Ġexperien ces
Ġblo od
Ġfell ow
ĠCook ies
ĠJes us
8 10
V iviane
d oc
k et
r asch
w ing
Ġ iron
Ġt ennis
Ġw Ã¤chst
ĠS EK
Ġf ans
Ġb auen
Ġm Ã¼
Ġis lands
ĠP ac
ĠB Ã¶r
ĠB ACK
ĠF ant
Ġein zu
ĠN ations
ind ert
ER E
Ġaus ger
ĠEin fuhr
Ġad ap
ĠAus nahmen
ux e
ĠOr ient
ĠBel ow
klÃ¤r t
Ġpropos ing
Ġvis a
ĠGro ÃŁe
ĠRE YN
Ġart ist
Ġbl ind
Ġstop s
ĠDialog ue
ĠNutz er
Ġprep are
grif fe
Ġski ing
tak es
ĠVert rÃ¤ge
ĠMold ova
Ġchann els
Viviane RedingEU
B undesminister
b ieten
d f
p oint
Ġ ue
Ġ essen
er zeugnisse
Ġa men
Ġt ested
ie fe
ĠM att
Ã¤ nen
ĠC arm
ĠH UMAN
Ġun w
ann ed
Ġha upts
od or
ist ent
Ġab gesch
TE Q
Ġro ot
Ġpos itions
Ġco ordin
ĠCon gratul
ĠAd am
Ġdec is
Ġind em
Ġass ociation
isten z
ĠSte p
86 5
ĠStand ort
Ġfil ms
ĠIM F
ĠSim pl
Ġcreat ive
ĠExper ten
Ġsav ings
Ġkil led
Ġrestr ictions
Ġeval u
Ġbetrach ten
Date i
Ġtemper ature
ĠAssoz iations
ĠMoun tain
Ġlibr ary
ĠRuÃŁ land
G UB
c oun
g art
v on
Ġa ck
Ġw inner
ĠT u
ĠD ub
ĠB AS
ĠB esser
ĠF ischer
ĠR h
ĠV ent
ĠL ic
sch ule
der ungen
ul en
ĠAn son
Ġdo ppel
Ġsh ock
ern el
IT AL
ger Ã¤te
pl ans
tel lect
Ġ19 80
ĠEUROP E
ĠComm ent
erg ie
Ġthem es
utsch land
ĠHaus es
ĠSte ps
zahl en
Ġpriv at
AD T
ĠlÃ¤ dt
ĠHaushalts plan
ĠGR ASS
ĠLuft verkehrs
Ġdocument ation
Ġintrodu ction
wÃ¼r dig
ĠTick et
Ġunterschied liche
Ġcas ino
Ġsched ule
ĠEigent um
ĠHaft ung
ĠEdu ard
ĠGAL ILEO
contin uation
ĠREYN DER
ĠAnson sten
C on
K W
c ision
f i
g Ã¤
i form
o od
r ian
w ith
} :
in frastruktur
or ben
or se
ie fer
ĠS tern
ĠI ss
us ive
om a
ĠB ord
ĠB ROW
ĠH yd
Ġg erman
ĠK az
ĠTh un
Ġge p
Ġzu gelassen
ĠRe ader
Ġer b
Ġer geben
ĠVer g
ne x
ON EN
Ġab ility
ĠEr lebnis
Ġsch afft
ungs ver
Ġro utes
ĠAl kohol
ame ters
Ġstay s
ĠWas hing
Ġdass elbe
Ġkn app
Ġend et
ĠInd ic
ĠPar ad
Ġequ ality
Ġlo an
Ġbig ger
ĠTele communications
Pro du
Ġdefin iert
ĠProf il
ĠSouth ern
Ġconclud ed
Ġdisp ute
Ġinteress ante
Ġcorrect ly
ĠDVD s
Ġexpl ore
ĠÃ¼brigen s
Ġwunder sch
Ġvorliegen den
ĠMold au
ĠTAX ATION
ÃĦM PFUNG
ĠTER RORISM
preneurs hip
bc d
ĠHimm el
Ġcondem n
Ġhilfs bereit
ĠHels inki
ĠCongratul ations
G RO
i am
er ies
Ġs ing
un ruh
ĠS ug
as che
Ġin f
ĠW erner
ĠF at
ed onia
Ġl abel
ĠN ight
uf el
Ġde iner
Ġer led
iv als
Ġr Ã¼ck
ag d
ak s
ĠWh ile
Ġsch n
ud io
IN O
IS Minister
IL ÃĦ
cil iation
ĠNach frage
Ġob tained
ĠQu ick
ĠPRO DUC
ĠFre unden
Ġspec ified
Ġfil ter
AD ER
Ġbro ch
ĠRegel ungen
ĠCons ultation
eres a
ĠFa ktor
ĠZus Ã¤tzliche
ikan ischen
Ġneues ten
hÃ¤ng ig
ĠEv ents
ĠFÃ¼hr ung
Ġrepla ce
ĠerhÃ¶ hen
Ġengl ish
ĠHAUS HALT
Ġmedic ine
ĠkÃ¼ mmern
Ġdestroy ed
ĠSERV ICES
5 75
I OV
P CD
c ue
i xt
k rat
m aking
p flicht
r ug
u he
Ġd auer
he ber
or er
un ning
Ġw ed
ĠS ri
Ġf asc
as chen
Ġb ul
ĠA le
ĠA ctions
ĠM oney
ĠB ier
ĠC AM
ĠH old
ĠH ilton
st ruktur
ĠR ena
ĠK A
ot te
ĠZ UM
Ġst ammt
ĠRe is
ĠRe ception
ĠVer ring
ĠSch a
ste chn
Ġum welt
ble me
Ġwar n
ĠGe fahren
Ġcomp lim
Ã¶r d
EM ANN
Ġtr at
ho le
Ġpre ced
Ġ18 0
lieÃŁ en
wÃ¤r ts
Ġgew inn
Ġexp lo
Ġexam ine
ĠMob ility
sto ÃŁ
ĠStra ÃŁburg
ĠGerichtshof es
mÃ¶ gen
ĠCons ider
ĠFo ot
ĠCom fort
Ġfair ly
Ġgener ated
ĠMembers hip
Ġmag n
oul ou
ĠauÃŁer ord
erecht igkeit
STE M
ĠTool s
ĠFire fox
ĠausgewÃ¤ hlt
ĠKrank heiten
ĠKrim inal
ĠAnreg ungen
ĠDECLAR ATION
PCD D
K O
e conomic
f unk
k ter
u ers
z za
er ial
or ient
or ough
it ory
Ġw ines
Ġf la
Ġf erner
ĠD if
Ġm ieten
ro c
ĠM ind
ĠW al
Ġn utz
el and
ra gend
ĠG re
ĠK lick
ĠN ah
for schung
ĠAn h
ĠAn griff
Ġge ograph
Ġzu letzt
ĠRe ich
ĠVer d
Ġmit tl
ak is
Ġle gend
ted ly
ĠFor derung
Ġum fass
ĠEin stellungen
ĠEin richtungen
mer z
iz hou
ĠGe gend
ĠMar itime
AT H
Ġunder ground
Ġsc ene
ĠWo j
Ġown ed
ccess ion
ott on
ĠAut os
Ġorgan ization
Ġbesch rieben
Ġtransport ation
ĠHaupt bahnhof
Ġconne ctions
zÃ¼ g
ĠTre as
Ġtreat y
Ġclass ic
ĠHoch schul
ĠSÃ¼d afrika
ĠSTA TIS
Ġdead lines
Ġmotor way
Ġrecogn ition
ĠGM Os
Ġprin ted
Ġentscheid end
ĠMonitor ing
ĠWiders pruch
Ġforgot ten
Ġvege tables
Entw ick
S tra
g at
l an
l ings
n ischen
r ary
y en
ĠS auber
ĠA kte
ĠI ACOV
ĠE AD
ĠM ix
us al
Ã¤ den
et o
ier er
ach tet
Ġwir ksam
ran ts
ĠDe in
ĠSp ass
Ġvor sichtig
Ġgen eration
wo hn
Ġcons ensus
Ġers etzt
ĠTra in
Ġsc andal
Ġval ley
ĠVER HE
Ġgel ernt
Ġfl u
duc ing
ĠWes ten
Ġextre me
ĠSim b
Ġdest o
ĠPla ice
Ġwoll ten
Ġaktiv iert
Ġtw in
Ġdead line
umm ern
ĠRub rik
Ġhor izont
Ġcy cle
ĠRegistr ierung
Ġangen e
ĠSubsidiar itÃ¤t
Ġexpla ined
ĠMilit Ã¤r
ĠTodes strafe
ĠSchre yer
Ġbeob achten
Ġentit led
ĠSwed ish
Ġconvin ced
ĠAnze ige
Z B
d y
e per
k Ã¼nft
Ġa part
Ġt ree
ĠD ynam
Ġm other
Ġp asst
ĠP oint
ent ions
ĠC redit
ĠR ing
ĠR od
Ġbe halten
Ġl ived
Ġl angen
am an
ier n
ĠJ enn
Ġge pf
ann a
Ġde fence
ĠSt utt
ĠSt ufe
Ġer teilt
ant ly
Ġr uss
gr an
Ġle aving
Ġvor rang
erm a
Ġbet ragen
Ã¤nder ung
ĠIm age
abe llen
Ġjust ified
11 5
ĠHa ar
ĠQu oten
Ġpol ite
ĠMed izin
ĠWo her
ix el
Ġcomple ment
ĠPh ot
ĠPh oto
Ġaut umn
ĠMal ays
ĠGeb rauch
ĠGeb urt
Ġequ ally
ĠSa al
Ġ27 34
ĠTr ib
Ġfinan ces
Ġpres ents
ĠMod elle
ĠKÃ¼ ste
ĠChar ta
ĠKraft fahr
Ġzie ht
ĠPH ARE
ĠGroÃŁ britannien
zus tellen
Ch ina
ĠStatist ik
ĠFlor enz
ĠRegul ations
ĠÃ¶ffentlich er
ĠHerzeg ovina
ĠMariann e
RECH T
ĠMinder heiten
ĠColle ge
Ġnatur ally
ĠMALM STRÃĸM
Ġack now
A CI
H ein
O C
g ie
p et
en ed
in ien
Ġs ichtbar
ie tet
ĠS ens
Ġf ir
ĠB Ã¶
ou red
ĠK AL
Ġl es
ĠL ud
Ġun for
Ġun able
ĠVer n
Ã¤n z
ĠSe ction
lo oking
ĠY izhou
con ne
ile mma
Ġar ran
Ġalle ine
ĠEx c
Ġprop ortion
RE G
fl Ã¼ge
ĠAt tra
ĠMenschen rechts
ĠCan aria
Ġpar ameter
zeich nete
Ġkl ass
ĠGu arante
Ġele cted
ettbewer bs
Ġtalk s
Ġlet ters
ĠMus ter
fa ction
ĠBil anz
Ġfa ith
ĠMin eral
ĠFund amental
Ã¤nger ung
ĠAud it
ĠCD s
Ġport al
ĠHuman itarian
ĠNord see
ĠLog o
ĠBrit ain
produ kte
Ġintrodu ce
FER ENZ
ĠPrem ium
Ġimpress ion
Ġconsist ent
ĠAusgang spunkt
Ġbekomm t
ĠKatastrop hen
ĠKohÃ¤sions politik
HOL M
ĠStef an
Ġvul ner
9 06
j en
r ical
Ġf ather
Ġb io
ĠM Ã¤d
ĠW r
ĠP M
ur ers
ĠB lo
ĠF C
ĠH ugh
ĠL ied
ĠL ED
ab gabe
ul led
ĠAn im
ik al
Ġex ter
Ġaus drÃ¼cklich
fer enzen
IL I
EM EN
RA K
35 0
11 1
12 0
Ġbere chnet
Ġpack aging
ĠBl ut
Ġcontrol led
Ã¶l le
uli ere
Pro zess
Ġlog in
ĠDom inique
Ġak zeptabel
ĠFa ktoren
ĠKle ine
ĠBeschl uÃŁ
ĠED PS
ĠNeu igkeiten
ĠProv inz
ĠMarg in
ĠSor ry
Ġprin ting
ĠMaxim um
schm utzung
Ġbeant ra
Ġsorg fÃ¤ltig
ĠStrength ening
ĠLeban on
ĠVERHE UGEN
% -
B B
C ode
T C
l end
is ory
it uation
re ibt
ĠD J
ĠD IR
ĠE ck
ĠE mb
ĠM ie
Ġto lle
ĠK Ã¤
um ul
Ã¼r f
and t
Ġun a
Ġun t
Ġver gleich
op f
Ġr ig
Ġr ufen
ap ers
IS U
sp er
sp rache
Ġunter zeichnet
Ġbeen den
Ġke ys
Ġgen et
Ġinter view
11 2
ĠGes icht
ĠKon vent
Ġgew isse
clus ive
Ġpolit isch
Ġpolit ischer
ĠAnt rÃ¤ge
ĠSan ter
Ġperfe kte
Ġeffect ively
ĠSozial e
anc er
ĠIII a
weg ian
ĠKat zen
IER UNG
Ġjud ge
ĠFol glich
ĠzusÃ¤tz lich
Ġresol ve
ĠEing ang
Ġsouth ern
Ġrepla ced
ĠAmb assador
ĠElect ric
ĠAuftrag s
Ġunz ureich
finanz ierung
ĠAppl ication
ĠIb iza
ĠResp ons
tellect ual
H igh
T L
T oc
h ar
o ter
x y
at on
ie ch
re ten
ĠS ix
Ġf itness
ĠT ok
ĠE EA
ĠW ol
Ġn ine
ĠB ene
ĠC os
ĠH AL
ĠH Ã¤us
ĠR yan
ĠTh y
ĠAn imal
Ġcon ce
Ġde clar
ES TE
ĠEr inner
RO Z
Ġcomp rises
ac o
gl ie
Ġbes itzen
Ġ10 6
ĠWas te
Ġcomm end
fol io
gel ung
40 7
Ġhin gewiesen
uropÃ¤ ische
mb assador
ĠMehr ere
ĠBen ita
ĠSozial politik
Ġlo hnt
ĠNational e
ĠFil ter
ĠProdukt ions
ĠAud rey
schied et
kre is
ĠKre uz
Ġexpress ion
ĠiP od
Ġentscheiden de
ĠPROGRAM M
trie ben
ĠLim ited
ĠVen ice
DEN OV
ĠUrs achen
techn ik
Ġinstitution al
ĠNon etheless
Ġsuffer ing
Ġged acht
ĠerÃ¶r tert
Ġgrat uliere
Ġentertain ment
/ +
R at
b art
c as
d essen
e ffizienz
on enten
Ġs ah
ĠS amm
ĠA IR
Ġm ixed
le ger
Ġc ater
Ġc itizen
Ġv en
ĠH AS
ou cher
ĠL anz
ĠN os
be handlung
ĠNe got
geb nisse
EM ON
nah m
Ġbis lang
ph a
Ġlie fert
ST ADT
Ġgew alt
ĠX ML
Ġcar bon
ĠGer ade
ĠNat ure
Ġpass ion
ĠMo z
ĠKar in
Ġbar riers
Ġcal endar
ĠTour isten
Ġconne ct
ĠHÃ¶ chst
ĠPay ment
ĠBÃ¼ cher
Ġconven ience
Ġhervor ragen
ĠAdd ress
chsel n
ĠMi ros
ĠMand at
____ ____
ĠWies o
Ġvorbereit et
ĠIW F
Ġhaupts Ã¤chlich
ĠWashing ton
ĠSimb abwe
b ro
b ant
ĠW H
Ã¼ re
Ã¼ ler
ĠB RO
ĠB outique
ent er
ig o
ĠK Ã¶l
Ġbe ings
Ġ( "
Ġfor ts
ĠN izza
ach ts
ĠZ W
ĠDas s
Ġdes ire
ĠEr mÃ¤ÃŁ
Ġsh ame
imm te
Ġ4 50
ĠFor derungen
ĠEin fluss
Ġcomp uters
ac es
OM ÃĦKI
Ġpla in
ĠCO STA
ĠÃĸ k
Ġfre ut
Ġgegen seit
kehr en
ĠFre ier
Ġpay ing
Ġkommen den
ĠTr ump
Ġshow ing
Ġur gency
ĠJapan ese
ĠDisk riminierung
Ġport s
Ġsitu ations
Ġsett lement
94 107
57 484
ĠOp in
Ġstor ies
Ġempfe hle
lim inary
ĠHor izont
ĠDISCUSS ION
Ġcondu ct
Ġpercent age
ĠDiam ant
ĠAID S
gien e
Ġsam ple
Ġleaders hip
ĠBALKAN S
ĠBestand teil
ĠAcht ung
ĠGetrÃ¤n ke
ĠKonsequ enzen
Ġstyl ish
9 00
B ar
a ud
c or
g le
w all
z ust
on ferenz
Ġs essions
Ġf uel
ĠT ran
Ġb read
Ġb odies
Ġe hemal
ĠB onn
ĠF utter
ĠC risis
ĠC uba
Ġth orough
ĠL AM
ĠN ull
ĠAn dern
Ġge be
Ġne un
Ġpro ve
ĠSt ich
Ġab gerufen
ĠEr satz
we ge
Ġum fang
Ġen able
Ġvor stellen
Ġsp ons
Ġtra demark
Ġbis schen
ĠFe el
Ġgest altet
ĠEC B
Ġkomm un
Ġreal istisch
ĠJed och
Ġincre ases
Ġweit gehend
reg ion
ĠNational er
ĠRaum s
ĠGal erie
ĠPay Pal
fÃ¤ llig
Ġdef ine
Ġprec ise
ĠKre is
ĠDigital en
ĠVerpflicht ung
Ġobl igation
Ġobl igations
lÃ¤ss lich
Ġtim etable
Ġclar ify
ĠgewÃ¤hr t
ĠMem o
664 30
ĠprÃ¤ z
ĠSebast ien
IOV ISU
ĠStutt gart
glie dern
. ).
P olitik
S pe
V or
W ir
b ach
k omp
s burg
z ul
is ierte
ĠS ov
ĠT ennis
ĠA VI
ĠE indruck
ĠP ilot
ĠB yr
ll schaften
ĠF oster
ĠC irc
st Ã¤nde
ĠG L
ta x
os sen
Ġun n
ck ing
ĠRe ason
op oulou
Ġauf grund
ub en
err it
Ġch ines
ĠSp r
Ġtra fficking
Ġ19 88
fr ied
ĠRes erve
Ġcl oth
Ġho ff
sta cles
ĠGÃ¤ sten
Ġform ats
plan ung
zeug ung
Ġach ten
ĠAG RE
Ġletz ter
Ġel igible
Ġprom ise
Ġlink en
ĠViel zahl
ĠFern ando
ĠOl iver
ĠEntwicklungs zusammenarbeit
Ġhervor ragend
unt ary
ĠLib anon
ĠStÃ¤r ke
Ġencour aging
Se e
ĠEur or
Ġvirt ual
Ġalloc ated
Ġhilf reich
ĠBILD UNG
ĠRECH TS
ĠGetre ide
Ġamen ities
ĠBROW N
6 24
d ok
h Ã¼t
s l
z ing
re u
ĠM OL
ĠW ALL
Ġe duc
el en
ĠK YP
Ġl uggage
ĠL ow
ies e
ta ken
sch er
ress en
ub ere
ik ations
Ġab gestimmt
ial e
gr enze
ĠEn s
Ġent steht
Ġwar tet
Ġgen annten
zu legen
10 6
ĠMa zed
ever kehr
Ġprodu ziert
Ġgegen wÃ¤rtig
ĠBes teuerung
Ġbeg un
Ġrece iving
Ġexam ined
Ġperson nel
zahl t
Ġadv ise
Ġorgan isieren
ĠAug ier
Ġgar age
Ġturn ing
ĠStat istics
Ġverl angen
ĠSol ar
ĠRegion ale
ĠSeit dem
Ġ00 01
ĠBra bant
ĠChar akter
ĠAcc ount
UP O
ĠEm ma
Ġtw ice
ĠProm otion
Ġslow ly
ĠCre ate
Ne ws
ĠSomet hing
ĠDistr ibution
ĠHost al
ĠTen er
Ġkompliz iert
Ġbeha up
ĠNeigh bourhood
acker el
ĠMehrwerts teuer
ĠEPS O
ĠCarm el
Hein z
L T
S M
W ALD
b em
o e
Â £
in ating
ĠS ich
ar ote
ĠI ST
ĠE den
ur ger
ge mÃ¤ÃŁ
ĠB EK
ĠB OD
ĠC ULTURE
ĠR oth
ĠG h
Ġbe unruh
ĠL anka
am ar
ĠIn v
Ġim per
Ġver ified
Ġzu gestimmt
ant rag
Ġch amp
ĠAb sicht
Ġqu ote
Ġsp r
Ġste lle
Ġtra cks
Ġav ast
ĠHe ath
ÃĦ H
ph ase
ĠIm ports
Ġlie ben
Ġsol ved
ĠWar enk
Ġend orse
Ġrem ote
45 0
Ġhin gegen
ys ide
Ġbo oth
ĠVers prechen
ri ere
ĠPAR T
ĠSa una
room s
ĠMobil tele
ĠMac edonia
Ġmult i
Ġschein en
vis ual
Ġsuper b
ĠTa uch
ĠLE ADER
ĠstÃ¤r k
Ġlux urious
ĠFlor ence
Ġemphas is
ĠInnen stadt
ĠVorauss etzungen
ĠAltern ativ
ĠKatastrop he
Ġzul assen
Ġcandid ate
ĠLandwir te
ĠDefiz it
ĠBetrie bs
ĠGiul io
Vers ion
ĠSCHRIFT LICHEN
Ġjeweil igen
ĠnÃ¼tz lich
Ġmun icip
ĠAndern falls
C R
C ard
D es
M od
N UNG
Ġt ail
un ting
as er
ĠD ays
ĠM iÃŁ
ĠW EL
Ġp oker
ĠP ict
ur ies
Ã¼ che
Ġh yd
Ġan wes
ĠF arm
ĠR unde
ĠG anze
Ġbe zwe
ĠV itor
ĠL ine
Ġz uf
Ġre ve
ĠO k
Ġdo gs
Ġsch we
ip ts
ĠVor rang
ĠGr Ã¼ndung
yste men
ĠDes ktop
ĠRes ources
20 20
ĠTo gether
25 0
ĠFinan cing
wÃ¤ hlen
ĠSte el
Ġdirect ions
ĠCl ient
UL T
ĠPer form
ĠZur Ã¼ck
ĠZe ich
ĠVertreter in
ĠPolitik er
wand t
Ġglobal en
han ced
ĠKat alog
Ġkostenlos e
Ġcreat ure
Ġdepend ing
ĠBau ern
ĠAct iv
ĠAmb iente
ĠAuswÃ¤r tiges
Ġwinn ing
ĠWa ite
ĠJahrh under
Ġsurpr ised
Ġunivers al
ĠExt rem
ĠTalk o
Ġrenew able
Ġentt Ã¤us
Ġsafegu ard
Ġsuspend ed
ĠVerÃ¶ff entlich
ĠKorr uption
GRO UND
ĠVerring erung
ĠWoj tek
ĠKYP RIAN
H and
d urch
u ous
z in
in as
in et
Ġt ruck
ĠS QL
ĠD ra
ĠD iffer
ĠA par
ĠP age
ĠP rÃ¤sent
Ã¼ ster
Ã¤ be
Ġth ick
ĠR uf
ĠG ard
ĠG ior
ĠG essler
ĠK AR
Ġy ang
Ġse ctions
ĠEu re
Ġst range
Ġver ring
ien ces
ad s
Ġer zeugt
Ġex cluded
ĠÃ¼ber tragen
fer ences
ĠNe ar
Ġ9 001
ĠMar ie
AT Z
Ġste ckt
Ġav iation
cht igt
Ġar ray
ĠRat svors
ĠÃľ brigen
tain ability
11 7
ĠPR ÃĦ
ĠÃľber legungen
Ġind icated
ĠKon ver
Ġcent res
net ze
ĠGer Ã¤te
uff s
ĠST AND
Ġspeak s
Ġstar tet
ĠGu ido
ĠWith in
Ġbl ame
Ab kommen
HER N
Ġsubs cribe
Ġregistr ieren
Ġgek enn
Ġmilit Ã¤r
Ġwid ely
Ġprot est
Ġerheb lich
waren ess
ĠergÃ¤n zen
ĠLate in
Ġenth us
ĠUpd ates
918 30
ĠBACK GROUND
Ġgewinn t
ĠauÃŁerord entlich
Ġforts etzen
ĠEuror aum
ĠMazed onien
B otschafter
F Ãľ
c ol
k au
ĠT EN
ĠA CC
ĠP S
ĠP ic
ĠP ublik
ĠF ROM
ĠH EM
ĠG errit
Ġbe ides
ĠV ie
Ġfor ese
Ġre verse
ĠIn so
Ġun e
ĠZ USAMMENARBEIT
Ġwir ks
Ġat tempt
ft ig
we chsel
Ġcan cer
Ġhe ight
ĠAb kommens
ble d
Ġcomm ittees
ĠÃľ b
Ġher um
Ġsm art
Ġdr ug
ĠAustr alien
ĠJo bs
EI B
ĠRechts grundlage
ĠCON FER
Ġprom oting
Ġed ge
Ġoffen en
Ġcorre ction
Ġbereit gestellt
ĠGew icht
Ġerg ibt
ĠPan orama
Ġhinzu ge
ym pt
vi ated
ĠVerteid igungs
Ġkonkre ten
De utschland
ĠApart ament
ici ary
Ġerh ielt
Ġforth coming
Ġdisag ree
ĠGene va
liothe k
gran at
ĠLanz arote
, "
, ...
P H
U p
a ard
Ġa uÃŁen
Ġd ance
or gen
ĠS IL
ĠD ress
ĠD ick
Ġin klusive
ĠM ER
Ġh ung
ĠB I
Ġan bieten
ĠH orn
ĠR ind
ĠG RO
ere icht
ĠV ide
ĠV ari
Ġauf s
iel ten
Ġsh ar
Ġle iden
oc a
Ġvor ne
tra um
ĠRed akte
Ġmod ules
Ġges tellte
Ġfin es
Ġher itage
Ġla id
ĠMed ium
sel ben
Ġgest alten
Ġwieder um
ĠCan on
Ġbo ost
ĠKr on
Ġorgan isiert
ĠPOL ITI
Ġbr idge
IG H
sto ffen
ĠCor porate
ĠDis play
ĠKons ens
Ġcommun ications
Ġderzeit ige
ĠSm art
ĠerwÃ¤ hn
ĠTranspar ency
Ġspac es
orre ktur
ĠMult i
ĠlÃ¶ schen
Ġexception al
ĠKommissions mitglied
Ġdeterm ined
ĠGeme inde
ĠReturn s
ĠFÃ¤h igkeiten
Ġausges prochen
avi our
ĠErnen nung
Ġerinn ern
R ERO
f tet
k ul
Ġt ips
Ġt esten
un i
it les
ĠS AF
Ġm ac
ĠE cu
ĠE ZB
ĠW ille
Ġp ed
Ġp arl
ĠF REN
ĠF RAGEN
ed y
ĠC Z
ĠC HE
ĠL abor
ĠTh ings
Ġun verbind
if fen
op es
ant o
ĠSch ande
ĠEr ne
rÃ¤ umen
aus sch
Ġvor n
ĠAl most
Ġsp ending
OL AF
ĠPr incip
pro jekte
Ġ29 2
kl ar
Ġwel fare
12 1
Ġph il
Ġrep air
Ġche ese
BE W
ĠNor men
Ġfavour ite
Ġput ting
ĠStat ements
ĠPlan ung
stru cted
ĠBuch st
Ġroad s
Ġmis under
Ġdom estic
ĠRev ision
Ġmoder nen
spro zess
Ġprot ocol
ĠVill age
Ġspezie ll
Ġoffiz ielle
Ġswe et
ĠHerzeg owina
ĠAdop ted
Ġniedr ig
ĠKil ometer
Ġarchitect ure
Ġanerk annt
Ġbedauer lich
ĠByr ne
ĠInso fern
c m
c ase
i ques
n ische
in ate
ĠT DI
ĠT Ã¤tigkeiten
ĠA h
al ed
Ġp atch
Ġn ation
ĠP le
ĠB in
ĠC ot
ĠC ases
ĠH um
ig s
ĠR amb
ĠL ars
Ġk new
ĠJ ak
Ġal ter
Ġne utral
Ġj ournal
Ġab ol
Ġle ader
Ġle isure
Ġsch emes
ige m
sp ar
ĠAl m
Ġ6 21
ĠAus blick
sen se
act ions
ĠHier fÃ¼r
uer st
wir t
ĠAt om
ĠInter view
Ġform ul
ĠSpe ech
Ġequ ivalent
Ġfac es
Ġsuccess fully
Ġbesch rÃ¤nkt
Ġeing ereicht
Ġtour ists
Ġoffen e
Ġindivid uell
Ġachie vement
ko dex
ĠGemeins amer
ĠDim as
Ġfocus ed
ĠschlieÃŁ t
ĠED SB
produ ktion
ĠOrd ner
Ġfight ing
ĠMÃ¤n gel
ĠPrakt ische
ĠTem per
Ġaccom od
ĠLEBENS MITTEL
ĠUnabhÃ¤ng igkeit
7 80
M ANN
O r
X X
Y I
h ause
k ar
o a
ĠA hr
ĠA ff
ĠI van
le vel
ĠM ol
ĠP V
ĠP IN
ĠB OL
ĠH et
id ad
and on
ĠU P
ĠO x
de cke
ĠZ ielen
la red
ist ing
ug ang
ident s
lo aden
01 0
ĠGe hm
ĠSo ft
ĠPr im
ĠRed uction
Ġmach e
Ġhelp ing
ict ive
ĠBar s
Ãľ BER
Ġprocess ed
Ġgeb lieben
ĠFahr en
ĠText il
Ġbl ank
Ġed it
ACH ST
Ġschwier ige
Ġcop yright
ĠBre men
Ġdeep ly
ĠkÃ¼nft ig
bre viated
ĠASS O
Ġaccom pl
ĠKlar heit
ĠIndones ia
Ġdele te
Ġcharm ing
Ġimpl ications
ĠLIND H
Ġprej udge
ĠGipf elt
ĠTunis ia
upe a
ĠMalays ia
) -
e e
g in
u ese
w affen
re es
ĠS ard
ĠA HERN
al i
ĠE hr
ĠM is
ĠF OLL
ĠH erman
Ġg olden
ĠR ica
ĠR hein
Ġl abor
ĠV alencia
ĠO h
ĠJ ur
ĠJ ugoslaw
Ġauf hÃ¶ren
ĠVer handlungs
Ġch a
ĠAb lauf
Ġ" "
ĠAus ge
Ġ19 85
TER S
ĠOr al
SP ROGRAMM
ĠÃĦ hn
Ġho her
ock et
Ġmon etary
LE IT
Ġinv o
Ġinv ited
ell ow
ĠMo der
ĠBl u
ĠStrateg ien
ĠTele phone
ĠGegen stand
Ġdifficult y
ĠPlan et
Ġreturn s
ĠNatur ally
atur en
ESC U
Ġdam ages
Ġobl ig
Ġzug ute
Ġterr itory
ĠPack age
Ġverab schiedet
ĠEntsp annen
wind igkeit
Ġparad ise
ĠKonz ert
Ġfavor ite
Ġdah in
Ġfem ale
ROZ ESS
+ ?
1 97
P ol
d at
e ches
j ing
it at
re a
ĠS K
ĠS ure
ar ie
Ġo m
ĠW issens
ĠP iet
ĠK L
ĠV it
ot ional
ach es
iss on
Ġun ne
Ġer a
ik te
ist ischen
Ġsh ips
we ile
ĠVor stellung
ac le
bs ter
ĠMe ister
arbeit s
ĠHier bei
Ġrec ip
Ġra w
ĠArt ik
ĠHand lung
ĠVerb indungen
Ġsm oke
ĠEnerg ies
eng us
stell ungs
ĠSc ot
reit ung
Ġvar ied
ĠFed eration
Ġmis takes
ĠGR UND
Ġkomple tte
ĠFuÃŁ ball
ĠFA O
ĠFÃ¼hr er
ĠCustom er
Ġcontr ast
ĠkÃ¼nft igen
ĠWiederauf bau
Ġaward ed
rel ated
ĠKaiser granat
ĠRail way
ĠPAT TEN
ĠCru z
Ġreferr ing
ĠTurk ish
ĠMAY STADT
ĠBetrugs bekÃ¤mpfung
ĠPatient en
Ġue ber
ĠTreas ury
ĠCONFER ENCE
ĠFOLL OW
M on
w as
z ieren
he z
al and
ĠI F
Ġc lause
Ġin j
Ġh ill
ĠC ur
Ġth erap
id d
Ġfor dere
Ġk ill
ab eth
ĠZ uerst
ĠAn a
ĠAn w
Ġge lesen
ann ehm
ff er
Ġer lebt
Ġme ets
Ġsh aring
ste uer
ue ller
CH USS
Ġ4 379
Ġch apter
Ġsch ne
ĠDe v
Ġad ult
Ġwor st
ru he
Ġsp lit
ĠCh allen
AT A
uÃŁ e
Ġcoun ts
ĠPl anning
ĠWer be
wir kung
Ġgreat ly
ĠTo o
ĠSh ip
leg te
ĠVers uch
ĠKl ass
FF ENT
Ġcor porate
ĠGu y
IG HT
ĠEnergie effizienz
ĠImp act
ĠZur ich
ĠMill an
iod iversity
ĠGew Ã¤hr
Ġpat ient
ĠCH AR
Ġmiss ed
Ġclass es
ĠEM U
ĠRa uch
cent er
ĠJahres bericht
Ġpurch ased
Ġhar engus
ĠTick er
Ġerk annt
Ġintens ive
ĠZimm ers
Ġreag iert
Ġquot a
ĠMetho den
bezogen e
Ġbetrach tet
ĠRou te
Ġsho es
Ġplug in
ĠEt ik
ĠHan sen
ĠFRI EDEN
ĠHindern isse
Ġbeantra gt
ĠGehm inuten
A ll
N IS
g io
t im
on ent
is ierungs
it als
ĠT abellen
ĠD UR
ĠE ind
ĠE co
Ġin g
ĠM OR
ĠW ider
Ġp ip
ĠP il
ur ufen
Ġh iking
ĠF u
ĠH Ã¼b
Ġg ather
ĠG EM
ĠK andid
ĠV ass
Ã¶ gern
ier lei
Ġge gangen
ess eren
Ġj ur
ug t
Ġle hnen
ail a
Ġen forcement
Ġent standen
ĠNe ver
Ġgen aue
ĠEx ports
ĠEx hib
Ġob stacles
Ġbel ongs
Ġtrans action
ĠX L
ĠCOUN T
get table
Ġkon stru
ĠBild schirm
Ġmin im
TEN STEIN
199 4
Ġold est
ĠHin blick
Ġclick ing
clud es
Ġtown s
IEN ST
ĠFil me
ĠTre k
ĠEben en
ĠMod ul
Ġmult ilateral
Ġcontra cts
ĠTar ja
Ġbill ige
Ġtransl ated
Ġsatis faction
Ġsuggest ion
Ġzwe ifellos
Ġentscheiden der
Ġmechan isms
GR UND
ĠHO TEL
ĠBetr ug
ĠAgain st
Ġbekomm e
Ġgirl s
Ġbewer tet
Ġappoint ment
rep ublik
TELL UNG
Ġvorange gangenen
ĠBeaut iful
Ġbewe gt
Ġgeehr ter
ĠKale vi
K AR
K ingdom
P rÃ¤sident
T T
b anken
h ua
k il
s ized
an spr
Ġs tellte
ĠD K
ĠD Ã¼ssel
ĠM W
ge laden
ĠC amer
ĠH ope
ĠR isk
ou ver
ĠK im
ĠV eg
ot ions
Ġk enn
est yle
Ġse ien
Ġge arbeitet
Ġge handelt
Ġver stÃ¤nd
ss ysteme
Ġzur zeit
ĠLe id
ĠPres ent
eiter keit
Ġ11 2
Ġtr ips
Ġprodu ces
Ġsub jects
ĠPol y
ĠDes pite
ĠWo zu
bal d
ITI ES
Ġcho ices
ĠzurÃ¼ck kommen
Ġorgan ized
Ġgef Ã¤llt
Ġsk y
ĠÃ¶ff net
ĠFahr rad
atte gat
Pro jekt
ĠSw imming
ĠMin imum
Ġexist ieren
Ġrelax ed
Ġhistor ische
Ġregional en
Ġelse where
ĠHandels beziehungen
Ġhold ing
Ġaud it
unk el
Ġrepresent ative
Sta aten
ĠProp osed
Ġlack ing
Ġdream s
ĠVerl Ã¤ngerung
Ġexclus ively
ĠSTRATEG IE
ĠMEETING S
ĠFreiz eit
ĠAnwend ungen
Ġtemp orary
Ġinterpret ation
Ġintell igent
Ġsubstant ial
verwalt ung
Ġdecis ive
erma ÃŁen
ĠRedakte ure
E s
N o
R C
S erver
W A
W alter
b ring
e z
e te
m achen
Ġt ank
es ta
Ġd iversity
ĠS AV
ĠT itle
ĠD og
ĠA x
Ġm essen
ĠE V
ĠM ah
ĠP ast
Ġan fÃ¼hren
Ġan nex
ĠF I
ĠC lear
ĠR F
ĠG ert
ĠK OR
Ġbe hoben
ĠV ul
ĠL one
ach ter
ĠO il
kt iven
Ġpro ximity
ĠUn til
ĠSch lag
AN I
ĠBe ll
ail s
ĠSe ktoren
Ġsch ul
Ġum faÃŁt
Ġro ll
IS M
sp ot
ov en
ĠAus wÃ¤rtige
ord nungs
AT OR
Ġbes orgt
Ġ10 5
ĠAuf preis
RA TION
ĠPl attform
ĠLand schaft
ĠMed ik
ĠZusammen halt
46 1
Ġgest attet
ĠBed Ã¼rf
ĠSpe ed
Ġoper ators
LA K
ĠKr anken
Ġconf idential
ĠZug riff
ĠWes entlichen
St and
burg h
app rox
ĠAv iation
Ġeng ag
bet rieb
Ġsow eit
ĠInst ance
Ġern annt
Ġtro uble
Ġsun ny
Ġschle chte
ĠAussch Ã¼sse
Ġverm ieten
ĠAUD IOVISU
Ġsurpr ising
ĠMov ement
Ġrapid ly
ĠErwÃ¤ gung
ĠEreign isse
ĠExpl orer
ĠFER RERO
Ġexcess ive
ĠTow ards
ĠErmÃ¤ÃŁ igung
WALD NER
ĠBOL K
Ġunne cess
D K
K o
R IE
k u
k orea
v org
on ts
Ġd iving
at ibel
Ġw ife
ie ts
ĠS achen
as cript
ĠA ctive
ĠH Ã¤ufig
ĠR omp
ere als
ĠL ess
Ġre ct
00 3
Ġk Ã¤mpfen
la fen
ib iot
Ġde partment
Ġer teilen
Ġj ungen
ĠSch Ã¼ler
Ġab andon
ĠMinister prÃ¤sident
og n
hl ten
geb Ã¼hren
Ġpre v
entr ally
ĠEuro zone
AND RE
ĠInd ik
Ġ* **
ĠVers icher
Ġstar b
ott i
ĠProje kten
Ġmov es
ĠWeb cam
iner y
ĠAllgeme inen
fÃ¤h ige
Ġteam s
ordin ary
Ġmaxim ale
ĠKom b
Ġident ity
Ġunver zÃ¼glich
Ġfreund liche
Ġamb ition
por ation
ĠLib ya
ĠRot ary
Ġvorgeschlagen en
ĠMass age
Ġeinges tellt
ĠSoll te
Ġcondu cted
ĠTR EMON
Ġkeines wegs
ĠErhÃ¶ hung
Ġster ben
krie g
ĠFOLGEN DE
Ġversehen e
ĠLUFT VERKEHR
ĠVerord nungen
ĠSug ar
ĠMÃ¤d chen
Ġdeclar ations
ĠTREMON TI
3 10
S k
g ments
h ot
m ien
s ichts
at re
re gend
ĠS ul
ĠS atell
Ġf Ã¤hrt
Ġb ureau
Ġm l
Ġin kl
ĠW art
ĠW Ã¼nschen
ĠP PE
ir ts
ĠG ang
Ġ2 30
Ġder art
ol is
ĠL UPO
ĠN az
Ġk ernel
ver ordnung
ĠJ OINT
ers te
Ġst imul
ad us
ad ia
ann y
ĠVer wir
oll ars
Ġr um
ĠSch Ã¤tz
ak ische
ĠDe ck
ĠEin fuhren
ĠTe e
Ġtra ins
ED R
fol d
lin ed
Ġ11 6
ĠPl Ã¤tze
ĠPol ice
12 5
Ġgest artet
ĠBed ien
ĠGeb ieten
ITTE E
Ġoper ates
ĠSu iten
Ġcheck s
Ġlarge ly
ĠFlug zeug
Pro t
Ġstrateg ies
ches ter
ĠWirtschafts politik
ĠUms atz
ĠFest pl
ĠCOMM ITTEE
ĠPhil osoph
Ġfunction ing
ĠSchwe ine
Ġerw iesen
Ġdef end
ufrieden heit
Ġsor gt
ĠHam as
meld ungen
ĠInde x
orre ct
Ġdeta ill
Ġarrange ment
ĠHoff entlich
Ġblock s
ĠPE ACE
ĠPlen um
ĠFunkt ions
ĠJose ph
ĠRÃ¤ ume
ĠComb ating
ĠEtw a
ĠFeed back
ĠOt to
689 09
Ġphenomen on
ĠKÃ¶l n
Ġanwes end
ĠHEM ILÃĦ
B I
G F
K ON
O H
c omp
m ung
m aterial
r un
w art
y o
Ġt ip
Ġd ress
Ġs me
Ġs ac
ĠT ut
ĠA wards
Ġm om
ĠM assen
us ing
Ġe ure
ĠC N
st on
ĠR app
il ia
ĠK am
ĠK onta
ĠL aila
Ġre chten
um es
ĠTh erm
ĠIn tell
ul se
Ġge zogen
Ġer hoben
ĠVer sch
ĠMinister ial
ĠSe hens
Ġro w
ĠSp ielen
EL S
ĠLe ip
ĠLe iden
ĠHe iz
ĠMa ast
ĠAnd orra
lie hen
ĠAuss age
Ġbed au
Ã¤ch er
ĠÃĸ FFENT
ĠHa ppy
ĠÃľber trag
Ġcountr yside
ĠArt is
ĠRes ult
Ġconc ert
UR ES
Ġbu ying
Ġstand ing
ĠSpe isen
Ġcor ruption
Ġfac ed
Ġdesign s
ruf en
ĠFahr er
ĠPa olo
ĠPolitik bereiche
Ġerst es
Ġkeep ing
Ġmark s
ĠInst anz
ĠKÃ¼ sten
Ġest imated
Ġrev ised
ĠBu y
ĠKamp agne
Ġposit iven
ĠBAR TENSTEIN
ipl om
ĠMos cow
Ġappe ared
flÃ¤ chen
Ġkil omet
ĠIC T
ĠElekt ro
ĠHall o
Ġstrengthen ed
HR UNG
ĠVo gel
ĠMik kel
Ġgere gelt
Ġcoll abor
lÃ¤uf ig
Ġimag ine
verein bar
ĠParticip ation
ĠKUK AN
Entwick lungs
5 37
T AC
a ult
a ppe
c at
k le
k und
ĠE missionen
Ġc ache
ĠM illion
ĠB ou
ĠF ive
Ġv acc
Ġto ll
st att
ĠR ande
ĠG ot
ĠG PS
ĠG AMA
ĠK G
ĠV i
ĠV lad
ot hing
ĠSie g
ĠO m
ĠO bs
ill ance
ĠJ ar
Ġge klÃ¤rt
op ted
Ġr ing
ĠEr ik
ak ed
Ġsich ern
ĠPress erefer
Ġdem o
Ġfind ing
ĠSp lit
scha ff
Ġent schlossen
AL OG
ĠAl fred
ĠAus fuhr
Ġnew ly
Ġpl ate
Ġgesch ah
Ġgu ys
ĠUm feld
Ġviel er
lieÃŁ t
Ġtrans it
ows ki
ĠInternet seite
ID ES
fin ed
ĠMy th
ivers ary
ĠNot ice
Ġfact ory
ĠPortug uese
Ġgeb eten
ĠApp oint
ĠIM PL
Ġeinge leitet
bil anz
go vernment
ĠAuÃŁen politik
Ġwarm ly
Ġperform ed
ĠArbeitspl atz
Ġatta cks
Ġ43 98
Ġmass ive
ĠFRE IV
ĠkÃ¼nft ige
Ġcred ibility
ĠGeldb uÃŁe
ITÃĦ T
Mittel meer
Th is
ĠWÃ¤hrungs union
ĠFun ction
ĠCrist ina
ĠgewÃ¼nsch ten
zip lin
Ġsubsid ies
ĠgenÃ¼ gt
Ġbreat h
ĠErwachsen e
Ġacquis ition
Ġunfor gettable
Ġarran ged
ESTE IN
ĠNegot iations
ĠWarenk orb
ĠKonver genz
Ġhinzuge fÃ¼gt
ĠDÃ¼ssel dorf
ĠBOLK ESTEIN
ĠMikkel sen
0 25
A TE
C F
N AFO
a w
a cco
g Ã¤nge
l ike
m acht
n amen
p at
r s
w issen
he mat
re lli
ĠT us
Ġb lieb
ĠD ia
al us
Ġm ine
Ġc od
ĠB L
ĠB OS
ĠF E
Ġto urn
Ġth in
ĠR AH
ĠG umm
ĠThe ater
ĠV iol
ĠL ob
ĠL etzt
ĠL eder
Ġre action
ĠZ one
ĠZ ALM
Ġr ichtet
Ġr iding
Ġmit ge
Ġsh ot
ern ame
Ġ19 87
Ġpre is
ĠCon ver
Ġviel mehr
ĠBei jing
Ġpar a
ĠCl ar
ĠRechts staat
Ġinvest ig
ĠFrÃ¼h jahr
ĠBus quin
Ġart ists
ĠTour ist
Ġlog ic
ASS NIK
ĠÃ¼ br
ĠBas ic
ĠBenutz ung
fel der
Ġthough ts
Ġautomat ic
ĠTerm ine
0000 0000
Ġgarden s
frist ig
ĠPL ASSNIK
Ġobserv ation
ĠCat al
ĠAdministr ative
ĠParte i
ĠWil helm
Ġmut ual
ĠVerhalten s
Ġcompar ison
Ġrech nen
ĠInnov ations
546 29
ĠVerz Ã¶ger
ĠOliven Ã¶l
1 96
M an
Y ER
i anz
m ir
Ġa w
Ġd ig
Ġs ud
un es
Ġw and
Ġw ahre
re me
ĠS OM
ar ta
ĠD ON
Ġc up
Ġin quiry
ĠP rÃ¤s
Ġv irus
Ġth erm
st uffs
im edia
ĠG arn
ĠK la
ĠV IP
id ance
Ġk ing
ul ierung
qu ar
TI EN
aus gaben
ĠAl an
ĠBr itt
ĠMit gliedern
ĠFr onte
Ġar res
Ġco her
Ġ11 5
fr isten
Ġrec over
olog na
ĠQu art
Ġmor hua
Ġmay be
ĠVerein igte
Ġbo ats
schafts politik
ĠStud enten
ĠMer cure
Ġweb cam
IF S
emp loyed
ĠMac ro
ĠProf essor
ESC O
gn Ã¼gen
Ġderzeit igen
Ġhistor ischen
ĠBundesminister ium
ĠDel uxe
Ġerw eiter
ĠDat ens
Ġrecord s
ĠPAP ANDRE
Ġverein fach
ĠOrganisation en
ĠInstit ut
Ġappreci ated
Ġumfassen de
Ġprim arily
ĠvernÃ¼nft ig
ĠHilf s
tler weile
Ġbee indruck
ĠEntfern ung
Ġzun ehm
Ġschn elle
ĠFREN DO
ĠFronte x
) )
F l
b ij
d r
k ka
o der
p o
Ġt on
is st
Ġd iverse
Ġd iplomat
an b
at iver
ie hlt
Ġm ur
ĠI TER
Ġc ot
Ġc ommission
ĠP UBLIC
Ġh idden
ĠB ag
Ã¤ llig
ra in
ĠL isten
ut ze
Ġre ward
Ġre tail
ĠN A
os ur
if i
Ġst ir
Ġne vertheless
Ġver he
Ġver st
Ġzu kÃ¼nft
ss icherheit
ĠVer mitt
ant al
AN GE
up l
ĠDer mot
ĠSe le
ĠSe everkehr
Ġsch licht
ap ital
ĠAr c
ĠAl ways
ĠVor der
Ġcomp ensation
Ġ9 207
Ġ19 86
Ġconta ining
ĠReg ime
IC AL
ĠCon tra
ĠCon ven
ĠVerb rechen
ĠFre uen
Ãľ CK
Ġdirect ives
Ġser vers
wirtschaft ung
tab ly
ĠÃĸff nen
Ġausge fÃ¼hrt
Ġze ich
ĠFort unately
weg ische
Ġbeh aviour
ĠFortsch reibung
Ġopp osition
ALL S
Ġregul atory
ĠHar ald
zuf Ã¼hren
ĠBot schafter
Ġsatisf actory
ĠJon as
ĠFÃ¼hr ungs
ĠErd be
ĠErd gas
ĠKur se
ĠBeteil igten
Ġteach ing
Ġvari able
ĠKenn zeichnung
mÃ¶glich en
inem a
ĠFour th
ĠGRE TH
Ġcompon ent
ĠWÃ¼r de
ĠSchwar z
Ġparad ox
ĠUmst ruktur
tex te
ĠerlÃ¤ utern
TIM M
ĠÃ¼berras cht
Ġberu ht
575 17
Ġcomplim ent
ĠJugoslaw ien
K ER
L i
T ar
Y L
d iv
f lich
j unkt
m und
n ik
s etzt
ch i
ch ron
Ġs q
Ġw itness
ĠS U
Ġf isher
ĠD ates
Ġm g
Ġm aps
Ġm useums
ĠW ats
Ġe ar
Ġe ating
ĠB art
ĠB AK
ĠF ile
ĠH unde
ĠG Ã¶
Ġ2 10
Ġein sch
Ġre isen
ĠZ in
ers atz
ĠWe ger
ad v
ĠRe ferenz
ĠSt ructure
Ġer f
Ġauf zu
Ġj oy
Ġdo ctor
ag ers
ĠEr folge
Ã¤r kt
Ġad idas
ĠAr r
pl ays
Ġ10 4
TS U
Ġ22 0
IC ATION
Ġsit zen
Ġfr ank
ĠPre vention
vent ionen
Ġwel ches
ĠHer berge
ĠGes etze
ĠBes orgnis
ĠBar on
ĠJun ior
16 3
EI ER
Ã¤h le
ĠSk r
ĠBo hez
ift ung
ĠAmer ic
ged y
ĠSP A
ĠSchw imm
ĠfÃ¼ gte
Ġdef ic
Ġdep th
ĠKre bs
ĠLib yen
Ġfrei will
Ġexc urs
ĠTun esien
Ġmanufact ured
ĠVoll stÃ¤nd
ĠRub iano
Ġsil ent
ĠDirector ate
ĠVorgehen sweise
eing esch
ĠRegistr ation
ĠGÃ¼n ther
Ġdiscover ed
ĠAmts blatt
ĠPot enzial
adem y
ĠWIRTSCHAFTS RAUM
ĠZivil gesellschaft
Ġheut ige
ĠgewÃ¼nsch te
ĠNatas ja
Ġzerst Ã¶rt
ĠAGEN DA
Ġconfigur ation
Ġkomfor tabel
ĠCertain ly
Ġrecognis ed
ĠThy ssen
A pp
G P
L V
S hop
b ut
c z
k as
v ol
x x
Ġw em
ĠS ports
Ġb iz
Ġm Ã¼nd
Ġin i
ĠW alter
Ġp ays
ĠP fe
Ġh alt
ĠB atter
Ġg ate
im ir
ĠG erechtigkeit
ĠL ust
ĠL II
Ġk Ã¼rz
ĠTh ink
ĠIn zwischen
ce ut
ib il
ĠPro b
iel te
ĠEr ster
ĠÃ¼ber zeugen
ĠEn h
ĠEn tre
ak ers
TE M
Ġres pected
Ġro ugh
Ġsta ges
ĠSp irit
og o
erv ed
ĠAl ic
ĠGe hen
ĠGe pÃ¤ck
ĠBr utt
Ġcomp li
Ġpos ted
ĠCon struction
ĠAd vis
Ġgr iech
Ġemp fangen
Ġange passt
geme inschaft
des ign
ĠFollow ing
Ġredu ziert
mÃ¤ÃŁ ige
ĠSP EC
Ġhead ing
ĠMod el
Ġess ence
ĠRa uchen
51 752
Ġdom in
ĠGEMEINS CHAFT
ĠzusÃ¤tz lichen
ĠPrÃ¤ vention
ĠUpdate Star
Ġsuppl ies
Ġemphas ise
sc ale
Ġcook ies
Ġload ed
ĠBere its
ĠMO EL
ITÃĦ TS
Ġmeant ime
Ġoccur red
Ġfro h
ĠCong ress
ĠEtw as
ĠFlÃ¼cht linge
ĠVinc enzo
Ġkontroll iert
ĠPolize i
ĠJord an
pap ier
ĠRED ING
Ġbird s
ĠAbsol ute
Ġcomplain ts
ĠBedro hung
ĠMaast richt
2 11
B et
P r
R D
U TION
Z EU
d ays
n ia
r il
is c
Ġs ymp
at em
Ġf u
Ġf lying
Ġf ifth
ĠT imes
ĠD RO
ĠA uÃŁer
ĠI B
ĠM ECU
ĠM ASSNAHMEN
ĠW ay
ĠF ett
ĠC hal
ĠC EO
ĠG allery
ĠK it
ĠK ammer
ĠN AV
sch te
ĠO wn
Ġse lling
de p
ĠSt ring
Ġer wer
imm ern
ĠAb fÃ¤lle
ĠAr ena
Ġent deckt
ac ular
ĠAN TSU
Ġpol y
ĠBelg ian
ĠBet a
ĠAt t
ĠDen k
LE X
ĠVER EIN
ĠTrans fers
ĠProgramm es
ĠmÃ¶glich en
ĠNov otel
RI MIN
Ġpriv ile
Ġstud ent
Ġklar stellen
Ġpres ident
ĠBundes republik
Ġlang er
Ġeinge halten
ĠErfolg s
ĠMarket s
ĠhÃ¶ here
Ġland wirtschaft
SEN Minister
ĠLog ik
ĠAp ache
Ġcop ies
frist ige
Ġfarm ing
Ġqual ified
Ad opted
ĠHaup ts
Ġfant ast
nehm ern
KAN EN
jÃ¤hr ige
ĠPo verty
ĠOffic er
Ġgarant ieren
Ġdeliber ations
ĠMasch ine
wÃ¼rd igkeit
ĠMittelmeer raum
Ma ÃŁnahmen
Ġadjust ment
ĠChamp ions
Ġcalcul ated
ĠHarmon isierung
ĠFlÃ¤ che
arma ceut
Ġic on
Ġkulture lle
Co R
ĠORGAN IS
Ġelev ator
Med iterranean
ĠTarge t
ĠHauptz iele
ĠMiros lav
ĠRatsvors itz
Ġgekenn zeichnet
ĠApartament os
" -
N EM
l ana
m odell
p ra
t rans
ĠT w
ĠA ra
Ġm outh
ĠP oll
ĠB ow
ĠF U
ĠR olf
ĠU g
Ġst unning
Ġver teid
ib ar
ĠUn employment
uss en
Ġdes ktop
ist ol
ist ry
Ã¼ber greif
pe ction
Ġab hÃ¤ngig
ĠÃ¼ber aus
gr Ã¼n
ĠPress estelle
Ġres idence
fer nen
zen s
scha uen
pl us
Ġsein es
ĠLe ague
IL Y
ĠMar ine
Ã¶r g
10 5
Ġconta ined
ual a
pro bleme
ĠEx tens
ĠIs a
Ġwell ness
Ġgr Ã¼n
Ġright ly
ĠBes ondere
rol le
Ġeinfach en
Ġihr es
Ġdisc ip
Ġhin nehmbar
Ġinc orrect
Ġform ed
AG ER
In nen
Ġgute m
Ġturn s
Ġret ten
Ġmov ies
kauf t
ĠGleich es
Ġkeep s
ĠPers Ã¶n
Ġprevious ly
Ġaffe cts
Ġpropert ies
Ġsignificant ly
ĠBal ance
ĠSchweiz er
ĠUs ing
ĠAng ola
ĠHIN TER
ĠgewÃ¤hr leistet
Ġdisapp ointed
Ġneigh bourhood
Ġvorliegen de
Ġchem icals
ĠDam als
ĠPlug in
Ġunc ertain
ĠCreat ive
Ġempf iehlt
Ho her
ĠEAD S
lend id
ĠSure ly
ĠLeip zig
ĠWats on
B o
C or
G O
M EIER
N ov
e ter
n icht
s wert
Ġ Â£
Ġt at
ĠT anz
ĠD agegen
Ġc am
ĠW Ã¤l
ĠP ek
ĠP OP
Ġh ire
ĠF lag
Ã¤ uft
ĠC ub
ĠC SS
ĠH amer
ĠR U
ĠG all
ĠG reg
ĠK uba
ĠL oy
Ġfor ests
ĠN iveau
ver tra
Ġver hÃ¤lt
ine in
ĠRe aktionen
Ġdies el
ĠSt op
Ġj un
ĠSch Ã¶ne
ag ua
ĠEr haltung
Ġyour s
ĠEin lad
Ġfind est
Ġen abled
AR N
Ġspe zif
Ġcons c
Ġcons olid
ĠÃ¼bern immt
ĠPre ist
Ġers etzen
Ġhelp full
tab ility
CHAF TS
Ġlo bster
ĠDurch setzung
ĠDurch schnitt
Ġenter prise
ĠMet hod
65 65
Ġann ulled
ager rak
ĠEd itors
rÃ¤n kung
ĠHuman ressourcen
the t
Ġeinzel ne
OY ANN
ĠWerk zeug
ĠLu is
Ġrecogn ise
apt op
pid em
Ġengine ering
ĠVert retung
ĠTon io
CCCC CCCC
Ġerheb liche
ĠJose f
Ġult im
ĠStre cke
ĠKrank heit
ĠunabhÃ¤ng ig
ĠCong o
ĠSTEIN MEIER
Ġdoub ts
Ġnar row
ĠNachhalt igkeit
Ġmom ents
ĠLII KANEN
/ -
I J
J ahr
L D
U ERUNG
V OR
a ire
e y
e eing
m l
o id
r up
Ġs amm
ie ben
Ġf ur
Ġf uck
te ous
ro te
ĠE c
ĠE conom
ĠM AS
ĠP T
ĠP atch
Ã¼ hen
ed e
ĠC ou
ĠH alt
ĠH Ã¤nde
ig l
ere ll
ĠV arian
ĠL ar
ĠL OU
Ġein geb
ĠTh rough
ĠO cean
Ġst ret
Ġwe chseln
ad ays
Ġnicht ig
ĠSt Ã¶
Ġer Ã¶ff
Ġer griffen
Ġr ising
men Ã¼
och ter
ĠDe f
etz ungs
ĠAl ps
IT U
Ġspe ichern
Ġspe eches
Ġ12 3
ĠAll tag
utz er
ĠRat s
EC K
ins el
ĠMed ical
Ġpar ameters
ĠAnt anas
Ġreview ed
ĠAut omat
Ġimp osed
Ġinvest ieren
bo den
Ġforward ed
Ġmed izin
ĠSc ore
ĠBÃ¼rger innen
Ġerwar te
ĠMod ule
ĠRa im
lei hen
ĠKern el
uk le
EV A
Ġoption al
Press erefer
ĠCop yright
Ġconsult ing
Ġbott le
Ġsuppl ied
Ġgain ed
MAN S
ĠBere it
ĠWohl stand
het or
Ġlok ale
ĠergÃ¤n zt
ĠWhe ther
Ġrom antic
Ġstrict ly
ĠAktual isierung
ĠIndivid ual
Ġcertific ate
ĠComment ing
ĠKYPRIAN OU
G ipfel
I FF
K AS
L UNGEN
O n
S ep
V E
b ot
c our
g i
g on
g ent
k ing
er in
in stit
le ts
Ġc rops
us ta
Ġp rag
Ġe urop
ĠF ORD
ĠH ad
ĠH AN
und i
ir y
ir at
st Ã¤t
ĠR ett
il ig
ĠG ROW
ĠThe me
ĠV as
Ġz ero
am o
ver trag
ĠAn bieter
ad i
Ã¼ber trag
AN AS
ĠEr lÃ¤
ĠBe ge
ĠBe ziehung
we ich
ud i
ud es
ru its
cl ass
ĠBer ge
Ġapp ar
ĠMar s
10 49
ven ted
ĠPol icies
12 7
Ġfre ige
com ings
Ġfound ation
LE IST
ade quate
ĠmÃ¶glich st
Ġdire cted
que llen
Ġfinan ced
Ġobject ions
ĠBl an
ĠAir bus
Ġtalk ed
Ġcompet ence
ĠVerfÃ¼g barkeit
Ġrespect ive
Ġinstall ations
ĠDan ish
FT A
Ġtro tz
verb indung
Ġappear ance
zep te
Ġangeb racht
ĠGran ada
ĠLauf e
Ġrein for
Ġkur zen
ĠBO EL
ĠÃ¤hn liche
Ġol ive
kn Ã¼p
Ġweak ness
Ġbeteil igen
ria ge
ĠVorauss etzung
ĠAltern ativen
ĠPRESID ENT
Ġquar ter
bek istan
ĠAlger ia
ĠgenÃ¼ gend
ĠSAN TER
Form at
ĠWW U
OPOU LOS
ĠMobiltele fon
government al
IFS UD
Ġzunehm end
ĠBAK OYANN
1 45
l ern
er l
Ġt aus
Ġd rag
Ġd iagn
ĠT AK
Ġb esseren
ĠA round
ĠM AC
ĠW eit
ĠP od
om s
ĠF ishing
Ġto ugh
ic ars
el ten
st uhl
ĠL ack
ĠL ove
ĠTh or
Ġun annehm
ĠAn pass
Ġzu verlÃ¤ss
all ing
ĠSch wÃ¤
IN IST
ĠEin trÃ¤ge
Ġsp ann
ĠGr Ã¼nen
ĠUN ESCO
Ġtra il
wo hnt
lie f
Ġany way
EC TIVE
Ġbed ro
Ġbel ief
Ġweiter ge
leich heit
Ġincl usive
ĠBet ween
ĠInd ian
ĠSh ir
Ġange wandt
Ġche aper
IG N
Ġbesch leun
SCH UTZ
ĠZwe cke
urp ose
Ġsend ing
Ġpat ients
Ġfal se
ĠHuman itÃ¤re
90 403
Ġsepar ately
ĠUrlaub s
Ġbill igt
Ġdemand ing
Ġterr itorial
ĠEur atom
ĠIl leg
Te am
NAH ME
ĠTob acco
ĠArgent ina
ĠBek annt
ĠDarf ur
ĠINTERN ATIONAL
ĠKriminal itÃ¤t
Ġing red
ĠRomp uy
ĠHINTER GRUND
0 20
C oun
F rank
L Ã¤nder
P RO
j ana
r ent
r ist
Ġt ort
or fen
it ieren
as ion
ĠT ower
ĠD AR
le iste
ĠM AG
ĠM IFSUD
ĠB V
ĠB AN
ĠB ologna
ĠF iscal
ĠH ed
ig ger
st ream
il led
et ch
Ġbe at
Ġbe ef
ut age
Ġein schlieÃŁlich
um fang
Ã¶ ch
Ġun eingesch
ĠZ entrale
ĠZ igare
if er
op en
ĠSt att
ĠSt ufen
ON G
Ġab use
Ġwh ose
ĠSe villa
se in
ĠAb onn
be an
ĠGe h
ĠLe hre
Ġbet ont
Ġtra gedy
eral d
pro gramms
utz utage
ĠKontakt ieren
gel Ã¶st
Ġbed anken
amp s
Ġpolit icians
ĠAlle in
ĠHo hen
Ġwo oden
Ġspecial ist
IG KEIT
Ġput s
IV IL
Ġprom pt
Ġentsp annen
Ġshe ep
Ġve get
Ġeng ines
ĠDownload s
ĠDom estic
Ġenc oun
Ġindividual s
ĠAbgeord neter
ĠHor se
Ġintens iv
wÃ¼rd igkeiten
ĠWik icars
ĠSchÃ¶n heit
Ġbetreff enden
ĠRab att
ĠSchne e
Ġwirk liche
ĠFernse h
ĠCond itions
La ughter
ĠSingap ore
Ġvulner able
ĠDiamant opoulou
ĠWALL STRÃĸM
ĠGRETH ENMinister
I s
P artner
S o
k ons
y es
z ard
Ġs at
Ġs aving
ĠT os
ĠT reib
ĠD IM
Ġm Ã¼ÃŁ
ĠM D
Ġn am
Ġn ennt
Ġan gel
ĠC AN
ĠH Ã¤ndler
ir n
ĠR on
ĠR Ã¼b
ĠR enew
ĠK orrektur
ĠL iv
ĠL ady
ĠL aut
ĠZ YP
Ġwe alth
ad ow
Ġauf gebaut
ant ie
Ġr ational
Ġ3 60
Ġ3 88
ON A
ok raten
be ing
Ġad min
AL DS
Ġvor genommen
one ct
iz ations
ĠVor sicht
ĠBr ig
ink el
Ġunter wegs
igh ter
ĠSta ates
ĠWas ch
Ġdis miss
10 4
own ed
RA FT
Ġco al
fr iendly
Ġinter ven
Ġbest immen
Ġend ors
SP ROZESS
Ġcl arity
Ġprov ince
ĠMon to
lÃ¤ uft
ĠDar stellung
Ġgest Ã¤rkt
ĠEst abl
ĠSa uli
ichte te
Ġconf usion
In ter
Ġenjoy able
ĠTour en
Ġinde pendence
Ġkurz em
ĠSal es
Ġauthor ised
Ġachie vements
Ġreserv ieren
ĠZugang s
ĠDialog s
ĠSP E
Ġimplement ing
ĠAnn oun
Ġcolle ague
gra ce
Ġstor es
ĠPan ama
ĠSEC TOR
ĠLast ly
Ġsex y
ĠBEI HILF
Ġdrink ing
Ġangegeben en
ĠMik ro
ĠÃ¶ k
Ġcelebr ate
ĠBir ma
Ġcell s
ĠChanc eng
ĠLiberal isierung
ĠNI INIST
Ġmarg ins
ivier a
Ġkorrig iert
Ġworry ing
Ġprohib ited
ĠPrepar ation
ĠStimm abgabe
ĠWÃ¤ hler
Ġaccompan ied
Ġfir ms
ĠApar thotel
ĠRÃ¼b ig
B AL
j an
k ammer
m ont
m aster
n ie
u an
u ing
v ie
is tern
Ġd ivers
it as
ĠS enden
ĠE qual
ĠM ul
Ġp ilot
Ġh Ã¶rt
ĠB av
ĠB usse
Ġv ig
Ġg ym
im er
ĠK ont
Ġl akes
ĠL Ã¤rm
and ou
Ġun us
ke pt
Ġcon vert
Ġcon version
ĠRe ports
qu elle
ĠVer hÃ¤ltnis
ste p
Ġle ichte
Ġle ichter
Ġaus zu
ang hai
ĠDe ar
ac a
Ġunter scheiden
Ġbet rÃ¤cht
Ġgen der
ĠMa ÃŁe
RE T
ĠComm erce
11 9
fÃ¼hr ende
Ġcl oud
Ġprov ider
40 4
sta atssekretÃ¤r
ĠVerein ten
innen markt
Ġair ports
ĠWill en
ĠJo z
ĠMein ungs
Ġoper ator
ĠTr ends
tend lich
Ġorgan ic
OV O
Ġref ers
ĠHung arian
Ġnon sense
Ġachie ving
ĠAllgeme ines
ĠJav ascript
verb rauch
ĠSE E
ĠFerien haus
ĠBerat ungen
ĠLas er
Ġofficial s
ĠGesetz gebung
ĠDemoc ratic
sa w
Ġindic ators
ĠUrs ache
ĠNik on
Ġprem ium
Ġreact ions
ĠREP ORT
ĠAns wers
Ġspezie llen
temp orary
ĠEntsp annung
ĠEval u
Ġaccident s
ĠIndones ien
Ġconcentr ate
ĠDomin ik
Ġparliament ary
ĠLUX EM
Ġhyp oc
ĠDif ferenz
EMEN TS
ĠAVI ATION
ĠPRÃĦ SID
ĠHÃ¼b ner
Ġprag mat
ĠMonto yer
ĠChanceng leichheit
" )
G o
K R
P ROGRAMM
S ION
f ile
l ink
s ol
w iesen
Ġ Ã¤lt
er ted
is ode
es tet
or et
it ative
it Ã¤ren
ie ller
ĠT irol
ĠA SP
Ġe g
ĠB UR
ĠB UL
ĠC ategory
ĠH und
ĠG utes
ĠV EDR
Ġfor ced
00 4
ta d
ier bar
Ġun ited
Ġge Ã¤
Ġver fahren
iv ation
ĠPro zeÃŁ
Ġsh ap
ak i
ĠDies em
ĠWh iting
ĠFor mer
rÃ¤ der
IN I
be ziehung
Ã¼ss te
ĠSp ons
Ġwar rant
sp artner
au x
ĠAl ters
ĠVor geschichte
ger Ã¤t
ĠRed u
Ġtr ib
ĠÃľber arbeitung
Ġover looking
12 2
12 8
wir kt
Ġcour ts
ĠX I
ĠX X
Ġsc reens
Ġhand ling
ĠVorsch lÃ¤gen
ugh Ã¤fen
Ġaccess ories
Ġwieder holt
Ġexce ed
gesch rieben
ĠZiel setzung
ĠInvest ition
ĠSon y
Ġprom ises
ĠGegen wÃ¤rtig
Ġindustr ies
Ġelect rical
zug ang
ĠDr ive
Ġfa ult
amb ots
ĠVis ual
Ġfunction al
Ġaccommod ate
Ġflex ibel
ĠAK TION
ARD S
Ġrepresent atives
onen te
ĠRot terdam
ĠKein er
Ġbre ite
Ġmanufact urers
EF A
ĠIC ES
Ġcert ified
Ġwunder bar
bÃ¼ ro
ĠVAL ION
Ġult imate
Ġscen ario
ĠGlaub wÃ¼rdigkeit
Kon ferenz
ĠFrancis co
Haus halt
Ġcompla int
Ġtran qu
ĠPac ific
865 70
ĠExhib ition
C ons
E bene
T ES
Y G
b i
b lock
c are
g Ã¤nger
v ar
in strumente
Ġa an
Ġt v
an u
Ġw et
Ġw ins
ĠS ven
ĠS ammlung
ar in
ĠT ochter
ĠD ream
ĠA er
Ġc row
Ġc otton
ĠM Ã¼ndliche
us a
ur teilung
Ã¼ ben
Ġv ic
ĠH it
ĠH OL
ĠR oss
Ġl iber
ĠL och
ĠL ene
um ps
Ã¶ hnen
ul u
ĠZ ag
pp t
la via
Ġver grÃ¶ÃŁ
ust in
ĠSt an
Ġer sta
Ġwh atever
gr Ã¶ÃŁe
ĠBe zahlung
ak en
Ġcan cell
Ġso il
ĠAb bau
Ġunter st
con f
Ġbet onen
Ġpl astic
geb Ã¼hr
30 2
ÃĦ UB
Ã¤nder te
ĠNach mittag
Ġ15 00
teil igung
ific ent
Ġover night
olog ischen
Ġdec lared
Ġass ign
Ãľ bereinkommen
ĠIr on
ĠPh Ã¤n
ler nen
MER MANS
Ġstat ist
hed ral
Ġpublic ation
ĠDirect ives
Ġfest ge
Ġkom bin
ĠMer ced
Ġplan en
ĠMet all
Ġann iversary
ĠGemeins am
ĠGesamt kosten
cal led
Ġregistr iert
hÃ¤ user
ĠTerm s
ĠHar bour
ĠLo hn
ĠTH AT
Ġhar bour
ĠMic ro
ĠVen edig
FAH R
ĠDeut schen
Ġbag s
Kommissar in
Ġord inary
ĠBaum w
Ġquant ity
ĠSad dam
ĠFlÃ¤ chen
Ġverur teilt
ĠBewer ber
ĠnatÃ¼r liche
ĠESP ERSEN
Ġauth ent
ĠKompet enz
ĠTIM MERMANS
Ġbran ch
ĠFuer te
Ġumfass end
ĠIACOV OU
ĠHugh es
ĠVeg as
adv anta
ĠNIINIST Ãĸ
A pr
I Minister
S CHAFT
W est
b orn
f al
f enster
k urr
n i
n n
r ight
in stall
Ġt end
on ial
Ġthe ory
te ufel
ĠD M
ĠE I
Ġin fe
ĠW ine
ent o
ĠF assung
ĠC I
ĠC av
ic ular
ĠK lagen
ĠL ay
um ers
ĠU PS
kt iver
oll y
Ġr ating
Ġ3 000
ON E
Ġex istence
Ġab ges
ĠEr werb
ĠAb k
Ġen vis
sp ace
tr and
tr itts
ĠTe ll
ob oda
Ġbes tellt
Ġdis grace
ĠAnd r
eld et
ĠTo ile
Ġho le
ĠMon tre
ĠFinanz dienstleistungen
Ġinc or
ĠErgeb nissen
Ġtechn ological
Ġfl ash
ĠnÃ¤ch stes
Ġgeb raucht
Ġshort comings
Ġrespons es
Ġatt entive
Ġverl Ã¤nger
Ġcorre ctions
information en
Ġsozial er
Ã¤uf e
Ġdest inations
Ġeig entliche
ĠKop ie
Ġschrift liche
Ġinteress ieren
ĠauÃŁer gewÃ¶hn
ĠAndre a
Ġrev ision
Ġpassen de
ĠGed uld
Ġerz ielen
ĠBal i
Ġterr ible
ĠBER EICH
Ġavo ided
Ġhighl ights
ĠGott es
Ġdisapp ear
Ġschl imm
Ġcert ification
Ġnorth ern
Ġcoin s
Ġpros pects
Ġsuperv ision
Ġnic ely
mechan ismus
ĠVO TE
ĠAben teuer
Ġcorrespond ing
ĠVirt ual
ĠGuarante e
ĠOpin ion
ĠScot land
Ġunnecess ary
ĠFREIV ALDS
Ġunannehm bar
p ie
r iz
t op
Ġa wareness
Ġd ign
re in
Ġf ing
Ġf iscal
ar est
ar tagung
ĠT s
ĠT an
ĠD Ã¼ster
ĠA AR
ĠA xis
Ġc ul
Ġc ens
Ġin ev
ĠM igr
ĠF az
ĠH OY
ĠR IS
ĠG irl
Ġbe arbeiten
ĠV and
ĠN AFO
00 32
Ã¶ tige
ĠIn tens
ill es
ul pt
isch t
Ġst Ã¤dt
Ġpro sper
Ġer fordern
Ġdes cribe
ĠVer schieden
Ġch ose
oc ation
ĠY ves
ome ters
ĠEs c
og ram
sp h
au te
ac ion
ĠmÃ¶ch test
Ġno body
fÃ¼ llen
Ġpart ition
bar go
Ġsa f
Ġany more
ĠEx ek
Ġsub t
ha ber
Ġkein em
Ġbere chtigt
Ġvis ual
Ġsm ile
az in
ĠCan ary
ĠFinanz rahmen
Ġtechn iques
Ġcut ting
Ġkey word
ĠRecht liches
leit ungen
Ġeinge tragen
Ġglobal isation
rÃ¤n ken
Ġgra v
Ġmag ic
ĠTeam s
Ġaufge fÃ¼hrt
ube hÃ¶r
ĠAB l
Ġunver Ã¤ndert
ĠDiskuss ionen
Ġdigital en
ĠREG UL
ĠStraÃŁen verkehr
Ġglad ly
PE TI
Ġkomp atibel
ĠDiam andou
ĠDistr ict
Br ussels
ĠLiber ia
Geb iet
ĠAlger ien
ĠVict oria
Ġspect acular
ĠHig hl
ĠHann over
ĠAnnem arie
weiter ung
coun try
ĠCOUNT RIES
ĠDiamandou ros
D o
E ner
F rance
H er
U F
Y K
d an
g ess
m ond
o ben
w achstum
en ge
on ic
Ġb rows
ĠD inner
Ġc igare
ĠW ACHST
Ġp ace
Ġn ations
ur onect
ĠF ocus
ĠF TP
ĠH il
ĠH ast
ra ums
ĠR enn
ĠG F
ĠK alender
Ġbe ab
ĠL ater
ĠN either
Ã¶ tz
Ã¶ die
for um
Ġun iverse
ĠJ os
Ġhab t
ĠSe en
ĠSp recher
ĠmÃ¶ gliche
Ġent lang
Ġcomp ly
ĠUN O
Ġ12 8
hn ungen
ĠUm gang
ĠWer ke
iet ung
ĠMitglied schaft
Ġbra uche
Ġappro ve
ĠSh ipping
Ġrep utation
Ġdr Ã¼cken
ĠDar lehen
75 1
Ġmin imal
Ġoper ated
ĠMittel n
ĠDokument ation
Ġletz t
Ġnear est
ĠHung er
Ġklar en
ĠIns urance
ĠMill enn
ĠSw oboda
ĠAnsp rÃ¼
Ġaim ed
Ġmoment an
ĠLin ien
ĠGeschÃ¤ fte
Ġzusammen ge
ĠGleich gewicht
gn ose
ĠWohn ungen
Ġsent ence
Ġcolle cted
Ġident ify
ĠHANDEL SF
ĠPet itions
Ġtw enty
ĠVIII c
Ġdir ty
ĠImplement ing
drÃ¼ck t
Ġsil ence
Ġbevor zug
ĠVe ter
ĠDI ALOG
behÃ¶r den
ĠBÃ¼ro krat
Ġverh indert
Ġneigh bour
Ġut il
Ġhous ing
ĠCa fe
Ġeinzig artig
ĠAdop tion
Ġisol ated
Ġawa it
ĠSho pping
Ġnorm ale
Ġexpert ise
ĠKOS K
ĠArchite ktur
Ġoffic er
ĠFEK O
Ġwed ding
Ġmittl ere
ĠLatein amerika
ĠKomb ination
ĠRAH MEN
LEIST UNGEN
ĠHOY ER
uronect es
ĠHANDELSF RAGEN
7 16
I m
O US
R es
U ES
k w
k ultur
Ġt ired
un te
ĠS ag
ĠT OP
al o
ĠI SS
le id
ĠM US
ĠM ons
ĠP av
ge ld
ge halt
ge wÃ¤sser
Ġv it
ig ern
ĠR ain
ĠG elt
ĠK R
ĠL ot
Ġse qu
ĠAn leitung
Ġge ist
ment ation
uss y
ik as
ĠSch ell
Ġab breviated
AN Y
Ġum gehen
ĠAl berto
IT ER
ĠBer gen
Ġ12 7
ange hÃ¶r
Ġ19 70
Ġdis advanta
Ġmy sq
ĠAnd alus
ĠIN T
Ġgu ided
ĠKontakt daten
ĠGen der
ument en
Ã¼h ne
ĠSte igerung
ID S
plan ation
Ġmin eral
ĠProje cts
Ġinternational er
Ġbr ands
In formation
ĠPer fe
Ġeffect iveness
enk ung
ĠBil ateral
ĠLebens qualitÃ¤t
Ġerst re
ĠBuch ungen
Ġmar ried
Ġhard ware
Ġkostenlos en
Ġmag azine
Ġsearch ing
komm t
Ġvol untary
Ġauss prechen
hab t
Ġwatch ing
Ġqual ifications
Ġmanufact urer
ĠBud d
ĠLauf zeit
Ġdim ensions
Er klÃ¤rung
ĠRegul ierung
Ġclub s
Ex planation
Ġfirm ly
Ġprem ises
ĠOmbuds mann
Ġhom es
ĠKohÃ¤sions fonds
ĠAth ens
Ġdele ted
ĠBran che
Ġcontrad iction
Ġminister s
utr ition
Ġschwar z
Ġhospital ity
ĠRegierungs konferenz
Ġcontro vers
ĠActiv ities
ĠRind fleisch
ĠSehens wÃ¼rdigkeiten
Ġarres ted
Ġbiz arre
ĠErlÃ¤ uter
% ,
G es
I TED
N G
a a
k g
p ers
it r
ĠS ort
Ġf Ã¶rdert
ar lehen
te ch
ĠT ul
ĠD AM
ĠE ST
ĠM ina
ĠM OD
us z
Ġn av
ĠF ans
ed a
ĠC ES
ĠC orn
ig nete
ĠR iviera
ĠG ÃľN
ĠK Ã¼nft
Ġbe ur
Ġ2 40
ĠV ere
ĠN ok
Ġk an
Ġk reat
ĠO pp
ver l
ver schmutzung
ĠJ azz
Ġge legt
Ġge liefert
Ġver geben
Ġver gangenen
EN DE
Ġwe isen
th aus
ib bean
ĠVer letz
ĠSch atten
ĠSch icks
men ade
Ġsh or
Ġsch Ã¤tzen
ĠAb ove
ĠHotel zimmer
EL IN
ĠAus bildungs
ĠLe ader
Ġ201 7
anz ig
Ġup grad
ĠHe kt
ĠHe llo
Ġtr ennen
ma x
Ġcoun cil
ĠPl ant
Ġact ing
Ġins pect
ĠHer an
Ġtrans actions
ĠStr asse
Ġsel ben
ĠSte phan
Ġexam ination
EG A
86 4
hol z
ĠMÃ¶ glich
ĠCOM PETI
ĠBen utzen
ĠKÃ¶nigreich s
ĠSc ientific
In vest
Ġconsider ing
Ġ35 2
Ġshe l
Ġbesonder es
Ġmus sten
Ġverste ht
ĠHeraus geber
ĠDel ivery
ĠES C
ommer ce
Ġruh igen
Ġunterb rochen
Ġbestimm ter
meld et
UG H
ĠhÃ¶ch sten
Ġzentral en
Ġlay out
Ġprakt ische
ĠElect ronic
ĠNic olas
ĠStÃ¤d ten
Ġsleep ing
ĠHers tellung
Ġmand atory
ĠTUOMIOJA Minister
ĠARBEIT SPROGRAMM
kap az
Ġnorm ally
ĠbemÃ¼ hen
Ġumge kehrt
Ġcloth es
ĠRapp orteur
Ġcompli ance
ĠGROW TH
1 30
E E
O hne
k ong
k unden
t tes
u den
z io
ch anges
Ġt ube
Ġd igitale
Ġs alt
ie fen
as y
Ġb ay
ĠA mp
ĠA zer
Ġm ere
Ġc entrally
ĠM IK
ge ist
Ġh ers
Ġan geben
Ġan sehen
ĠF ro
ĠC are
ĠH uss
Ġl ights
ĠV ort
ĠL ANG
Ġein geben
ĠN ICHT
ab ilitÃ¤t
ill o
ck ling
Ġpro ven
Ġer halte
Ġj etz
Ġex klus
AN OV
ĠEr laub
ĠÃ¼ber sch
Ġch airs
ĠAb reise
Ġ: :
IN AKIS
be lla
ĠKommission sprÃ¤sident
igen de
Ġqu ery
wer tige
mer k
ĠAus gleich
ĠMit entscheidung
Ġ12 6
pr icht
ĠAnd ree
Ġma ÃŁ
rei ze
ĠFl at
ath y
ĠQu ad
Ġafter wards
ĠMed ina
Ġtun a
ĠBes ides
ĠCo ver
ep ing
ĠFre ie
Ġexp ansion
Ġleg ally
ipp en
Ġdifferent ly
Ġclean ed
ĠTE CHN
Ġspec ify
Ġorgan ize
Ġber uh
ĠBest Ã¤tigung
Ġsum mar
Ġnet te
pre ad
ĠbegrÃ¼ ÃŁ
ĠgrÃ¶ÃŁ eren
ĠIM P
Ġindivid ually
Ġzusammen arbeiten
55 1
ĠRahmen bedingungen
ĠUnivers al
Ver ordnung
Ġerfolg te
ĠAndre j
Ġatta ch
ĠCal a
ĠZust Ã¤nd
Ġamong st
Ġlisten ed
Ġzwe ierlei
Ġbox es
Ġobl ige
ĠgefÃ¤hr det
ĠBay ern
ĠGM O
ocol ate
ĠHu ber
Ġign ore
schuld igen
It alien
Ġchem ical
Ġtrave llers
Ġdeg rees
ĠGesprÃ¤ ch
Ġbege ister
ĠOs lo
ĠSD L
ĠIdent itÃ¤t
ĠGB P
ĠLy on
ĠSar ah
Ġkorrig ieren
ETT BEW
ĠbemÃ¼ ht
ĠINSTITUTION AL
ĠMEP s
Gu ide
ĠChic lana
Ġdecl ine
Ġbatter y
Ġadap ted
gÃ¤ ste
ĠPRODUC TS
usal em
Ġphil osoph
ĠGipfelt reffen
ĠMerced es
ĠDÃ¼ster haus
ĠSchell fisch
ETTBEW ERB
L ES
O CK
T ROL
W ald
a ccession
d in
h ungen
k ok
y ard
y les
er dem
Ġa qu
ĠS S
ĠS ett
ĠS cr
Ġb aut
ĠA y
al on
ĠE hre
Ġo cean
ĠM LA
Ġp ity
Ġp ending
Ġp ensions
ĠP i
ur us
Ġh ide
ĠB reit
ĠH ond
ĠH Ã¤nden
ra wn
ou b
ĠV A
ut to
Ġ1 35
ies s
00 2
os ph
sch Ã¤d
ĠSie mens
ul ate
Ġun l
ĠZ ahn
ĠAn ges
Ġge z
Ġge ar
Ġge plan
Ġver ble
ad el
Ġde legations
Ġer lassen
ĠVer fass
ĠEr reich
ĠBe wert
ĠBe ides
Ġsch wed
32 7
be g
ĠSp itzen
Ġent stand
ĠGe ograph
EL V
Ġpr inter
ĠGr en
ĠFr on
ĠMa j
Ġreport ing
Ġsit tings
ĠEx che
Ġprodu cer
ĠMan ufact
ĠEnt decke
ath on
row se
wed er
ĠEuro just
Ġfre ely
Ġtrans form
ĠER DF
ĠBes itz
isten cy
Ġdown loaden
gest altung
ĠJun cker
gehen de
Ġkomm ent
Ġkl Ã¤ren
ĠGu atem
Ġinvest igations
201 5
Ġconsider ations
ĠZur zeit
AB RI
ĠOb jekte
Ġshe ets
ĠBil dern
ĠRÃ¼ck en
Ġparticip ating
iar ies
Ġzahl t
RIC A
ĠSE O
fÃ¤ ll
ĠSteuer ung
lim ited
Ġverein bar
Ġcharacter istics
ĠDelegation en
Ġvict ory
zwe ck
Ġstructure d
Ġteach ers
ĠBla ir
Ġplat essa
Ġoccas ions
ĠGovern ments
ĠNachbar schaftspolitik
Ġphotograph s
reform en
ĠLehr er
Ġexcept ions
ĠFert ig
Ġunters ucht
Fin anz
ĠKapaz itÃ¤t
ĠVertrie b
ifikation en
ĠCOW ENMinister
oram ic
ĠRud olf
Ġsurve illance
ĠHÃ¤us er
ĠVitor ino
ĠFU TURE
ukle are
ĠMLA DENOV
A ustr
F r
F EL
N R
P aket
R u
d el
g age
g reg
n ar
Ġt ap
es is
Ġd ict
Ġs onn
Ġw ettbewerbs
ĠS og
ĠS IX
ĠS ymp
ĠS eminar
ĠT amp
ĠD eta
ĠI RAN
le isten
ĠW urz
Ġp df
Ã¤ he
ĠC urr
ic us
Ġg ingen
ĠR ose
ĠK RO
Ġl oud
hr ten
Ã¶ tet
ĠTh erap
ĠO ft
th a
th and
op ing
ĠVer hÃ¤lt
Ġr ene
ste dt
Ġaus wÃ¤hlen
ige l
IN C
ĠSp Ã¤ter
ĠVor gang
uÃŁ ert
Ġmehr fach
ĠUnter stÃ¼tz
Ġ14 5
Ġrec re
EH T
ĠRes pekt
Ġincl usion
Ġind oor
ĠBet rÃ¤ge
ĠSh anghai
Ġ* *
ĠPar adies
ĠGeb Ã¤
Ġcor rid
BE EK
minister ium
IV ER
ĠZe ilen
ĠFrÃ¼hstÃ¼ck s
enk ilde
ĠArbeits zeit
Ġenter ing
Ġlog ical
Ġbeh inder
Ġbereit et
ĠGleich stellung
Ã¼l t
ĠFischere ip
ĠSm ith
ĠOl ivier
ĠOp el
Ġcamp ing
Ġhon our
ĠBi otechn
jahr es
Ġverein bart
Ġmanufact uring
spro gramm
Ġfoot ball
Ġsuppl ier
Ġwid th
Ġanz urufen
Ġrat io
HA GEN
ĠVAL INAKIS
Ġpure ly
Ġdram at
ĠKreat ur
Ġconver gence
ĠGE ORG
Ġzul Ã¤ssig
Ġmic ro
Ġvere hrte
masch ine
ĠFrequ ently
ĠSof ia
ĠZert ifik
ĠFly nn
ĠJugendher bergen
Ġconstruct ive
ĠBÃ¶r se
ĠSauber keit
hÃ¼t ung
reu ung
ĠTener ife
ĠErne uer
ĠAhr enkilde
Ġbureau c
ĠJoz ias
ĠAAR TS
ĠBÃ¼rokrat ie
ĠExche quer
A A
B ereich
C om
S ecretary
V erein
a ug
g ner
m end
p ost
s hip
u gend
in ux
in burgh
he cht
Ġs ucht
it ta
ĠS N
ĠS EM
Ġf ein
as ant
ĠT i
ĠT ank
ĠT ru
ĠD OM
ĠD igitale
ĠM use
ĠM ICHEL
ĠW ales
ĠP urpose
Ã¼ cht
Ġe chten
ĠB our
ĠB oy
ent h
Ġan schlieÃŁen
Ġto wer
Ġg reet
ĠR ac
ĠR iga
ĠL I
ĠL uz
Ġein ander
Ġre ass
Ġk op
sch wer
Ġun real
ĠAn k
ĠAn ruf
ĠAn aly
if ull
Ġat tended
od ing
ĠBe weis
we ilen
ang aben
scha ffen
Ġpr iced
ord s
Ġte ilt
to gether
Ġpart ly
ĠUm frage
ĠFl ughÃ¤fen
ĠÃľber mittlung
Ġbel Ã¤uft
iet ies
ĠKon figur
Ġgew Ã¤hl
ĠAt ta
sta ats
Ġdel ight
ĠCo ck
ĠWo od
Ġrece ives
Ġleg itim
75 0
Ġkon sequent
br idge
Ġverb ringen
ĠTr ust
ĠAir lines
ĠFahr plan
ĠPressek onferenz
Ġlo ans
28 5
yr ics
Ġnecess arily
Ġcontrib uted
Ġdownload s
ĠMag ic
ĠCor poration
Ġpool s
ĠTages ordnungs
Ġsus tainability
LICH ER
ĠCH RIS
ĠJud ges
Ġnegot iation
ĠBro k
ikan er
ĠJugend liche
ĠAcc eding
hil f
Ġtarge ted
Ġbestehen den
ĠTerror ism
ĠLib rary
Ġcirc le
ĠhÃ¶ch st
Ġsil ver
Ġsole a
ĠAddition ally
ĠBehÃ¶r de
Ġlok alen
Mar ie
ĠKen ya
Br Ã¼ssel
rob at
Ġcandid ates
ĠGraf ik
ĠNatas ha
ĠTRE FFEN
ĠWalk ing
ĠSTABIL ITY
masch inen
ĠINDUST RY
beauftrag ter
ĠTipp s
ĠYugos lavia
ĠPalÃ¤st inens
ĠglÃ¼ck lich
ĠHandlungs bedarf
ĠLic ense
ĠErinner ung
ĠSAF ETY
IENST LEISTUNGEN
Ġkilomet res
ĠIMPL EMENT
Ġencoun ter
ĠPRÃĦSID ENT
H z
b reak
e bene
f amil
k ord
l ers
m ach
o ffen
t our
u ated
w orth
is ations
Ġs ought
un ate
ĠT ou
Ġm ad
Ġm itteil
ĠE LER
ĠE ICHEL
ĠW Ã¶rter
Ġp as
ir k
ĠR ov
ĠR enten
ĠG ive
ol s
em m
em ost
ĠZ en
ĠJ ury
Ġst ammen
ad resse
ĠSt ore
ĠSt ick
ah ara
ug nisse
ick et
ĠFor mal
ungs maÃŁnahmen
ungs schreiben
ĠmÃ¶ gen
AR I
EL AND
gram men
ĠNe v
fÃ¼ gen
ĠFr i
Ġbes eit
AS E
RA H
cess ion
ĠÃľber rasch
Ġover look
Ġtrans fers
ĠBet rach
ĠgroÃŁ em
ĠgroÃŁ zÃ¼g
ĠInter ested
Ġbitte t
leg ten
ĠUr ug
Ãľ ber
Ġger ichtet
ĠVER W
ĠTE X
ĠChrist ine
Ġev il
oss ier
ĠZe hn
Ġterm inal
ĠArbeits weise
ĠFed er
ĠCons umers
ai ro
Ġintegr iert
UB B
ĠEd inburgh
ĠRad isson
change d
ĠZus Ã¤tzlich
medi ate
ĠDel ta
VII a
Ġerw eitern
Ġernst haft
ĠAc ademy
ĠBudget ary
ĠSOL VIT
Mitglied staaten
ĠSICHERHEIT SPOLITIK
Ġneg ativ
Ã¤um t
ĠQU AL
Ġko ordin
Ġgross e
Ġpurs ue
ĠDimitri os
ĠApparte ments
ĠTob ias
ĠComple te
ĠUrspr ungs
nor men
ĠBeschwer den
ĠWIN BERG
ĠCha os
Ġerwer ben
Presserefer at
ĠgeÃ¤ uÃŁert
ĠAndree va
ĠGuatem ala
ĠIMPLEMENT ATION
A O
D VD
H S
M ON
T rans
b ag
m ale
p akt
y on
y ll
in strument
an ada
Ġs hr
re w
as ters
ĠT UR
ĠT SE
ĠT ouch
ĠD ro
ĠD est
ĠD ist
ro us
Ġp us
Ġp ets
Ġp ointed
Ã¼ cher
Ġv ierte
ĠH OR
ĠH alten
st anz
id sch
Ġfor emost
Ġk auf
ta uf
Ã¶ d
Ġon t
ver folg
Ġun iversity
ĠZ ie
qu et
ĠSt arten
Ġch ap
RO DUC
los ter
ĠY OUR
ĠSp y
ĠSp ann
Ġqu oted
AR S
je kten
Ġsp are
gl as
Ġ19 84
Ġ19 79
Ġ19 76
Ġar ise
ĠMe ilen
ĠCO P
ha ften
Ġmach te
Ġra ises
Ġcl imb
Ġtrans mission
IE F
ĠGrund s
ĠGer ichte
Ġgest r
ĠSee teufel
Ġmir ror
Ġgel Ã¶
Ġakt ive
Ġeffe ktiv
17 7
ĠKing a
Ġausge liefert
ĠPal m
Ġcap able
ĠZug es
ĠImp erial
Ġbek Ã¤mpfen
ĠStrateg ic
Ġbesonder er
ĠverfÃ¼gbar en
ĠPartner schafts
ĠTÃ¼r en
ĠDan ube
ĠProjekt s
ĠNews room
ĠKomp onenten
ex p
ĠVal ue
ĠGrand e
Ġprec ious
Ġunver gess
Ġarch ives
ĠBon ino
ĠSTA AT
Ġindic ates
Ġschl immer
Ġsimpl ification
ĠFot ograf
ĠDisc uss
ĠClass ic
uzz i
ĠTy rol
hy th
Ġlauf ende
icul ous
ĠNAH ER
ĠBib liothek
ĠDevelop ing
Just ice
ĠBYR NE
Ġsinc er
Ġdisappoint ing
Ġaccur ate
bÃ¼rger schaft
ĠlÃ¤ng st
Ġenem y
ĠDynam ik
FÃľ HRUNG
Ġtherap y
ĠXL STAT
ĠUg anda
ĠGÃľN THER
ĠUrug uay
1 35
6 05
C ES
G AL
U TSCH
b utt
f ab
h ots
n ism
p fl
in stitution
ch ant
Ġt ub
Ġt ast
an er
Ġs uff
ĠS ELL
Ġf erry
Ġm Ã¼sste
ro v
ĠM ahl
ĠM ENSCH
Ġp ush
Ġn ative
Ġe ase
ĠB ike
ĠB uen
ent ives
ĠF ruit
Ġth read
ĠR OM
ĠG T
ĠG ÃĸN
ĠG erald
ĠK RIS
Ġl ab
Ġl ust
ol ge
ot ive
Ġz er
ĠN it
ĠN om
sch lÃ¤ge
ach ed
iss es
ul in
ĠJ A
Ġwir ken
Ġcon structed
Ġes cape
Ġsich ere
TI SCHE
ĠDe ep
ĠEs kil
Ġum geben
ĠSp itze
her z
sp ir
sp rechend
etz ugang
erm arket
ĠAus rÃ¼stung
Ġsp ir
Ġnach denken
Ġ10 9
ĠMe an
ĠUnter staatssekretÃ¤r
ĠRep ar
pro jekt
EC E
Ġsome where
vent ura
Ġover come
ĠFran ces
ĠKon junkt
40 9
ĠER LAND
ĠCo ordination
ĠUns inn
Ġexp los
Ġaut onom
Ġinc omp
Ġange wendet
Ġange meldet
gesch oss
ĠeuropÃ¤ isches
ĠSlow akische
Ġcre am
ĠMÃ¶ bel
ĠIst anb
ffic ient
Ġbr ill
ĠEl is
ĠDeb atten
ĠZe aland
ĠMet rop
ĠSum me
Ġrest ructuring
ĠSÃ¼ dt
ĠBES TE
Ġgener ous
ĠGra z
ĠKÃ¼ hl
Ġprogramm ing
ĠLuft verkehr
Ġwes tern
ĠTa j
oz y
Ġaktiv ieren
Ġzwe if
ĠBud ge
ĠPf ad
Ġbroad cast
Ġgesp annt
ĠPlen artagung
ĠSY STEM
ĠTim or
Ġdeterm ine
ĠEF RE
Kommissar s
ĠLearn ing
Ġregret table
Ġprofession als
ĠGlaub en
Ġap olog
ĠgerÃ¤um ig
grenz ung
ĠINSTITUTION ELLE
Ġgrenz Ã¼berschreit
ĠBeam ten
Ġmagn ificent
ĠReason ed
ĠKonta k
ĠNok ia
RODUC TION
ĠGÃĸN CZ
ĠERLAND SSON
ĠIstanb ul
: :
C omm
D C
L ux
S IS
o es
Ġa x
Ġa wards
Ġa rab
or i
ĠS v
ĠS ark
ĠS au
ar ischen
ĠT W
Ġb less
Ġb ikes
ĠE va
Ġin adequate
ĠW ETTBEWERB
Ġn iet
ĠP est
ĠP OR
ĠB ase
Ã¤ glich
ir tschaft
ĠR ennen
ĠK ok
ĠV E
Ġre de
ĠN RO
Ġy ield
os ted
ver handlungen
.. ...
if ts
op les
Ġwas h
ĠVer w
ĠSch ott
Ġent weder
Ġvor legen
ĠAl uminium
Ġcomp act
ĠBer ater
uÃŁ t
Ġ10 40
Ġ19 81
fahr er
ÃĦ SS
Ã¤nder ungen
Ġdar gestellt
11 8
str and
sta ates
ĠSee hecht
Ġdirect or
ĠSpe cies
Ġcontin ent
ĠParliament ary
hol fen
RI KA
Ġcre w
Ġfest gestellt
Ġconsider ably
Ġenjoy s
ĠCar ibbean
ĠAir pass
ĠWind s
Ġactiv ate
Ġactiv ely
ĠSozial fonds
IK AS
Ġcompet ent
Ġprom ised
48 89
Ġplan e
Ġerst mals
bei hilfen
ĠDan uta
Ġmar ine
ĠVors orge
ĠschÃ¶n er
ĠWohn zimmer
ĠMart ine
date i
laus el
Ġdepend ent
Ġrepresent ation
ĠProp osal
ĠLA W
ĠKong o
ĠlÃ¤nd liche
Str asbourg
He alth
kommissar in
ĠObject ives
Ġsucceed ed
ĠbeschÃ¤ft igen
Ġbein halten
Ġce iling
ĠLegisl ative
Ġseek ing
Ġbirth day
ĠFerr ero
Ġehrgeiz ig
Ġincred ible
ĠGrÃ¶ÃŁ en
ĠKÃ¶nn ten
ĠZuf all
ĠBungal ow
ĠMargare ta
Ġcommen ted
Ġenor me
ĠAssoziations rat
Ġgepf legt
ĠPrÃ¤sent ation
IGH TS
ĠEtik ett
Ġbedau ere
ĠWACHST UM
RAH MEN
A IDS
G adus
H eiterkeit
N GL
U kraine
f eit
Ġs i
un ches
it is
Ġw ise
ĠS omm
Ġf lav
ĠT ransp
Ġb anned
ĠA im
ĠE FF
ĠE tagen
Ġo we
le ments
Ġc ure
ĠM isch
ĠM ount
ĠP ABRI
Ġe cho
ĠB ob
ĠB isl
ter ung
ĠC andid
ĠH ill
ĠH IER
Ġg ent
Ġg rey
ĠG LAV
ĠK ill
Ġbe arbeitet
ol ay
Ġ( ).
ĠL or
ĠL ittle
ies ta
ĠN V
ĠN u
ĠO B
ill on
ill igt
ĠAn ast
Ġge h
Ġcon vers
Ġzu gleich
ĠRe chner
ĠSt ream
iv ate
ĠVer f
ĠVer mÃ¶gen
ĠVer gnÃ¼gen
ĠWir ksam
we ar
se kretÃ¤r
Ġum setzen
ĠEin beziehung
ĠAr me
iz on
ĠCh antal
ĠFr isten
ĠFr iend
ĠAll ianz
Ġdis plays
Ġ11 8
ĠGen et
gar ten
SP E
Ġben chmark
ĠSchl acht
ĠHand t
utsch ein
Ġph ones
ĠUr heber
ĠUS S
ĠDar aus
ĠBesch rÃ¤nkungen
Ġinc entives
Ġform ula
ĠRechts mittel
Ã¶ÃŁ t
Ġclean liness
ij s
ĠCON VENTION
ĠMad ag
Ġverb reitet
ĠMay er
-- -
Ġev ident
ĠEl ba
OV ERN
199 3
In tern
Ġactiv ated
ettbewer b
ĠIII bcd
ĠMil k
ĠAL EMANN
fre ien
ĠGleich wohl
Ġpost al
ograph y
ĠBro sch
Ġfort fahren
ĠTro tz
ĠVal id
ĠClub s
ĠBos se
ĠHal f
Ġpain ting
ĠSOL BES
Ġzentral er
Ġtem plate
ĠEing abe
ĠPerspekt ive
Ġli quid
ĠGest altung
Ġut most
ĠVereinbar ungen
ĠAmts sprachen
ĠMax ime
ugg le
ĠExam ple
Cl upea
Ġdemokrat ische
ĠQue en
Ġtransp osition
ĠErzeug er
Ġrecon struction
ĠSen ior
Ġfulfil led
ĠNG Os
ĠFrÃ¼ hl
Ġbrit ische
ĠBYR NEM
reff end
ĠHAUSHALTS PLAN
215 48
Ġbicy cle
Ġbroch ure
906 77
ĠBEK ÃĦMPFUNG
dat um
Ġmur der
Frank reich
ĠSchicks al
nism Ã¤ÃŁ
ĠSÃ¼dt irol
ĠPABRI KS
ĠBisl ang
D ES
E mp
M en
M yan
T M
d isk
o hne
t ar
v ic
in th
an os
ĠS elf
ĠD IS
ĠD iagn
al ities
Ġm u
Ġm ale
Ġn Ã¶rd
Ġv s
ĠC lin
st ars
ĠR ic
ĠR inder
ĠR ING
il ation
ĠK ost
ĠK ari
ĠV ald
ĠL AB
ct ares
Ġre gen
Ġre ine
Ġre produ
ĠN AS
Ġge kauft
ĠVer arbeit
Ġme ter
Ġr ust
ik alien
AN IA
ĠBe atr
ĠEn th
Ã¤r me
ĠAb fahrt
hal le
Ġen den
ĠSp ar
Ġinformation s
aus wahl
ru kt
Ġqu o
Ã¤t ter
ens ing
EL OS
av v
enn ess
ieren den
ĠPresident s
Ġ10 8
ĠNach folger
ĠAuss ichten
Ġinter pre
fl ation
ĠOr ts
11 6
ĠWar craft
ĠFe atures
Ã¤hr liche
Ġ16 3
Ġcour ty
ĠX V
ĠVerb reitung
quis ite
Ã¤lt igung
Ġpolit ically
ĠST UBB
ĠFinanz krise
Ġkl ingt
Ġpress ing
bo ot
Ġadv oc
Ġversch l
ron om
ĠFINAN ZI
ling en
Ġable hnen
Ġprincip al
Ã¼l tige
ĠNatur a
Ġgener ate
Ġrefer ences
ĠCap acity
ĠMot ion
Ġaufge hoben
ĠExp orte
ĠPan el
Ġschwier iger
ĠAB S
ĠProgram men
Ġtut orial
Ġdiv ision
ĠMoment an
ĠÃĦnderungsant rÃ¤gen
Ġprefer red
ffizien te
ANT ONI
ĠMaterial ien
ĠverstÃ¤r ken
ĠJack son
Ġrelig ious
ĠSup erv
Ġunmittel bar
ĠPAL ACI
ĠJer usalem
ĠMade ira
ĠSTABIL ITÃĦTS
ĠMittag essen
ĠTrag Ã¶die
Ġgetr ennt
ĠLov ely
ĠGard a
Ġsme ll
RIMIN AL
Coun cil
Ġmitteil en
Myan mar
2 20
4 20
4 379
B OUR
C omp
O ST
i u
l uss
m mer
n ic
s itz
er klÃ¤rung
Ġa u
on ian
Ġs en
un as
Ġw rote
ĠS urf
ĠS ITU
ĠT ony
ĠD ritten
ro Ã¶konom
Ġc lin
ĠW agen
ĠP ag
ĠB ureau
Ġv ast
ĠC ore
ĠH enk
st ock
il der
Ġl yrics
ĠL ange
ĠL EHT
Ġz ones
Ġre vers
ĠN Ã¼r
Ã¼r fen
Ġy ellow
eit igung
Ġcon vention
Ġver an
ien e
th iop
Ġer mÃ¶glichen
ress ed
ĠSch uhe
Ġall zu
ĠÃ¼ber arbeitet
ĠMinister rat
Ġres istance
Ġfind s
Ġro se
Ġen ables
ĠAr zt
ĠBr istol
Ġ6 50
ĠBer ta
Ġ7 50
ĠLe gen
Ġnew sp
ong ue
ob yl
Ġout look
AS K
ph abet
ma de
Ġpe oples
Ġfr ustr
11 3
ĠWel thand
ĠQu ant
ĠQu iet
hand eln
ĠZu w
Ġins pection
ĠHer itage
stand ards
ĠGrund lagen
Ġkl im
Ġfl owers
ĠSk andal
Ġinv ites
LA D
ell a
Ġbook ings
ĠAG AIN
Ġnational er
Ġtext ile
Ġlo vers
Ġfood s
EIN KOMMEN
Ġapproach es
ĠDurch fÃ¼hrungs
Ġshow ed
ĠUp grade
Ġoffen bar
ĠFortsch ritts
ĠCom fortable
ĠInnovation en
ĠwÃ¼n scht
UB LIK
ĠVol umen
ĠSim on
wahl en
ĠTreat ies
Ġneues te
Ġsuper ior
ĠGas per
ĠMÃ¤n nern
zentr en
Ġvirt ually
aler ie
VEN TS
Ġcoast al
It aly
ĠTer ra
Ġexec utive
ĠAF RICA
Ġphotograph y
ĠOlymp us
uls ory
ĠKlim asch
ĠHER E
Ġgre ift
ĠArgent inien
ĠgemÃ¼t lich
ĠImport ant
Ġsights eeing
ĠÃ¤l ter
ĠSCHW AR
ĠEinkauf s
Ġunglaub lich
Ġverurs acht
Ġhorizont al
ĠFestpl atte
ĠScore board
Ġbedro ht
ĠPhÃ¤n omen
Ġoblige d
Wald ner
ĠGLAV ANY
ĠLEHT OMÃĦKI
5 14
A mbassador
J apan
N OS
U ANA
Z E
f rom
j Ã¶
k in
er am
er be
en cies
is ierten
an cial
Ġs etz
un ft
ie ur
ĠS OU
Ġf are
te c
Ġb id
al ina
Ġm es
ĠI KT
ĠE VP
Ġin nen
ĠM otel
ĠM IG
ĠB J
ĠB ald
Ġan halten
Ġan gest
ĠC ert
ĠR Ã¼
ĠL achs
ot yp
Ġz ijn
ĠU M
ĠJ oy
ĠAn leger
Ġal ive
form at
Ġver letzt
ann ers
Ġr an
ug al
ĠEr z
ĠBe fehl
Ġcom for
ang ers
oc al
ĠY ah
ĠEin haltung
Ġvor schlagen
enn a
ĠMar bella
ĠFr iedr
Ġ10 2
ĠAuf zug
Ġwork shops
Ġdar unter
Ġserv ing
IR D
led ged
Ġgew issen
ĠBes tellen
ĠWo hin
Ġdown town
Ġhigh way
ĠKl assen
ĠVER AN
ĠMal i
ĠAkt uell
Ġinvest ors
Ġgeme int
Ġorgan ise
Ġca ught
ĠBest Ã¤nde
AH N
ENT R
ĠZw eite
anc ies
ĠMarkt wirtschaft
haus en
Ġsus p
ĠBro ek
ĠMA IN
ĠLog in
Ġpubl ish
Ġschle chter
deb atte
hab il
ĠLas ten
ĠPAP ANTONI
best immungen
ĠOut look
Ġorigin ally
Ġdraw ing
ii i
ĠStad ium
ungss icherheit
ĠPE TER
Ġwert voll
ĠVier tel
Ġwesentlich er
ĠAns ichten
Ġeinheit liche
kap ital
ĠEth iop
Ġhop es
ĠprÃ¤sent iert
Ġspan ischen
ĠPalest inian
Ġfle et
ĠTaus ende
ĠnatÃ¼r lichen
Ġsinc ere
ĠMerc osur
Ġenh ance
Ġcooper ate
ĠHaust iere
ĠMcCREEVY Minister
Ġrul ing
ĠCad iz
ĠPerform ance
KON FERENZ
ĠPAPANDRE OUMinister
ĠHeran fÃ¼hrungs
. /
C hr
I ch
L and
M AL
P GI
g ro
j u
w ischen
in ity
Ġt u
Ġd ive
Ġd iver
he ar
ĠS ymb
Ġm ins
ĠE AF
Ġc ord
ĠM arl
ĠP urch
ĠP OS
ĠP EDER
Ġh ors
Ġe ignet
ent in
ĠC A
ĠC ACH
ĠH OW
ĠG n
ĠK attegat
ĠL ulling
Ġein stimm
Ġein bezogen
Ġz ielt
um ed
ĠN ar
ul ated
ĠZ onen
ĠJ ace
ĠJ ura
ĠJ AHR
ĠAn weisungen
Ġal p
Ġver f
ess im
Ġzu ges
ĠRe covery
ĠSt amm
Ġauf gerufen
Ġ3 65
Ġj ack
Ġab geben
Ġab onn
ste uern
we chs
ern obyl
RO S
Ġaus geb
01 4
ĠAb u
Ġum s
Ġen de
ĠSp A
og a
Ġman che
ens ed
ĠVor geschlagen
AT T
Ġda iry
Ġtra ur
Ġgro ssen
Ġgu idance
ĠKontakt formular
ĠAuss agen
Ġtr ick
Ġlie fer
ĠWar s
ĠWar saw
ĠAd ri
Ġers ucht
ĠBes itzer
Ġrece ipt
Ġhin nehmen
ren nen
Ġperson en
ĠJo a
ĠAnt ar
ĠAnt ti
Ġgel ingen
ĠTr ink
Ġgeb ucht
Ġmonth ly
Ã¤mp ft
halts plan
ĠColom bia
ĠDr ugs
IF I
ief st
ĠFund ing
ĠKomp onente
Ġopp ose
ĠGra b
Ġern ste
ĠFern sehen
ĠFR EDER
Ġbad ly
ĠFrei handels
Re chts
Ġdist ingu
ĠCode cision
ĠAc robat
Ġverm ieden
ĠTas te
Ġsuppl iers
Ġprotect ing
ĠBol iv
ĠREP UBLIC
ĠPrinzip ien
Ġmedic ines
sichtig ung
ĠKen ia
Ġdram atic
Ġsand y
Ġconver ted
ĠSubsidiar itÃ¤ts
sm oking
Ġconstit utes
Ġaltern atives
ĠSchm id
ĠZul assung
ĠEAG FL
kur se
ĠHoll and
Ġdistin ction
ĠRelig ion
ĠbeglÃ¼ckw Ã¼nschen
ĠjÃ¼ng sten
jen igen
ĠBene f
Ġhervorragen de
Ġinvo ice
schaff ung
ĠRechtsstaat lichkeit
ĠÃ¼br ig
ĠBaron ess
ĠerÃ¶ff nen
ĠShir in
ĠMigr ations
Ã¶tz lich
ĠINT RODUCTION
oub tedly
ĠTagesordnungs punkt
ĠRING HOLM
ĠBerta ud
ĠGasper i
ĠKlimasch utz
ĠEAF RD
ĠCACH IA
M et
b org
m g
or ation
at ar
re le
ĠS AL
ĠS AS
Ġf liegen
ĠD S
ĠD isp
ĠE am
ĠE ta
Ġin coming
ĠM ust
ĠM AV
ĠM ITTEL
ĠW Ã¤re
Ġp our
Ġp apers
ĠP u
ĠP ent
ĠP assen
om la
Ġe uropa
ĠB ull
ĠB enz
Ġan passen
ter a
ĠH P
ĠH Ã¼
Ġth row
ĠR AP
ĠK ond
ĠK aufen
ĠK Ã¼rz
Ġl ady
Ġl asts
ĠL IS
ut or
Ġein iger
ce ived
ort s
la va
th ur
Ġer fasst
Ġdes pite
ia go
ok us
32 0
IL E
Ġwork shop
fahr ts
Ġcomm od
Ã¤l ter
Ġbed auern
alt ar
ĠAs ian
ĠCon text
ĠAm ount
Ġra us
ĠLux ury
Ġins ert
ĠEN G
ĠBes tellungen
Ġposs ibly
Ġcar tel
ĠFinanz ausschusses
ĠWor auf
cr im
Ġange legt
Ġfl ows
BE K
ĠMein ungen
Ġverb inden
17 0
Ġbas ket
ĠKo hle
Ġgef Ã¶rder
ĠSc ott
ĠEnergie politik
Ġbl ow
ĠLebens lauf
ĠCor bett
Ġschw ere
Ġinvol vement
Ġir gende
ĠSim ple
ĠWork shop
UK TUR
Ġruh iger
Re cht
Ġage ing
verstÃ¤nd nis
ĠRest r
ĠVertra uens
ĠPaul o
best Ã¤nde
Ġrecogn ized
ĠTex ts
ktiv itÃ¤t
Ġteach er
ĠRein igung
umb ien
ĠOrig in
ĠPia zza
ĠAlp ine
Ġlangfrist ige
Ġnachhalt igen
Ġzut iefst
Ġbat hing
Ġincred ibly
Russ ia
Ġrespekt ieren
ĠPubl ished
Ġabgesch afft
ĠEcu ador
ĠDUR CH
ĠLoy ola
Ġeg gs
Ġdign ity
ĠHuss ein
ĠFriedr ich
B OR
B Ã¼rger
T el
T AGUNG
a genda
c ulation
f ons
m t
r iel
r ix
w en
Ġt ight
he il
ie ÃŁ
ĠI ce
ĠE ig
ĠE arly
ĠW at
Ġp il
ĠB it
ĠB og
Ġan alog
ĠF ische
ĠF eren
ed ps
ĠC ann
ĠC IVIL
st one
et schen
ĠV ac
ĠV IL
Ġk ontin
and ers
ĠZ ubehÃ¶r
ĠJ agd
Ġim men
Ġst il
Ġde ck
ist ant
land en
ĠBe z
ĠBe achten
ĠEn gel
ĠEin kommen
ĠSp az
ĠAl bert
gl ing
ĠSo on
ĠUN ITED
Ġnach zu
Ġpl ot
ĠSta ge
Ġfe hl
ĠPr int
Ġview ed
ins ichtlich
ĠIm ages
35 3
ĠCon il
ĠQu ar
Ġdec lare
ĠKon stant
ĠBes ten
ĠInter pret
Ġpolit isches
uropÃ¤ ischen
ĠLa unch
Mail s
RI A
ĠMehr wert
19 1
ĠSCH ÃĦUB
bewert ung
Ġbring ing
Ġnational s
ĠInternational er
AB l
ĠTur in
EK TOR
ĠArbeits losen
ĠDr ittel
ĠBerlin er
Ġhouse hold
ĠMicha ele
ĠSP R
Ġhead s
Ġfal schen
verb ot
ĠKern punkte
Ġflex ib
ĠWeiter en
ĠZoll union
kr ank
ĠLim it
ĠFach gebiet
TIC S
Ġneigh b
Ġstrengthen ing
ĠContin ue
Ġentre preneurship
Ġnov el
Ġrid iculous
Ġmill ions
ĠPract ical
hÃ¤r enz
ĠMeld ungen
ĠBj er
ĠAlc ide
Ġfasc inating
Stra ÃŁburg
ĠprÃ¤z ise
ĠenttÃ¤us cht
aussch uÃŁ
ĠVorder grund
ĠmÃ¼nd lichen
ĠIsa ac
Cor azza
ĠPreist rÃ¤ger
Ġingred ients
ĠZag reb
ĠTamp ere
ĠFischereip olitik
ĠSELL AL
ĠSark ozy
ĠAGAIN ST
ĠJace k
ĠFREDER IK
ĠSCHÃĦUB LE
% ).
F O
O TI
P EL
V IA
Y S
Z iel
Z EG
g roup
o que
r ig
in av
ch ste
at us
as a
as p
ĠT RI
Ġb old
ĠD et
ĠD AN
ĠA str
ĠI E
ĠI an
ĠW AL
ĠW uala
ĠP ixel
Ġh Ã¤ngen
ĠB at
ĠB ody
ĠB EW
Ġan zeigen
ĠF AC
ĠC ER
ĠC ash
ĠH ote
ig ert
im ed
ĠR AM
ĠR uh
ĠG om
ĠK och
Ġbe ars
Ġbe zÃ¼glich
Ġk amer
Ġk enne
Ã¼r k
ĠO pport
de fiz
Ġun employed
Ġun changed
ĠAn stieg
Ġcon temporary
ad ier
ĠRe ally
ann ual
ib an
Ġde lla
Ġer m
Ġer inner
gr ims
oun ted
Ġus age
Ġaus gebaut
lo c
01 1
Ġ5 000
99 780
ĠAr ray
Ġvor Ã¼ber
Ġvor nehmen
sp rodu
ĠAl ber
ĠAus fahrt
pl ing
use ppe
pr im
Ġar bit
EM BER
Ġfe as
OL A
ĠEx cel
ĠComm od
Ġbed anke
ĠAd ressen
ĠWel cher
ĠTra ck
ĠBet roffen
Ġhand led
ĠCo R
Ġinst ant
ĠJan e
OU F
Ġaut o
ipp e
ator ium
ĠJo omla
ĠEmp fÃ¤nger
ell y
Ġsign als
Ġgeb unden
Ġcho osing
Ġref used
ĠCar ol
ĠGegen seit
reg ister
Ġregard ed
ĠMet al
ĠSol ana
sh ore
Ã¼l le
ĠVis um
Ġpat ience
VER FAHREN
Ġshare holders
Ġport folio
ĠGR U
ĠDesign er
Ġzahl reichen
Ġbew Ã¤lt
glieder t
Ġabge geben
IST AN
schn itts
ĠEntwicklungs lÃ¤nder
ĠEinw ander
ĠBern d
Ġendg Ã¼ltig
ĠFrieden s
ĠGi useppe
TIV ES
ĠNoch mals
ĠKonsultation en
ĠPf lege
schie dete
Ġobserv ed
Ġhost s
Ġcy cling
ĠDol met
ĠMON TI
ĠUntersuch ungen
Ġsuffer ed
ĠFÃ¼ llen
lÃ¤nd ischen
ĠEffe kt
ĠGeneraldire ktor
ĠBir g
ĠausgewÃ¤ hlten
ĠHard ware
ĠOlymp ic
Ġwithd rawn
Ġminor ity
Date ien
ĠFÃ¤h igkeit
Ġtransition al
ĠerlÃ¤ uter
ĠSem ester
ĠRUSS LAND
ĠForst wirtschaft
ĠRap id
ĠFremden verkehr
ĠKandid aten
bij t
Ġunus ual
avv adia
ĠYah oo
ĠBjer reg
D ec
G REN
I OR
Z A
c any
e ge
k ampf
m esser
n Ã¶ten
p rachen
v ollen
w id
w Ã¤l
Ġ Ã¤r
er ba
on to
is o
an mar
Ġs ick
ĠS ig
ĠS ong
Ġf as
Ġthe oret
ĠW id
Ġp ull
Ġn ord
ĠP AD
ge legen
ĠB aus
ĠF as
ĠF ass
ĠC annes
ĠC PU
ĠH ous
ĠH Ã¤fen
ig rants
ĠR ufen
ĠG LOS
ol ved
ĠV iv
ĠL ein
ĠL unch
ĠN ich
ĠN ichte
ta ges
ber ichte
den a
ĠZ USAMMEN
Ġge laden
Ġal ias
ien ted
ss ektor
Ġdes ert
end t
ĠEr stellen
CH I
ĠDies el
ĠY emen
wer ken
sp l
Ġpr izes
ĠSo for
Ġ12 2
Ġste am
ĠCoun ter
ret t
Ġ19 78
ĠAnd y
fl Ã¼gel
Ġfr ied
gar ve
Ġsol ar
ĠPre isl
Ġcl ip
Ġass ume
15 4
Ãľ H
ĠJu ha
ĠFinanz hilfe
Ġeas tern
ĠTag s
ĠSa f
BER EICH
ij ten
ĠCOM MER
UL L
ĠBl umen
ĠImp orte
Ã¶l f
Ġstud ied
OT ES
Ġgenau er
ĠLin z
47 3
ĠAUSS CHUSS
ĠVerbraucher vertra
Ġextra ordinary
Ġevent ually
Ġenc ry
ifiz ierte
ender gast
Ġyoung er
Ġjud icial
CK ER
ECspokes Corazza
sb ruck
unt u
ĠEv ans
Ġvorgeschlagen e
TIV EN
Ġli able
Ġexpl icit
Ġadvert is
Ġexhib itions
Ġindic ator
ĠRem ember
Ġign ored
ĠBan anen
Ġfrequ ent
ĠEigen mittel
ĠAgentur en
ĠRob in
ĠSoll ten
ĠInform ieren
ĠKonfl ikte
Ġharmon isation
TR ON
Ġbege g
ĠRefer endum
Ġadj usted
Ġgerecht fertigt
ĠWhe eler
ĠausfÃ¼hr liche
hard t
ĠfranzÃ¶s ischen
Just iz
ĠBeschwer de
ĠÃľbern achtung
lac ier
Ġerleich tert
ĠTERRORISM US
ĠGeburt stag
Ġthorough ly
ĠLAM Y
ĠJahrhunder ts
Ġverring ert
Ġenthus ias
ĠErdbe ben
ĠUmstruktur ierung
Ġsincer ely
ĠWirksam keit
rukt ure
Ġcourty ard
ĠSITU ATION
ĠSCHWAR ZEN
8 22
H AND
K EL
N etz
W S
b is
e ffe
ch nen
Ġt al
Ġs in
Ġs ou
Ġs qu
Ġs tell
Ġw ake
ĠS her
ĠS ession
ĠS etzen
ĠS Ã¤mtliche
ĠT enden
Ġb are
ĠD up
ĠI G
ĠE hemal
ĠE VENTS
ĠM ong
ĠW ett
Ġp od
ĠP ick
ĠP ERS
ĠP ensions
Ġh inein
Ġan gesehen
ĠF resh
Ġv ir
ĠC ars
el ung
Ġg ib
Ġbe ibe
ĠL O
ĠL j
and inav
ĠO omen
Ġun iform
ĠEr find
Ġsh ift
ĠÃ¼ber setzt
Ġsich eren
ĠDies bezÃ¼glich
Ġso fa
los er
Ġor ange
Ġres idential
ĠAb rufe
Ġsp ots
ĠGr ill
Ġ... ?
ĠCh ann
ĠFr att
Ġtra ce
ĠQ uell
Ġ19 45
Ġclos ing
ĠUnter richt
Ġgu itar
kl asse
Ġcons ervation
Ġbed ienen
alt ies
Ġdurch fÃ¼hren
12 6
ĠFe ind
Ġprov iders
ĠTra ding
wÃ¤r tigen
ĠBes tell
Ġass ets
Ġph p
ĠMon ats
ĠMon aco
rat ing
ĠRepresent ation
Ġcontin ental
ĠMy anmar
Ġpass es
ĠAnt arkt
Ġgel ingt
ĠSicherheit spolitik
Ġca ution
Ġref urb
ĠZe igt
Ġsl opes
ĠZw eiter
prÃ¼ f
ĠStud ios
fo od
Ġeinz igen
Ġmus st
akt ions
ĠMin or
Ġocc urs
Ġgl ance
ĠBenutz ern
Ġrecht liche
Ġtele communications
Ġfocus es
ĠAny one
ĠEnd lich
ĠFischerei abkommen
ĠBu ild
ĠBi om
Ġconvenient ly
ĠTier schutz
Ġmail ing
Ġcook ing
Ġreich halt
ĠDre h
Ġeinheit lichen
ĠbefÃ¼rw orte
ĠAdv anced
Ġpattern s
yt la
Bel g
Ġbemer k
ĠTsch etschen
invest itionen
Ġcry stal
Ġvorbe halten
ĠbeglÃ¼ckw Ã¼nsche
ĠHold ing
Ġnutz bar
nahm ere
ĠVerÃ¶ffentlich ung
ĠVerhaltens kodex
Ġcompliment ary
ĠBjerreg aard
0 50
1 40
5 30
A g
C U
D ay
K at
M I
S ervice
T D
V ES
] .
a ub
d est
f ire
k ontrollen
l iga
l Ã¶sen
in ts
Ġs ympt
ĠS PAN
ĠS yd
ĠS ongs
ar agua
ĠT rÃ¤ume
ĠT win
ĠD B
ĠD ingen
ĠD HL
al ian
Ġm att
ĠE ch
ĠM ango
Ġn ahmen
Ġn utzt
ĠP I
ĠP az
Ã¼ ch
ĠC AT
ĠH Ã¶r
ĠH ash
ĠH AV
ĠL ena
Ġz ert
ĠO C
lich em
ĠZ ut
ĠJ emen
ĠAn reize
ĠWe ine
Ġat trib
Ġde ter
ĠVer ona
art iges
Ġab sen
AN O
ĠEr fÃ¼ll
Ġ4 73
Ġso eben
Ġsch m
rÃ¤ glich
ĠEin nahmen
99 9
ĠSp iegel
heit s
igen ce
ram es
ĠGe werbe
pt ions
Ġag es
Ġag ents
Ġte lling
Ã¼ck t
geb Ã¤ude
els on
Ġmy ster
ges ted
ĠPr endergast
Ġgu ides
ĠAd vert
Ã¤hr ungs
Ġstr ike
fÃ¼hr ten
Ġass embly
ĠMon ika
ĠGesch le
13 8
Ġagre es
ĠVers p
ĠVER HAGEN
LA W
ĠFinn ish
ME ER
Ġlist ing
Ã¤tz t
ĠDeb ate
Ġrecommend s
ĠEvery body
ĠGar age
atis iert
ASS EN
Ġwind s
Ġverw altet
Ġu it
ĠJud icial
ĠZus tell
ĠGreen land
ĠES DP
ĠReise fÃ¼hrer
ĠFrei will
Ġerfolg reiche
Ġregul ated
Ġvill ages
RIT T
ĠMos kau
Ġencour aged
Ġdecor ation
sa ison
Ġ(âĤ¬ )
ĠOff er
setz ungen
Ġcollect ive
Ġunz ul
ĠSant iago
Ġaktual isieren
iling ual
ĠHalb pension
VIII c
ĠDringlichkeit s
icul um
Ġrefle cted
Ġbeige fÃ¼gt
ĠColl ins
Ġstaat liche
ĠErg Ã¤nz
ĠElektron ik
metho den
ĠWeihn achten
ĠReihen folge
ĠEver est
ĠCrow ley
Ġexter nen
ĠAnsprÃ¼ che
ĠTul ip
ĠEthiop ia
ĠEam onn
Ġbeibe halten
M ED
S tre
c op
i zen
l is
l ow
n berg
n ya
r unde
s ame
Ġd ual
an forderungen
un ction
ĠS UB
Ġf ruits
ĠT eresa
ĠI L
ĠM AL
Ġp uzz
ĠP el
ĠP ul
ĠP EK
Ã¼ mer
Ġh unting
Ġh insichtlich
ll ence
Ġv ine
Ã¤ umen
ĠC ape
ir able
el ing
Ġg ast
ĠK ear
Ġbe wirken
ĠV il
ĠL IST
Ġein stellen
ĠIn tel
os ure
ĠSie d
est ra
den ly
ul ous
Ġge habt
Ġge holfen
qu el
op ard
Ġde aktiv
Ġwill st
Ġauf treten
ĠVer de
ĠVer stoÃŁ
end a
men ge
och t
Ġch ocolate
rÃ¤ ft
ĠAb st
be y
Ġent fernen
Ġvor gestellt
ĠAl garve
ĠVor ab
fe hlen
ĠLe v
Ġhier mit
Ġgen iessen
ĠAuf hebung
Ġ19 68
ert y
fahr zeuge
Ã¤nd igen
Ġinter ne
Ġfr isch
Ġget estet
ĠArbeit geber
ĠBel ize
ĠUhr zeit
led o
Ġgr ass
ĠTra gen
Ġgew Ã¶hn
Ġsc ar
ĠStr ong
ĠCo ffee
15 2
15 5
46 4
BA CH
ĠPart nern
Ġbo ards
Ġkon figur
ĠmÃ¶glich erweise
33 10
ĠSpiel s
orn o
Ġausge fÃ¼llt
Ġprof iles
ĠCol lect
Ġwalk s
orte urs
Ġeinz eln
Ġint oler
Ġbereit en
VER GEN
ĠAud i
Ġsett led
ograph ic
ĠLuft fahrt
ĠIntegr ated
Ġsubs cription
ĠGreat er
ĠschlieÃŁ e
ĠEntwicklungs hilfe
regel ungen
Ġpassen den
ĠDiskuss ions
ĠOL DEN
ĠDoc ument
Ġsatisf y
Ġpan oramic
Ġprefer ences
ĠMel an
ĠMel den
Ġtransfer red
Ġperm ission
Ġbor ne
Ġrepla cement
Ġrestr icted
ĠChem ikalien
Ġnahe zu
ĠDECIS ION
ĠGU ID
Ġfall ing
ĠFlÃ¼ ge
Ġdemonstr ated
ĠFerienwo hnungen
ĠOffen heit
Ġrelig ion
ĠEreign is
-------- --------
UGEN D
ĠBerichtig ungen
ĠEAG GF
ĠHig her
ĠKnow ledge
ĠGef Ã¤ng
ĠRam ada
ĠGER MAN
Ġguard ian
ĠVerstÃ¤r kung
ĠYugos lav
Sk agerrak
ĠFunction ing
Ġcancell ation
kurr enz
ĠISS UES
Ru ijten
ifull y
ĠgelÃ¶ scht
ĠSTAAT LICHE
thiop ien
ĠFratt ini
ĠOLDEN BURG
0 30
B EN
G AR
M OD
O JA
P h
a j
f ix
l ong
m ing
n itten
s uchen
v ier
v ork
Ġ utter
er gebnisse
Ġt ape
Ġd ollars
an teil
re c
ĠS Z
as ure
ĠT ieren
ĠD ora
ur ities
om er
ĠB EN
Ġan x
ĠF ig
ĠF AB
st age
ĠR ass
ĠG ange
Ġbe z
Ġl inen
Ġl ively
ere g
ĠThe odor
ĠN an
ĠN EG
am ount
icht ung
os te
ow der
sch ne
ĠO zon
Ġse gment
Ġun fort
ĠJ et
Ġver mitteln
Ġvon nÃ¶ten
Ġdies elbe
od ed
Ġdes per
ah a
ant es
men gen
Ġex clusion
ĠEr wer
TE X
Ġas p
ran che
32 6
ĠEin tritt
Ġen hanced
ĠVor gaben
hl ung
ĠBer l
pl iance
Ġste he
bar sch
Ġ19 69
Ġsa fer
ĠRat ing
rei heit
Ġdurch schnitt
12 3
ĠDE UTSCH
Ġbel g
Ġdec ent
ĠÃĦ uÃŁer
Ġcour teous
ĠKon zer
ĠCo x
Ġrel ate
ĠRo aming
ĠEC A
Ġset up
fin ancing
ris y
ĠWill iam
RAN EAN
mit glieder
ĠKar tell
Ġcut s
Ã¶t igen
Ġcheck ing
Ġallow ing
Ġrest ored
Ġaccept ance
zw ungen
ĠWork shops
Ġsw im
Ġclass ified
ĠBinnenmarkt es
Ġtele fon
ĠAR T
Ġcomb ine
Ġmeisten s
Ġweltw eiten
ĠEIN EM
ĠCop y
ĠWall is
vÃ¶lker ung
Ġsex ual
Ġkil ometers
Ġindic ate
gef unden
Ġconfl icts
ĠNetwork s
ĠSchaden s
ĠVoraus schau
road s
Ġsn acks
ĠLetz te
Ġafford able
ĠDefiz ite
Ġlangfrist ig
Bel gien
ĠConf idence
ĠfranzÃ¶s ische
ĠITAL IEN
ĠTransl ation
ĠFRAN CE
ĠKontin ent
Ġeduc ational
ĠerwÃ¤hn te
Ġunverbind lich
ĠCamer on
ĠIndik atoren
ITER RANEAN
ĠCHRIS TO
ĠNev ada
ĠEig entlich
ĠSCHWARZEN BERG
ĠKear ns
! .
4 75
5 20
6 99
D en
K E
L ou
S ole
T s
T ube
Z wischen
f ir
h orn
l s
Ġa uction
un sten
un kten
ĠS ic
ĠS ou
ĠS yl
ĠS SL
ĠD ilemma
ĠI v
ĠI ber
Ġin con
Ġin vent
ĠP osit
ĠB attle
Ġan wenden
ĠF Ã¼ss
ĠF unk
ĠF Ã¶der
Ġv in
ĠH R
ĠH Ã¼ter
ĠG ulf
ation ally
ĠK idd
Ġl v
ol and
ĠV ita
hr er
Ġon wards
ĠO range
den s
ĠZ iegen
ĠAn zeigen
ĠAn onymous
Ġst ood
Ġzu grund
ien sten
ĠRe ference
Ġer gebnis
ah me
Ġr hetor
Ġex changes
rom a
ĠEr mittlung
ĠÃ¼ber mittelt
ast ung
ungs ort
ĠAb teilung
32 4
be cken
be weg
Ġ" ,
og rap
mer ken
ĠAl ready
iz iert
ĠGe gner
anz a
Ġgen erell
Ġ19 77
Ġ19 82
Ġ19 73
att us
pro of
ĠGen f
ĠGen uss
gar a
Ġviel fÃ¤ltig
ĠQu ark
fÃ¼hr te
ĠÃĦ thiopien
ĠMitglied s
ĠPRO D
ĠGesch windigkeit
ĠUr teile
Ġgest iegen
ĠSpan isch
ĠVers org
hol der
ORD NUNG
orth in
bo a
ĠTr ip
ĠSCH UTZ
ĠBen chmark
ĠSer ies
AH L
ĠCar bon
ĠHin zu
Ġterm in
AK T
Ġkurz er
ĠFest legung
ĠOrgan e
Ġdest ruction
ĠfÃ¼ hlt
ĠKurz information
Ġunver z
ĠEle ction
stÃ¤r ke
ĠSam s
Ġstark en
ĠLebensmittel n
Ġconsult ations
ĠOP IN
Ġherunter geladen
Ġbedeut ende
Ġrecogn ize
ÃľSS EL
Ġregel n
Ġintens ity
ICHT LIN
ĠGU E
ĠINTER REG
ĠDrit ter
ĠNachbar n
Ġwest lichen
ĠPER EIRA
ĠTib or
ĠAnwend ungsbereich
ĠUmst Ã¤nden
ĠPor sche
ĠAutom obil
ĠGAL EA
Ġrech tzeit
Ġconstit ute
Ġlauf enden
ĠTemp o
ĠInnov ative
ĠKonz ern
organisation en
ĠÃ¤l tere
Ġnegoti ating
ĠWeltw eit
Vertrag s
Ġwithdraw al
ĠRUSS IA
Ġverschw unden
metho de
ĠMessen ger
ĠPAC T
ĠKart off
ĠJUN CKER
ĠKÃ¤ se
aud it
Ġkenn st
Ġschul dig
ĠConven ient
ĠverlÃ¤nger t
ĠHekt ar
ĠSog ar
IEF ING
Ġunfort unate
ĠFÃ¼ss l
2 95
D G
E uropa
T B
m ess
n ational
p an
p osition
w ann
z te
Ġ ere
in cluding
ch air
is ters
ĠS we
ĠS ide
Ġf ulf
ĠT ram
ĠD ark
ĠD aily
ĠI sch
ĠM ove
ĠW onder
Ġn u
Ġn enne
Ã¼ te
Ġh ills
ĠB ast
Ġan spr
Ġan fangen
ĠF la
ĠF anny
ing ham
ĠC i
ĠC riminal
Ġg lo
st il
ĠG ibr
ĠG etting
ĠK AT
ĠK loster
ĠL IG
id i
Ġre cycling
ta ils
ber trand
ĠZ auber
ĠAn al
if ier
Ġge ile
Ġge tragen
Ġwir st
Ġst immte
ess ert
Ġden kt
ĠUn recht
iv irus
ant on
Ġr and
men te
ste x
ĠDies mal
me idung
ĠAb le
Ġum zusetzen
Ġad mit
Ġad mission
ult ane
cc i
tr as
ĠLe one
AT ORS
Ã¶r ung
Ġda ughter
Ġbet rug
Ġbes tens
bar es
Ġgesch afft
Ġ19 75
Ġmy th
Ġfe iern
ĠEUROP OL
ond o
ĠÃľ bereink
ĠGen iessen
ĠUm stellung
ĠItal ia
Ġrec ording
ific ial
ĠWar nung
SP LAN
ĠZu verlÃ¤ss
Ġass igned
ĠBet racht
ĠStr Ã¤nde
ĠCo ast
Ġph armaceut
15 8
ĠEUROPÃĦISCH ES
urs or
ĠVers uchen
ĠRechts rahmen
Ġexper im
ĠEmp ire
ĠCOM P
Ġversch Ã¤r
ĠCol or
Ġcertain ty
ĠAG B
ĠBank ing
Ġamend ing
yl on
Ġref res
ĠCy ber
Ġsicher er
Ar beit
ĠPa kt
Ġlearn t
ĠEd it
Ġtreat ments
87 624
Ġgee ignete
Ġapply ing
Ġmid night
LAND S
ĠPolit ics
Ġpath s
ĠCont est
Ġoptim istic
ĠKir k
Ġemploy ed
ĠgefÃ¤hr licher
Ġzug unsten
ĠSuper ior
Ġerk ennt
Ġdefinit iv
Pl an
ĠNic aragua
Ġalb ums
ĠKong ress
GR ESS
ĠÃ¼berw acht
Ġhol en
ĠDre wes
ĠMut ual
ĠNob el
Ġexpand ed
ĠArmen ia
ĠBetrie be
Ġvere hrten
ĠPhotos hop
vere ign
Ġcancel led
ĠVerpack ung
ĠKomple x
ĠUnions bÃ¼rgerschaft
erem ony
ĠSUM MIT
ĠMINISTER IAL
Ġsail ing
Ġwissenschaft liche
UGOS LAV
ĠDub ai
Ġgep rÃ¤gt
Ġerled igt
ĠLied texte
Ġcater ing
ĠACC ESS
LEIT UNG
ĠBedien ung
ĠÃľbertrag ung
Ġexcurs ions
ĠAbsolute ly
ĠWÃ¤l der
ĠEinlad ung
rup ted
ĠBrig itte
ĠBaumw olle
Ġsaf ely
Ġphilosoph y
Ġrene wed
Lux emb
6 10
A US
F orsch
T F
a cts
b les
k ern
n Ã¤chst
p ower
s uite
u ant
Ġa er
is d
ie b
ĠT EM
Ġb omb
Ġb udge
ĠA mar
ĠE he
ĠE HE
ĠE cke
Ġin her
us ten
ĠP ausch
ge m
ĠF IF
ĠF ashion
ĠC us
ĠH ague
ic ism
st Ã¤d
st yle
ĠK Ã¤ufer
ĠL ern
ĠL ift
ĠL ima
em iss
id al
ĠU MS
ab out
ach sam
ĠO ste
ĠO ze
ill en
Ġun known
ck et
ĠJ am
ĠJ UGOS
ĠAn schlieÃŁend
Ġge fe
Ġver altet
Ġzu vork
qu oten
ĠSch alt
ĠPro be
ĠEr ic
ĠBe arbeitung
we ight
ail le
ard ing
Ġso vereign
Ġaus einander
lo ys
Ġres pects
ĠAb schaffung
ĠY e
Ġad m
ap ier
Ã¼ss ig
iz ieren
ĠVor stand
ĠVor bild
ger icht
ĠBr idge
ĠAus maÃŁ
ĠBer ichten
ac ter
ĠCh ief
ubl jana
Ġspe zial
ĠCoun ty
ĠAuf forder
Ġacc eler
ÃĦ TZ
Ġpre liminary
Ġges ucht
Ġweiter gegeben
Ġstr uggle
Ġfre ight
ĠBes eitigung
Ġmo od
IE CHEN
ĠSh uttle
ĠFre ib
Ġexp enses
so ever
iÃŁ t
Ġger aten
ĠInn sbruck
Ġinc ident
ĠKl Ã¤r
ĠTrans ition
Ġsecond ary
ĠRechts etzung
Ġvisit or
ĠMich ele
stÃ¼ck e
ĠSit uated
Ġbesch lieÃŁt
Ġeigen er
ĠText iles
ump f
Ġmoment um
ĠSol utions
Art icle
bil der
Ġpat ents
Ġmark iert
ĠKol umbien
ĠES VP
ĠGlÃ¼ck licherweise
IST ANCE
Ġtell s
52 407
Ġworth y
OIN TS
Ġaud ience
Ġlic ence
Ġremark able
ĠKomprom iÃŁ
ifel ong
Ġthreat s
QU AL
ĠNik os
Ġsup ermarket
ĠRO OM
ĠgÃ¼nst igen
ĠGesundheits wesen
Ġverab schiedete
ĠKreat ivitÃ¤t
Ġangemessen e
ĠTit an
ĠMilit ary
Fe b
Ġsurv ive
Ġignor ieren
Ġverbind et
ĠPlat form
indik ator
ĠEngine ering
Des ign
ĠAnw ender
ĠTus cany
ĠVermitt lungs
Ġsamm eln
Ġincor por
sph Ã¤re
Ġbegeister t
ĠElis abeth
Ġhors es
Ġzuvork ommend
A ug
L SSON
P ar
a fe
e iden
x it
z immern
Ġd ust
Ġd ruck
Ġd ivid
an ter
or ous
ĠS I
ĠS atellite
as ien
ĠT in
ĠT reiber
Ġb ij
ĠD C
ĠA PI
ĠM ET
Ġp in
ĠP es
Ġh Ã¤uf
ĠF EN
ĠC in
ĠC ut
ĠC ambod
el ijk
il ie
ĠK ORK
Ġder og
ĠV N
ĠV ASS
ĠL ug
ĠL iving
Ġre venue
um me
Ġund oubtedly
ĠU b
ĠIn fringe
iss au
ĠJ UGEND
ĠAn gabe
ers ter
la des
Ġdies mal
op t
ib re
ĠVer teilung
ĠSch ritten
ĠSch Ã¤den
Ġcom pe
ze j
Ġle er
Ġhab it
ĠSe pp
01 6
Ġsch lage
Ġsch Ã¼tzt
Ġsch reck
ĠDe ath
Ġour s
ĠAb schluÃŁ
ĠAl ias
Ġi i
ĠMar gar
ĠAN IM
ob ile
Ġbes orgnis
Ġwhat soever
ĠAuf sichts
Ġ19 71
pr int
Ġsa ubere
ĠHe ll
ĠMa uri
IC S
kl ass
ĠComm ons
Ġlie f
ST AN
ST OWSKI
ĠIs ol
fra u
Ġmach inery
ĠWer fen
ĠHand buch
ĠDa bertrand
ĠInter est
Ġcent uries
wÃ¤ sche
Ġcomple tion
OS K
Ġmeas ured
ĠChr on
Ġkomm er
ĠAnt ibiot
ca ution
ĠRechts verfahren
14 2
Ġequ ip
Ġfl ower
zeug nissen
Ġadv is
Ġele gan
ĠKo hÃ¤renz
Ġfest legen
schl Ã¼sse
Ġref und
An fragen
fa ktor
Ġrespect ively
stellung nahme
55 9
ikation en
amb ia
Ġverw ende
ĠAllgeme in
ĠReal es
ĠCH ANGE
Ġhead quar
Ġgra ve
voll stÃ¤nd
ĠWork s
ĠPriv acy
ĠRaum ordnung
Ġcomb ating
stehen de
ĠFR ON
ĠArbeitspl Ã¤tzen
ĠTax is
ĠSil ber
ĠStruktur en
ĠTerm inal
Ġweltw eite
ĠPet ros
ĠMiss brauch
EA OJA
ĠBegr Ã¼ndung
Ġcou ples
ĠSign ale
ĠGese ll
ĠPrivat sphÃ¤re
ĠDemoc rats
Ġperm it
Ġhohe m
Ġannoun ce
ĠLeon ardo
ĠVerl ust
ĠBevÃ¶lker ungs
ĠKolleg in
ĠREP UBLIK
bha ber
ĠJournal isten
Ġverab schieden
Ġluck y
Ġentscheid et
Ġvertra uen
ĠEqu ality
Ġcra zy
ĠSn acks
ĠWen iger
Ġliberal isation
ĠBang kok
ĠTief see
oler anz
ĠMI RA
ĠBeob achter
Ġauth ors
ĠsÃ¼d lich
ĠWEST LICHE
Ġerneuer bare
Ġerb aut
ĠKatastrophen schutz
ILI OU
ĠZimmers ervice
ĠTut orial
537 73
Ġtourn ament
ĠBritt an
ĠAmeric ans
Jahr es
ĠFORD ERT
irat et
ĠVALION IS
ĠAndr zej
Ġletzt lich
ĠCandid ate
Belg ium
ĠNEG OTI
ĠJUGOS LAW
IECHEN LAND
ĠKORK EAOJA
Ġbesorgnis er
6 6565
G M
S tellvertreter
T ur
U Z
U RA
W ER
b ind
g raph
h te
k al
r ische
[...]
