{"[PAD]":0,"[BOS]":1,"[EOS]":2,"[UNK]":3,"!":4,"\"":5,"#":6,"$":7,"%":8,"&":9,"(":10,")":11,"*":12,"+":13,",":14,"-":15,".":16,"/":17,"0":18,"1":19,"2":20,"3":21,"4":22,"5":23,"6":24,"7":25,"8":26,"9":27,":":28,";":29,"?":30,"@":31,"A":32,"B":33,"C":34,"D":35,"E":36,"F":37,"G":38,"H":39,"I":40,"J":41,"K":42,"L":43,"M":44,"N":45,"O":46,"P":47,"Q":48,"R":49,"S":50,"T":51,"U":52,"V":53,"W":54,"X":55,"Y":56,"Z":57,"[":58,"\\":59,"]":60,"_":61,"`":62,"a":63,"b":64,"c":65,"d":66,"e":67,"f":68,"g":69,"h":70,"i":71,"j":72,"k":73,"l":74,"m":75,"n":76,"o":77,"p":78,"q":79,"r":80,"s":81,"t":82,"u":83,"v":84,"w":85,"x":86,"y":87,"z":88,"{":89,"|":90,"}":91,"£":92,"¤":93,"¥":94,"¬":95,"¶":96,"¼":97,"Â":98,"Ã":99,"â":100,"Ġ":101,"Ĥ":102,"Ħ":103,"ĸ":104,"ľ":105,"Ł":106,"er":107,"en":108,"in":109,"ch":110,"Ġa":111,"Ġt":112,"on":113,"is":114,"es":115,"Ġd":116,"he":117,"an":118,"or":119,"Ġs":120,"un":121,"it":122,"at":123,"Ġw":124,"ie":125,"re":126,"ĠS":127,"Ġf":128,"Ġthe":129,"ar":130,"as":131,"ion":132,"te":133,"ĠT":134,"Ġb":135,"ĠD":136,"ĠA":137,"al":138,"Ġm":139,"ro":140,"ĠI":141,"ĠE":142,"Ġo":143,"le":144,"ich":145,"Ġc":146,"Ġin":147,"Ġis":148,"ĠM":149,"ĠW":150,"us":151,"Ġp":152,"Ġn":153,"ĠP":154,"ur":155,"ge":156,"Ã¼":157,"Ġh":158,"om":159,"Ġe":160,"ĠB":161,"ent":162,"ll":163,"Ġan":164,"ĠF":165,"ed":166,"Ġv":167,"ung":168,"Ġof":169,"Ã¤":170,"ing":171,"Ġto":172,"ter":173,"ĠC":174,"ĠH":175,"und":176,"ir":177,"ic":178,"el":179,"Ġth":180,"Ġg":181,"ig":182,"st":183,"ra":184,"im":185,"ĠR":186,"il":187,"ou":188,"et":189,"ĠG":190,"ation":191,"Ġand":192,"ĠK":193,"Ġbe":194,"Ġ2":195,"Ġl":196,"ere":197,"Ġder":198,"ol":199,"ĠThe":200,"Ġ(":201,"ĠV":202,"ĠL":203,"ut":204,"Ġ1":205,"Ġein":206,"em":207,"ct":208,"id":209,"ot":210,"ies":211,"Ġfor":212,"Ġz":213,"Ġdie":214,"Ġre":215,"um":216,"Ġund":217,"hr":218,"ĠN":219,"00":220,"am":221,"Ġk":222,"Ġist":223,"ten":224,"Ã¼r":225,"and":226,"omm":227,"icht":228,"ta":229,"Ġy":230,"res":231,"ve":232,"ber":233,"eit":234,"Ã¶":235,"ĠTh":236,"ĠU":237,"ĠIn":238,"os":239,"ow":240,"gen":241,"Ġon":242,"sch":243,"ab":244,"ind":245,"uf":246,"ĠSie":247,"ce":248,"for":249,"rop":250,"ier":251,"Ġare":252,"ach":253,"ly":254,"iss":255,"est":256,"ĠO":257,"ver":258,"der":259,"Ġse":260,"ill":261,"ĠfÃ¼r":262,"Ġ-":263,"den":264,"ĠDie":265,"ul":266,"de":267,"lich":268,"Ġun":269,"ort":270,"ck":271,"ĠEu":272,"ĠZ":273,"uch":274,"ay":275,"ĠJ":276,"ĠAn":277,"isch":278,"..":279,"if":280,"kt":281,"Ġge":282,"Ġwir":283,"our":284,"ke":285,"Ġim":286,"ĠEurop":287,"ers":288,"Ġal":289,"Ġst":290,"ER":291,"Ġyou":292,"pp":293,"ote":294,"Ġcon":295,"Ġne":296,"form":297,"ĠWe":298,"la":299,"Ġver":300,"Ġdas":301,"ommiss":302,"Ġpro":303,"ÃŁ":304,"ess":305,"ith":306,"EN":307,"Ġzu":308,"Ġthis":309,"Ġwe":310,"ien":311,"ine":312,"ld":313,"ate":314,"ad":315,"Ġvon":316,"ust":317,"Ġnot":318,"ĠRe":319,"ts":320,"ann":321,"qu":322,"th":323,"ff":324,"ment":325,"ommission":326,"Ġat":327,"Ġwith":328,"Ġdies":329,"ĠDas":330,"Ġden":331,"op":332,"ib":333,"Ġde":334,"Ġha":335,"Ġnicht":336,"Ġthat":337,"ĠSt":338,"Ġwill":339,"Ġwas":340,"formation":341,"Ġer":342,"Ġit":343,"ress":344,"ĠUn":345,"Ġauf":346,"od":347,"ĠEU":348,"ss":349,"uss":350,"ub":351,"Ġdes":352,"hen":353,"iv":354,"ĠVer":355,"ungen":356,"ive":357,"ah":358,"end":359,"ia":360,"inis":361,"Ġme":362,"oll":363,"nen":364,"Ġ200":365,"all":366,"ant":367,"ould":368,"ĠThis":369,"Ġr":370,"Ġhave":371,"ore":372,"Ġ3":373,"ft":374,"Ġj":375,"art":376,"ht":377,"ik":378,"ne":379,"ĠMr":380,"ON":381,"ist":382,"Ġdo":383,"otel":384,"inister":385,"itte":386,"ĠSch":387,"ĠWir":388,"men":389,"age":390,"Ã¼ber":391,"Ġsind":392,"ity":393,"pe":394,"Ġex":395,"Ġals":396,"Ġab":397,"ĠPro":398,"Ġwh":399,"ank":400,"Ġwer":401,"Ã¤n":402,"ĠIt":403,"land":404,"Ġ.":405,"Ġall":406,"Ġmit":407,"ĠEurope":408,"Ġeine":409,"Ġby":410,"Ġes":411,"iel":412,"ag":413,"ug":414,"err":415,"AN":416,"ES":417,"ial":418,"Ġuns":419,"rom":420,"ok":421,"ĠEr":422,"ase":423,"ions":424,"Ġsh":425,"ass":426,"ĠÃ¼ber":427,"ste":428,"Ġwerden":429,"gr":430,"ĠBe":431,"ĠEn":432,"port":433,"Ġcom":434,"ak":435,"we":436,"ze":437,"up":438,"imm":439,"ĠIch":440,"ast":441,"Ġsich":442,"Ġle":443,"ue":444,"ail":445,"ure":446,"och":447,"ident":448,"CH":449,"Ġcan":450,"ice":451,"...":452,"oun":453,"ische":454,"Ġhe":455,"Ġus":456,"TI":457,"esch":458,"UN":459,"TE":460,"Ġas":461,"ĠDies":462,"ern":463,"ĠPress":464,"me":465,"ard":466,"ran":467,"Ġ4":468,"ted":469,"Ġhas":470,"Ġso":471,"ĠCommission":472,"Ġwird":473,"ĠMinister":474,"Ġch":475,"ĠWh":476,"ĠDer":477,"Ġfrom":478,"RO":479,"Ġhab":480,"ben":481,"ahr":482,"Ġaus":483,"ack":484,"ain":485,"Ġyour":486,"ĠSe":487,"lo":488,"los":489,"01":490,"ang":491,"Ġor":492,"ĠHerr":493,"ick":494,"ĠFor":495,"Ġsch":496,"ige":497,"Ġres":498,"Ġich":499,"ungs":500,"ark":501,"Ã¤r":502,"ĠEuropean":503,"ost":504,"ud":505,"ip":506,"oc":507,"Ġ5":508,"ĠDe":509,"Ã¶n":510,"se":511,"Ġam":512,"rÃ¤":513,"Ġour":514,"fer":515,"Ġalso":516,"ite":517,"able":518,"ĠAb":519,"ĠHotel":520,"ĠY":521,"ĠInformation":522,"ome":523,"Ġ:":524,"IN":525,"ĠEs":526,"Ġauch":527,"Ġdem":528,"Ġmore":529,"ied":530,"32":531,"hal":532,"Ġum":533,"ake":534,"ire":535,"tern":536,"ĠEin":537,"be":538,"out":539,"Ġfind":540,"Ġ\"":541,"du":542,"99":543,"Ġad":544,"ble":545,"ther":546,"ĠÃ":547,"Ġwor":548,"ap":549,"Ġro":550,"ĠKommission":551,"ein":552,"Ġen":553,"Ġsta":554,"io":555,"zen":556,"ĠAr":557,"Ġwould":558,"Ġhat":559,"ike":560,"ĠFra":561,"IS":562,"ese":563,"Ã¼ss":564,"ĠSp":565,"Ġvery":566,"Ġinformation":567,"Ġgo":568,"ide":569,"og":570,"scha":571,"aus":572,"ction":573,"her":574,"onta":575,"ary":576,"ru":577,"ult":578,"heit":579,"cts":580,"ĠmÃ¶":581,"Ġent":582,"cl":583,"che":584,"AL":585,"igen":586,"ĠEuropÃ¤":587,"Ġlike":588,"Ġqu":589,"Ġthere":590,"cc":591,"Ġ0":592,"ise":593,"Ã¤t":594,"Ġhaben":595,"ĠThat":596,"erv":597,"Ġsie":598,"Ġvor":599,"wer":600,"lease":601,"tw":602,"Ġwar":603,"one":604,"Ġman":605,"ĠFin":606,"sp":607,"au":608,"etz":609,"round":610,"eitere":611,"ĠIh":612,"ations":613,"mer":614,"ight":615,"are":616,"ĠAl":617,"ree":618,"tr":619,"ens":620,"AR":621,"je":622,"ov":623,"ram":624,"ischen":625,"ign":626,"IT":627,"iz":628,"ute":629,"gt":630,"ĠVor":631,"ance":632,"ĠInformationen":633,"hl":634,"beit":635,"Ġzur":636,"ĠGe":637,"tell":638,"ger":639,"Ã¼n":640,"erm":641,"ĠBr":642,"Ġ(+":643,"Ġ6":644,"EL":645,"Ġcomp":646,"av":647,"ĠAus":648,"ĠBer":649,"ated":650,"OR":651,"ommen":652,"Ġ7":653,"ition":654,"Ġsp":655,"ime":656,"Ġpr":657,"ĠkÃ¶n":658,"inter":659,"pt":660,"ac":661,"iew":662,"ord":663,"ĠmÃ¶ch":664,"Ġi":665,"bs":666,"ĠWhat":667,"gram":668,"ame":669,"ĠTe":670,"ember":671,"enn":672,"Ġapp":673,"chen":674,"fe":675,"ĠThere":676,"ink":677,"Ġunter":678,"ibt":679,"ner":680,"iert":681,"UNG":682,"Ġkann":683,"gl":684,"ally":685,"reich":686,"Ġno":687,"Ġabout":688,"ĠGr":689,"con":690,"liche":691,"ĠNe":692,"pl":693,"Ġsein":694,"Ġag":695,"Ġbeen":696,"ĠLe":697,"tra":698,"IL":699,"ents":700,"rit":701,"Ġ...":702,"arl":703,"Ġneed":704,"rÃ¤s":705,"Ġ9":706,"ĠCh":707,"oin":708,"ook":709,"Ġnew":710,"ile":711,"Ġ201":712,"fÃ¼":713,"Ġ8":714,"US":715,"ĠSo":716,"Ġmust":717,"elt":718,"mp":719,"grund":720,"Ġte":721,"ĠPres":722,"ĠMar":723,"keit":724,"Ġke":725,"schaft":726,"anz":727,"ground":728,"ear":729,"Ġhier":730,"ĠkÃ¶nnen":731,"Ġup":732,"sen":733,"rÃ¤sident":734,"ubl":735,"ild":736,"Ġvote":737,"ates":738,"ĠHow":739,"ĠYou":740,"ĠWeitere":741,"Ġwur":742,"Ġsu":743,"AT":744,"uÃŁ":745,"ish":746,"ieren":747,"Ġnoch":748,"to":749,"Ġwie":750,"Ã¶r":751,"fen":752,"OM":753,"olgen":754,"ĠMit":755,"Ġda":756,"ĠAN":757,"ackground":758,"Ġspe":759,"Ġroom":760,"ong":761,"Ã¼ck":762,").":763,"ĠHinter":764,"Ġshould":765,"Ġstay":766,"reat":767,"ĠUN":768,"olit":769,"air":770,"Ġone":771,"vel":772,"ĠEURO":773,"Ġsehr":774,"ob":775,"Ġ12":776,"Ġste":777,"ĠHintergrund":778,"use":779,"ian":780,"Ġnach":781,"ĠCoun":782,"Ġdiese":783,"cil":784,"Ġpart":785,"ĠBackground":786,"ament":787,"ĠFr":788,"tz":789,"Ġzum":790,"ĠEuropÃ¤ische":791,"Ġ|":792,"ings":793,"Ġbet":794,"Ġtra":795,"Ġbes":796,"Ġhotel":797,"ons":798,"ret":799,"Ġpl":800,"ange":801,"per":802,"tet":803,"ĠPresident":804,"ĠWie":805,"xt":806,"Ġ10":807,"bar":808,"TS":809,"igh":810,"Ġav":811,"Ġper":812,"Ġwhat":813,"Ã¼ssen":814,"ational":815,"urch":816,"Ġsoll":817,"ahl":818,"aten":819,"Ġgen":820,"ĠSta":821,"ĠAll":822,"ĠAuf":823,"HE":824,"Ġout":825,"Ġ22":826,"wo":827,"cial":828,"ichtig":829,"ms":830,"Ġeinen":831,"Ġnur":832,"ĠmÃ¼ssen":833,"ĠQ":834,"ely":835,"ĠCouncil":836,"tel":837,"cht":838,"Ġgibt":839,"ĠWas":840,"Ġgesch":841,"Ġbei":842,"Ġreg":843,"Ġ19":844,"fore":845,"ical":846,"ontakt":847,"AS":848,"Ġgro":849,"geb":850,"000":851,"ĠPrÃ¤sident":852,"Ġwork":853,"els":854,"pr":855,"hn":856,"Ġsa":857,"30":858,"Ġmehr":859,"Ġar":860,"Ġdis":861,"ĠMe":862,"zu":863,"10":864,"EM":865,"yste":866,"Ġtime":867,"Ġacc":868,"Ġmy":869,"ative":870,"kte":871,"att":872,"Ġjed":873,"nah":874,"ures":875,"Ġpla":876,"ĠDiese":877,"ges":878,"ert":879,"ĠHe":880,"ESS":881,"ailable":882,"tre":883,"ED":884,"erman":885,"Ġfe":886,"fahr":887,"ĠMa":888,"Ġnow":889,"Ġclos":890,"Ġtake":891,"Ġgood":892,"Ġwere":893,"Ġconta":894,"ollow":895,"ÃĦ":896,"ĠUnter":897,"Ġhere":898,"OL":899,"ĠAnd":900,"auf":901,"chn":902,"Ġavailable":903,"irst":904,"ĠPr":905,"ĠEUROP":906,"Ġsee":907,"Ġalle":908,"unkt":909,"ĠReg":910,"ĠIhre":911,"ays":912,"Ġoder":913,"lie":914,"ION":915,"rans":916,"ven":917,"TION":918,"very":919,"ĠIN":920,"ution":921,"etzt":922,"own":923,"ior":924,"eiter":925,"stimm":926,"Ġpos":927,"Ġview":928,"ments":929,"Ġany":930,"Ġreport":931,"rif":932,"Ġcomm":933,"eral":934,"ĠRep":935,"ĠUnion":936,"ual":937,"hmen":938,"IC":939,"ont":940,"Ġits":941,"Ġbis":942,"itteil":943,"RA":944,"ph":945,"fol":946,"Ġco":947,"ose":948,"ĠBut":949,"ĠRed":950,"lin":951,"ced":952,"Ġonly":953,"glich":954,"Ġdeb":955,"legen":956,"ustr":957,"lick":958,"pro":959,"Ġ199":960,"utz":961,"ĠParl":962,"Ġwurde":963,"Ġgu":964,"Ġdass":965,"sten":966,"ors":967,"200":968,"ĠIhr":969,"Ġ29":970,"Ã¤nder":971,"ek":972,"Ġdieser":973,"ĠKontakt":974,"Ã¤nd":975,"ple":976,"act":977,"Ġma":978,"ĠRat":979,"bsite":980,"fter":981,"ĠNach":982,"igt":983,"Ġsit":984,"ified":985,"ĠWhen":986,"ale":987,"ielen":988,"ĠAbstimm":989,"sche":990,"ĠBericht":991,"rache":992,"ject":993,"assen":994,"TER":995,"Ġ11":996,"ĠAuss":997,"ities":998,"Ġplace":999,"Ġdar":1000,"ux":1001,"Ġ14":1002,"Ġoff":1003,"ĠEx":1004,"oint":1005,"ever":1006,"ond":1007,"EC":1008,"Ġthese":1009,"lossen":1010,"airs":1011,"ible":1012,"ins":1013,"ater":1014,"Ġkeine":1015,"Ġyear":1016,"ĠZeit":1017,"Ġtr":1018,"ĠJahr":1019,"Ġtheir":1020,"Ġprodu":1021,"ffe":1022,"pport":1023,"ho":1024,"Ġadd":1025,"blem":1026,"Ġfinden":1027,"itteilung":1028,"ina":1029,"Ġ+":1030,"ĠNo":1031,"ĠThank":1032,"ĠÃľ":1033,"kl":1034,"Ġpre":1035,"fr":1036,"Ġfollow":1037,"erson":1038,"Ġ15":1039,"urther":1040,"cy":1041,"ublic":1042,"ma":1043,"gel":1044,"ĠGen":1045,"achten":1046,"Ġserv":1047,"ĠFrau":1048,"ĠmÃ¶chten":1049,"Ġmuss":1050,"MEN":1051,"iele":1052,"ces":1053,"Ġloc":1054,"Ġprop":1055,"ĠIm":1056,"Ġquest":1057,"35":1058,"II":1059,"ĠTHE":1060,"Ġsub":1061,"Ġ20":1062,"Ġpe":1063,"ffairs":1064,"Ġdebate":1065,"Ġcont":1066,"ium":1067,"ĠPressem":1068,"RE":1069,"Ġcons":1070,"teil":1071,"ement":1072,"ett":1073,"ĠComm":1074,"Ġkn":1075,"Ġcle":1076,"Ġmod":1077,"Ġimport":1078,"mar":1079,"entr":1080,"Ġ,":1081,"atz":1082,"itÃ¤t":1083,"rei":1084,"ĠUm":1085,"ious":1086,"Ġlast":1087,"Ġinter":1088,"Ġlie":1089,"kommen":1090,"Ġcoun":1091,"Ġtwo":1092,"ierung":1093,"ence":1094,"als":1095,"Ġwhich":1096,"fl":1097,"irect":1098,"Ġdiesem":1099,"Ġpage":1100,"abe":1101,"ull":1102,"ĠWann":1103,"Ġbut":1104,"ĠIhnen":1105,"erg":1106,"ĠAffairs":1107,"Ġeiner":1108,"Ġunser":1109,"Ġges":1110,"ĠPl":1111,"ĠPol":1112,"prache":1113,"ful":1114,"ystem":1115,"itz":1116,"ST":1117,"ĠFÃ¼r":1118,"Ġfr":1119,"Ġother":1120,"ĠIntern":1121,"Ġbest":1122,"ĠAbstimmung":1123,"Ġrelease":1124,"ĠItal":1125,"ĠOn":1126,"rag":1127,"Ġget":1128,"velop":1129,"ans":1130,"Ġhow":1131,"Ġfirst":1132,"iver":1133,"ĠArbeit":1134,"Ġhel":1135,"Ġagain":1136,"ĠOr":1137,"pen":1138,"Ġthey":1139,"Ã¤l":1140,"ittel":1141,"ĠMan":1142,"ostel":1143,"uchen":1144,"Ġbed":1145,"alt":1146,"llen":1147,"arge":1148,"ĠÃ¼bern":1149,"ĠCO":1150,"ĠEuropa":1151,"ĠBel":1152,"tain":1153,"ĠmÃ¶chte":1154,"ha":1155,"immer":1156,"day":1157,"Ġ229":1158,"Ġjust":1159,"Ġ2009":1160,"enz":1161,"Ġfolgen":1162,"ĠPressemitteilung":1163,"ĠUhr":1164,"11":1165,"ĠAs":1166,"gan":1167,"uation":1168,"tschaft":1169,"hing":1170,"gar":1171,"wn":1172,"ISCH":1173,"Ġmuch":1174,"come":1175,"ices":1176,"Ġfo":1177,"ateg":1178,"ĠCon":1179,"its":1180,"Ġunsere":1181,"heiten":1182,"part":1183,"Ã¤ch":1184,"ĠDank":1185,"ĠConta":1186,"Ġaber":1187,"Ġsol":1188,"ĠPre":1189,"ĠOF":1190,"ĠÃĸ":1191,"Ġdoes":1192,"Ġhabe":1193,"Ġsome":1194,"arbeit":1195,"ĠAussprache":1196,"alk":1197,"ĠÃ¼bernachten":1198,"Ġgeschlossen":1199,"Ġclosed":1200,"urr":1201,"resent":1202,"ionen":1203,"cess":1204,"ters":1205,"line":1206,"ism":1207,"Ġ%":1208,"omp":1209,"ATION":1210,"ople":1211,"vent":1212,"Ġwel":1213,"ĠJust":1214,"eite":1215,"ĠThey":1216,"Ġeinem":1217,"ĠHa":1218,"ĠIs":1219,"ĠUnd":1220,"Ġact":1221,"IR":1222,"ammen":1223,"ient":1224,"gramm":1225,"Ġob":1226,"ĠHier":1227,"lichen":1228,"Ã¼ssel":1229,"fra":1230,"led":1231,"Ġdurch":1232,"Ġthem":1233,"Ġmach":1234,"iger":1235,"vest":1236,"ring":1237,"ĠPR":1238,"schen":1239,"ĠFl":1240,"glied":1241,"Ġfin":1242,"Ġrec":1243,"ues":1244,"EH":1245,"ory":1246,"conom":1247,"inut":1248,"ĠÃľber":1249,"usammen":1250,"lect":1251,"Ġevery":1252,"ific":1253,"ĠEnt":1254,"ĠWar":1255,"Ġmake":1256,"ĠAm":1257,"Ġover":1258,"Ġwell":1259,"ostels":1260,"ĠMember":1261,"ĠAd":1262,"ax":1263,"ility":1264,"Ġgr":1265,"Ġrequ":1266,"Ġ13":1267,"nung":1268,"arket":1269,"fahren":1270,"urg":1271,"Ġstatt":1272,"wei":1273,"Ġra":1274,"Ġend":1275,"ork":1276,"ĠDER":1277,"Ġimportant":1278,"Ġers":1279,"ĠLand":1280,"urn":1281,"ĠDes":1282,"Minister":1283,"olog":1284,"12":1285,"uer":1286,"ous":1287,"inn":1288,"ĠAber":1289,"Ġdif":1290,"emb":1291,"Ġviel":1292,"enden":1293,"ĠWel":1294,"SP":1295,"âĤ":1296,"âĤ¬":1297,"Ġuse":1298,"immt":1299,"uen":1300,"Ġcountr":1301,"igkeit":1302,"ĠDE":1303,"ath":1304,"halten":1305,"Ġbel":1306,"Ġkein":1307,"rie":1308,"ĠFe":1309,"Ġknow":1310,"Ġ18":1311,"ĠQu":1312,"Ġwant":1313,"Ã¤hr":1314,"Ġvers":1315,"ĠWer":1316,"lieÃŁ":1317,"olitik":1318,"ular":1319,"klÃ¤r":1320,"Ġweiter":1321,"leich":1322,"urop":1323,"MS":1324,"Ġpeople":1325,"ages":1326,"ĠFran":1327,"row":1328,"Ġstr":1329,"Ġih":1330,"wed":1331,"ider":1332,"Ġgut":1333,"Ġhelp":1334,"Ġiss":1335,"ument":1336,"Ġright":1337,"Ġthan":1338,"ĠLux":1339,"cted":1340,"ĠDo":1341,"Ġben":1342,"nehmen":1343,"Ġunder":1344,"ĠArt":1345,"lung":1346,"ĠEuro":1347,"wir":1348,"Ġpol":1349,"ĠRes":1350,"Ġdec":1351,"Ġ2007":1352,"ict":1353,"Ġher":1354,".)":1355,"ffen":1356,"ĠGerman":1357,"icy":1358,"fach":1359,"ace":1360,"iet":1361,"Ġfindet":1362,"ĠAnge":1363,"Ġinto":1364,"Ġetw":1365,"hand":1366,"ited":1367,"ward":1368,"oug":1369,"nahmen":1370,"ĠSchl":1371,"ĠUNION":1372,"Ġfre":1373,"Ġviews":1374,"zeit":1375,"Ġla":1376,"gramme":1377,"fÃ¼hr":1378,"gend":1379,"ĠMen":1380,"GEN":1381,"CI":1382,"mal":1383,"Ġgreat":1384,"Ġpropos":1385,"oy":1386,"Ġzw":1387,"ĠContacts":1388,"Ġmich":1389,"Ġtoo":1390,"Ġ16":1391,"Ġincl":1392,"Ġneue":1393,"dern":1394,"ĠZu":1395,"Ġdiesen":1396,"ĠCommissioner":1397,"Ġins":1398,"Ġcase":1399,"ET":1400,"Ġvom":1401,"Ġafter":1402,"erein":1403,"ĠVielen":1404,"ĠÃĦ":1405,"fts":1406,"Ġcl":1407,"Ġind":1408,"itt":1409,"ĠHer":1410,"20":1411,"Ġprov":1412,"Ġ2008":1413,"Ã¶ff":1414,"Ġrem":1415,"ĠBelg":1416,"ĠEine":1417,"tige":1418,"icher":1419,"reak":1420,"Ġlook":1421,"Ġway":1422,"Ġcontact":1423,"ives":1424,"Ġsupport":1425,"Ġtrans":1426,"ĠTra":1427,"ĠSec":1428,"ĠAngelegen":1429,"Ġintern":1430,"stÃ¼":1431,"urrent":1432,"Ġpoint":1433,"ĠHand":1434,"trag":1435,"Ġ30":1436,"Ġ17":1437,"fÃ¼r":1438,"iament":1439,"ĠMore":1440,"Ġtherefore":1441,"Ġcour":1442,"wert":1443,"red":1444,"Ġwho":1445,"ĠMed":1446,"ommissar":1447,"iti":1448,"ussels":1449,"ĠLuxemb":1450,"ĠEntw":1451,"ows":1452,"wÃ¤r":1453,"Ġconc":1454,"Ġtun":1455,"ĠMitglied":1456,"ĠThese":1457,"Ġgeht":1458,"str":1459,"ĠGes":1460,"Ġzwei":1461,"UR":1462,"iron":1463,"Ġ25":1464,"Ġmodified":1465,"halb":1466,"Ġfollowing":1467,"zie":1468,"eld":1469,"co":1470,"otes":1471,"ĠFrage":1472,"AND":1473,"iven":1474,"etail":1475,"Ġwichtig":1476,"ĠTo":1477,"Ġgegen":1478,"olle":1479,"ĠBrussels":1480,"ting":1481,"Ġho":1482,"igung":1483,"unden":1484,"ĠKon":1485,"Ġgew":1486,"icult":1487,"lause":1488,"ken":1489,"ics":1490,"ry":1491,"Ġ/":1492,"com":1493,"40":1494,"ustom":1495,"tellt":1496,"amen":1497,"ĠEN":1498,"isse":1499,"les":1500,"iden":1501,"ereich":1502,"Ġmein":1503,"kehr":1504,"Ġfurther":1505,"sel":1506,"weden":1507,"ĠER":1508,"ĠFore":1509,"laub":1510,"ĠBes":1511,"Ġmany":1512,"EAN":1513,"ĠBrÃ¼ssel":1514,"Ġ[":1515,"ucht":1516,"Ġass":1517,"ĠDa":1518,"isten":1519,"25":1520,"ĠTel":1521,"ĠX":1522,"):":1523,"Ġmo":1524,"ĠâĤ¬":1525,"Ġthink":1526,"ĠBet":1527,"Ġhad":1528,"ilt":1529,"ption":1530,"stand":1531,"Ġbere":1532,"ĠAt":1533,"view":1534,"Ġsehen":1535,"ĠVerb":1536,"ĠInd":1537,"issen":1538,"Ġsc":1539,"amp":1540,"ĠPRO":1541,"TH":1542,"hÃ¶r":1543,"ĠStr":1544,"ifall":1545,"Ġhapp":1546,"Ġ2010":1547,"ĠForeign":1548,"ural":1549,"ĠPRESS":1550,"Ġhand":1551,"ĠAngelegenheiten":1552,"ĠMs":1553,"ĠgroÃŁ":1554,"Ġvis":1555,"cond":1556,"way":1557,"ĠInter":1558,"ĠWebsite":1559,"ats":1560,"Ġmost":1561,"AF":1562,"ady":1563,"mail":1564,"oth":1565,"utsch":1566,"yp":1567,"velopment":1568,"Ġbeg":1569,"Ġjetzt":1570,"sta":1571,"Ġdel":1572,"ĠEntwick":1573,"ĠAuch":1574,".:":1575,"Ġplease":1576,"pect":1577,"Ġguest":1578,"ĠCo":1579,"nis":1580,"halt":1581,"ize":1582,"ital":1583,"ĠZimmer":1584,"UNK":1585,"Ġquestion":1586,"Ġimmer":1587,"quis":1588,"angu":1589,"ĠEuropÃ¤ischen":1590,"GE":1591,"clus":1592,"raph":1593,"itÃ¤":1594,"Ġbra":1595,"rol":1596,"ĠVorsch":1597,"ugh":1598,"ĠSl":1599,"ĠNew":1600,"inutes":1601,"wend":1602,"Ġmain":1603,"ĠWo":1604,"ÃŁnahmen":1605,"Ġph":1606,"viron":1607,"umber":1608,"Ġpartic":1609,"Ġposs":1610,"ĠMon":1611,"15":1612,"TEMS":1613,"ep":1614,"osten":1615,"Ġappro":1616,"Ġrooms":1617,"Ġmade":1618,"ster":1619,"table":1620,"aben":1621,"ĠOur":1622,"ĠParlament":1623,"IE":1624,"ĠHostels":1625,"conomic":1626,"Ġbitte":1627,"AM":1628,"Ġcent":1629,"omet":1630,"Ġjedoch":1631,"ĠProdu":1632,"ÃĦISCH":1633,"Ġetwas":1634,"vironment":1635,"Ġsm":1636,"ĠGesch":1637,"Ã¼hr":1638,"net":1639,"Ã¤lt":1640,"Ġwhen":1641,"Ġrel":1642,"UNKTE":1643,"Ġbus":1644,"ĠITEMS":1645,"ĠEUROPEAN":1646,"Ġeinfach":1647,"Ġsim":1648,"old":1649,"Ġarea":1650,"ved":1651,"ision":1652,"chts":1653,"Ġdieses":1654,"ĠFinan":1655,"Ġnun":1656,"lÃ¤":1657,"Ġstaff":1658,"Ġcar":1659,"ĠPUNKTE":1660,"ix":1661,"ĠSh":1662,"ĠEUROPÃĦISCH":1663,"Ġtak":1664,"entlich":1665,"ĠUns":1666,"Be":1667,"Ġ*":1668,"ĠRo":1669,"Ġadop":1670,"ĠBar":1671,"pplause":1672,"Ġchange":1673,"bst":1674,"13":1675,"atter":1676,"lag":1677,"elle":1678,"Ġ!":1679,"Ġfree":1680,"Ġday":1681,"ICH":1682,"eren":1683,"ough":1684,"Ġac":1685,"iend":1686,"eration":1687,"Ġcustom":1688,"ĠKommissar":1689,"Ãĸ":1690,"Ġmarket":1691,"ool":1692,"ĠIP":1693,"ĠHaus":1694,"fall":1695,"ĠWhy":1696,"rat":1697,"ĠFre":1698,"ieder":1699,"ased":1700,"ĠZusammen":1701,"Ġweitere":1702,"amil":1703,"ĠPlease":1704,"Ġihr":1705,"Ġpolit":1706,"Ġclear":1707,"45":1708,"Ġinst":1709,"ĠJan":1710,"wit":1711,"ĠGrund":1712,"ĠGer":1713,"Ġmor":1714,"Ġexp":1715,"leg":1716,"ĠAND":1717,"onder":1718,"ĠEnerg":1719,"Ġdiffer":1720,"hlen":1721,"itted":1722,"Ġganz":1723,"amit":1724,"fort":1725,"etails":1726,"ality":1727,"Ġstill":1728,"Ġnat":1729,"Ġrep":1730,"Ġyears":1731,"ĠUND":1732,"ĠUr":1733,"ĠDen":1734,"ĠIf":1735,"Ġheute":1736,"so":1737,"ktion":1738,"ĠHowever":1739,"amt":1740,"Ġworld":1741,"ights":1742,"fast":1743,"Ã¼h":1744,"ĠLage":1745,"ĠInternet":1746,"Ġval":1747,"Ġmay":1748,"ĠRicht":1749,"zial":1750,"Ġbu":1751,"ĠUS":1752,"illion":1753,"ating":1754,"Ġcann":1755,"az":1756,"AC":1757,"Ãľ":1758,"iÃŁ":1759,"Ġdr":1760,"ware":1761,"Ġhis":1762,"ower":1763,"46":1764,"ĠFrank":1765,"urs":1766,"ude":1767,"ĠGem":1768,"ĠÃĦn":1769,"Ġdown":1770,"aut":1771,"Ġcannot":1772,"Ġopen":1773,"Ġemp":1774,"Ġliegt":1775,"Ġsame":1776,"Ġsel":1777,"ĠState":1778,"Ġproblem":1779,"ĠIr":1780,"reakfast":1781,"Ġif":1782,"ischer":1783,"nahme":1784,"marquis":1785,"Ġger":1786,"Ã¶s":1787,"aher":1788,"welt":1789,"Ġaccess":1790,"ĠDar":1791,"Ġgest":1792,"Ġsay":1793,"ata":1794,"ĠFragen":1795,"Ġconcern":1796,"The":1797,"wÃ¤":1798,"ĠDeutsch":1799,"Ġstand":1800,"Ġthen":1801,"Ġvotes":1802,"ĠFall":1803,"ĠInn":1804,"ĠSee":1805,"Ġdu":1806,"gest":1807,"ĠII":1808,"nisse":1809,"ĠÃĦnder":1810,"98":1811,"ĠBesch":1812,"ĠPort":1813,"ĠSte":1814,"iness":1815,"ĠCOUN":1816,"richt":1817,"Ġnumber":1818,"Ġcomple":1819,"Ġmir":1820,"ania":1821,"hne":1822,"Ġrece":1823,"ollen":1824,"ĠJun":1825,"PP":1826,"Ġleg":1827,"Ġdisc":1828,"rech":1829,"ONS":1830,"ides":1831,"ĠGermany":1832,"isp":1833,"ĠEC":1834,"Ġcourse":1835,"Ġfar":1836,"Ġagainst":1837,"ĠPrior":1838,"Applause":1839,"get":1840,"ock":1841,"Ġpolicy":1842,"ines":1843,"Ġwurden":1844,"eln":1845,"Ġnext":1846,"Ġcould":1847,"ĠPh":1848,"schlieÃŁ":1849,"uff":1850,"Ġ28":1851,"dem":1852,"Ġwenn":1853,"wÃ¤rtige":1854,"ler":1855,"ĠGÃ¤":1856,"ope":1857,"Ġset":1858,"ional":1859,"ks":1860,"Ġ24":1861,"Ġthree":1862,"tens":1863,"Ġoffer":1864,"hof":1865,"ID":1866,"ĠREL":1867,"ĠST":1868,"Ġsystem":1869,"ĠGeneral":1870,"acht":1871,"Beifall":1872,"ule":1873,"gehen":1874,"Ġonline":1875,"ĠSpan":1876,"taur":1877,"OS":1878,"Ġspeak":1879,"witter":1880,"Ġplay":1881,"09":1882,"find":1883,"CIL":1884,"ĠBed":1885,"lands":1886,"),":1887,"ilfe":1888,"ĠGo":1889,"geben":1890,"ĠTeil":1891,"bal":1892,"ention":1893,"ĠMenschen":1894,"ĠVerein":1895,"fÃ¼g":1896,"Ġresp":1897,"ĠRAT":1898,"EU":1899,"ĠJu":1900,"Ġfound":1901,"Ġhigh":1902,"Ġexam":1903,"Ġwieder":1904,"ĠGro":1905,"75":1906,"Ġ&":1907,"Ġdirect":1908,"abei":1909,"ĠCOUNCIL":1910,"BA":1911,"Ġhin":1912,"ĠWarum":1913,"ys":1914,"fin":1915,"essen":1916,"ĠNet":1917,"ĠAlle":1918,"ĠKÃ¶n":1919,"innen":1920,"Ġdid":1921,"Ġsollte":1922,"load":1923,"org":1924,"ĠHo":1925,"Ġsuch":1926,"anguage":1927,"Ġser":1928,"war":1929,"Ġadopted":1930,"Ġsomet":1931,"16":1932,"ĠPart":1933,"ĠBei":1934,"ĠPar":1935,"ĠPerson":1936,"OU":1937,"ris":1938,"Ġaut":1939,"olid":1940,"Ġlocation":1941,"ants":1942,"icherheit":1943,"02":1944,"UNGEN":1945,"ĠTwitter":1946,"MER":1947,"rechen":1948,"Ġappl":1949,"ipp":1950,"work":1951,"ĠSitz":1952,"ĠGÃ¤ste":1953,"Ġmon":1954,"Ġbeste":1955,"Ġown":1956,"Ġpossible":1957,"Ġcurrent":1958,"forder":1959,"frage":1960,"ĠProblem":1961,"Ġbie":1962,"03":1963,"Ġsituation":1964,"ĠCan":1965,"Ġair":1966,"ĠFinanz":1967,"ately":1968,"Ġinc":1969,"Ġwo":1970,"Ã¤re":1971,"ĠNat":1972,"ĠSecret":1973,"ĠEst":1974,"ruct":1975,"Ġdone":1976,"anke":1977,"ica":1978,"ĠauswÃ¤rtige":1979,"upt":1980,"Ġide":1981,"Ġbo":1982,"tellen":1983,"Ġagre":1984,"Ġform":1985,"Ġreas":1986,"Ġwhy":1987,"uropÃ¤":1988,"ĠDem":1989,"ieve":1990,"treter":1991,"ĠWor":1992,"kun":1993,"hm":1994,"Ġstat":1995,"Ġpar":1996,"uman":1997,"LE":1998,"Ġsaid":1999,"entral":2000,"Ġeven":2001,"Ġsollten":2002,"96":2003,"cr":2004,"Ġlong":2005,"ccess":2006,"Ġfriend":2007,"ife":2008,"hed":2009,"ĠAustr":2010,"ways":2011,"ĠEUR":2012,"Ġorder":2013,"ount":2014,"Ġeas":2015,"ordnung":2016,"plan":2017,"Ġ21":2018,"ĠServ":2019,"97":2020,"USS":2021,"Ġcountries":2022,"ĠRepresent":2023,"ĠLet":2024,"uÃŁer":2025,"tem":2026,"Ġmeas":2027,"Ġtoday":2028,"ĠVers":2029,"ĠSpe":2030,"Ġange":2031,"Ġmeine":2032,"ĠDeutschland":2033,"mitted":2034,"schafts":2035,"Ġask":2036,"ĠKl":2037,"lage":2038,"ĠErgeb":2039,"Ġdazu":2040,"Ġpublic":2041,"ĠVER":2042,"uring":2043,"ĠWelt":2044,"Ġshall":2045,"inder":2046,"Ġissue":2047,"arn":2048,"vor":2049,"stÃ¼tz":2050,"ikel":2051,"FF":2052,"mb":2053,"Ġexce":2054,"ade":2055,"ĠUmwelt":2056,"Ġihre":2057,"ermanent":2058,"inks":2059,"ĠDok":2060,"rough":2061,"ĠFrance":2062,"Ġdetails":2063,"ĠJustice":2064,"istr":2065,"DF":2066,"EG":2067,"ĠWort":2068,"Ġcontin":2069,"Ġ23":2070,"ĠErklÃ¤r":2071,"Ġfull":2072,"ĠCl":2073,"folger":2074,"Ġdrei":2075,"loy":2076,"unde":2077,"Ġwebsite":2078,"ready":2079,"Ġans":2080,"zeich":2081,"ĠDirect":2082,"ĠWill":2083,"Ġservice":2084,"mittel":2085,"Ġhal":2086,"ĠProt":2087,"ĠMy":2088,"Ġproducts":2089,"ĠChr":2090,"ren":2091,"esser":2092,"ĠMaÃŁnahmen":2093,"ĠTrans":2094,"Ġtechn":2095,"Ġthank":2096,"ĠEntwicklung":2097,"operation":2098,"Ġbeing":2099,"Ġstar":2100,"folgen":2101,"Ġperson":2102,"Ġdann":2103,"352":2104,"Ġprote":2105,"ards":2106,"ott":2107,"gesch":2108,"ĠCour":2109,"Ġkon":2110,"ĠMal":2111,"ĠSpain":2112,"ator":2113,"Ġkomm":2114,"olution":2115,"ĠRepresentative":2116,"ĠRom":2117,"ungsant":2118,"ience":2119,"unity":2120,"linie":2121,"dt":2122,"DE":2123,"Ġpass":2124,"Ġstart":2125,"hip":2126,"Ġhowever":2127,"raft":2128,"ĠLa":2129,"ĠProgramm":2130,"Ġcity":2131,"ĠJo":2132,"ĠmÃ¶glich":2133,"50":2134,"Ġreal":2135,"ĠBild":2136,"Ġche":2137,"ĠNov":2138,"ri":2139,"ĠParliament":2140,"Ġsomething":2141,"Ġwen":2142,"THER":2143,"ĠSlo":2144,"Ġandere":2145,"Ġmin":2146,"Ġwhere":2147,"ĠItaly":2148,"ieden":2149,"ĠComp":2150,"gricult":2151,"ĠItalien":2152,"Ġbin":2153,"ules":2154,"ulation":2155,"ĠAntw":2156,"Ġsecond":2157,"ivers":2158,"Ġsteht":2159,"ĠTechn":2160,"Ġsmall":2161,"eng":2162,"ĠAnt":2163,"Ġreally":2164,"Ġalready":2165,"isk":2166,"Ġreview":2167,"Ġprocess":2168,"ĠZahl":2169,"ĠSchluss":2170,"Ġproced":2171,"ĠSecretary":2172,"itions":2173,"ĠPunkt":2174,"Ġdifferent":2175,"Ġinclud":2176,"Ġ50":2177,"ĠSub":2178,"Ġgel":2179,"rifft":2180,"Ġpay":2181,"reib":2182,"ourg":2183,"Ġschon":2184,"uture":2185,"ĠAut":2186,"TEN":2187,"ĠStates":2188,"ĠGeb":2189,"Ġmillion":2190,"ca":2191,"wirtschaft":2192,"politik":2193,"EI":2194,"ĠRechts":2195,"Ġback":2196,"Ġgilt":2197,"Ã¶ÃŁ":2198,"Ġdire":2199,"ritt":2200,"Ã¤h":2201,"14":2202,"isen":2203,"ĠeuropÃ¤":2204,"ases":2205,"urity":2206,"dition":2207,"ince":2208,"ĠNr":2209,"ichts":2210,"ĠDieser":2211,"Ã¼rlich":2212,"Ġused":2213,"Mail":2214,"mark":2215,"club":2216,"ene":2217,"Ġcost":2218,"ĠPAR":2219,"ĠZiel":2220,"Ġalles":2221,"Ġthrough":2222,"ĠTag":2223,"ĠGemein":2224,"ertain":2225,"OP":2226,"ITTE":2227,"ĠSlow":2228,"Ġvisit":2229,"vers":2230,"Ġprogramme":2231,"ĠLeben":2232,"kunft":2233,"ĠFrankreich":2234,"ING":2235,"ĠUnternehmen":2236,"Ġcustomers":2237,"isation":2238,"Ġmachen":2239,"ĠAre":2240,"SS":2241,"Ġgive":2242,"ĠDaten":2243,"etzung":2244,"thing":2245,"hÃ¤lt":2246,"ove":2247,"86":2248,"ONSTI":2249,"zahl":2250,"ĠNot":2251,"AP":2252,"ĠSpanien":2253,"urz":2254,"ĠQuest":2255,"ĠStand":2256,"auen":2257,"Ã¤ndern":2258,"22":2259,"ĠMob":2260,"yn":2261,"ĠSONSTI":2262,"Ġequ":2263,"ban":2264,"Ġmet":2265,"okoll":2266,"ĠSa":2267,"retÃ¤r":2268,"ĠPermanent":2269,"hol":2270,"Ġclean":2271,"ĠBul":2272,"ĠCourt":2273,"Ġsur":2274,"ache":2275,"Ġ2000":2276,"Ġ000":2277,"rift":2278,"Ġble":2279,"ĠOTHER":2280,"lagen":2281,"ahre":2282,"klich":2283,"ication":2284,"ĠStÃ¤nd":2285,"ĠTE":2286,"vern":2287,"tab":2288,"ĠDieses":2289,"Ġcor":2290,"Ġeinige":2291,"arch":2292,"RI":2293,"ps":2294,"ĠInvest":2295,"ĠPe":2296,"ements":2297,"Ġkl":2298,"room":2299,"ahn":2300,"Ġwollen":2301,"ird":2302,"aum":2303,"ktor":2304,"ĠUnited":2305,"NE":2306,"omor":2307,"ĠBereich":2308,"ĠAg":2309,"Ġcome":2310,"weise":2311,"Ġfolgende":2312,"95":2313,"alth":2314,"ĠGree":2315,"Ġbreakfast":2316,"unkte":2317,"Ġquestions":2318,"lex":2319,"Ġfl":2320,"ĠHostelsclub":2321,"Ġcre":2322,"ĠBeisp":2323,"other":2324,"ĠnÃ¤ch":2325,"ween":2326,"istance":2327,"Ã¼nd":2328,"inge":2329,"Ġviele":2330,"BER":2331,"br":2332,"Ġ100":2333,"ĠProje":2334,"que":2335,"Ġcompan":2336,"ORD":2337,"arm":2338,"ĠFurther":2339,"Ġfav":2340,"ĠBulgar":2341,"imes":2342,"orth":2343,"Ġ2006":2344,"joy":2345,"ĠMehr":2346,"Ġinternational":2347,"scheid":2348,"Ġalways":2349,"ĠSk":2350,"ĠBo":2351,"Ġhappen":2352,"RAN":2353,"Ġwithout":2354,"ised":2355,"ause":2356,"Ġsiehe":2357,"ining":2358,"Ġfact":2359,"clusions":2360,"Ġakt":2361,"ĠMÃ¶":2362,"ĠEUROPÃĦISCHEN":2363,"omorrow":2364,"Ġkommen":2365,"ij":2366,"Ġ295":2367,"Ġimp":2368,"ober":2369,"Ġ?":2370,"ets":2371,"Ġmorgen":2372,"ÃŁen":2373,"ĠAkt":2374,"ublik":2375,"ĠPDF":2376,"ĠProtokoll":2377,"ienst":2378,"fern":2379,"Ġdata":2380,"Ġ27":2381,"Ġerste":2382,"reland":2383,"ĠCON":2384,"Ġaction":2385,"33":2386,"oney":2387,"ritten":2388,"folg":2389,"ĠKÃ¶nig":2390,"Ġinv":2391,"Ġrequire":2392,"Ġeffe":2393,"ash":2394,"ĠGu":2395,"Ġexper":2396,"ĠMad":2397,"BE":2398,"Ġbereits":2399,"iste":2400,"ults":2401,"ĠPROC":2402,"ITI":2403,"ĠMein":2404,"ĠMedien":2405,"dom":2406,"18":2407,"erk":2408,"ĠChrist":2409,"Ġparticular":2410,"ĠIreland":2411,"ende":2412,"Ġfund":2413,"ĠApr":2414,"Ġoper":2415,"zeug":2416,"Ġtomorrow":2417,"ĠEconomic":2418,"inen":2419,"Ġbrauchen":2420,"sterreich":2421,"Ġverb":2422,"\".":2423,"Ġpers":2424,"ĠdafÃ¼r":2425,"ĠMEM":2426,"Ġinvest":2427,"TED":2428,"ĠAustria":2429,"Ġfuture":2430,"Ġpress":2431,"inc":2432,"ĠFinanzen":2433,"zel":2434,"ĠAPP":2435,"ĠNor":2436,"Ġbetween":2437,"Ġbusiness":2438,"Ġ@":2439,"stell":2440,"oints":2441,"minister":2442,"ĠSicherheit":2443,"17":2444,"Ġneuen":2445,"geme":2446,"fte":2447,"ves":2448,"ĠAss":2449,"Ġpra":2450,"folgerungen":2451,"ĠGrie":2452,"Ġgroup":2453,"Ġfew":2454,"Ġsagen":2455,"LA":2456,"satz":2457,"Ġremain":2458,"llent":2459,"Ġvoll":2460,"Ġunserer":2461,"bo":2462,"ĠEmp":2463,"par":2464,"Ġadv":2465,"Ġbefore":2466,"ĠDeshalb":2467,"ĠWelche":2468,"stÃ¤nd":2469,"Ġkle":2470,"ĠKing":2471,"ĠLat":2472,"ĠCOM":2473,"Ġprice":2474,"punkt":2475,"Ġhope":2476,"ĠDEBA":2477,"staaten":2478,"ĠTr":2479,"ĠNieder":2480,"Ġcontacts":2481,"OMMEN":2482,"ĠGreece":2483,"ittee":2484,"ichte":2485,"esen":2486,"ell":2487,"ĠmuÃŁ":2488,"ĠSpiel":2489,"ĠJanu":2490,"19":2491,"tend":2492,"ald":2493,"Ġwaren":2494,"ĠService":2495,"tegr":2496,"ĠWirtschaft":2497,"ĠBitte":2498,"Ġeines":2499,"ĠSCH":2500,"Ġach":2501,"ield":2502,"Ġsign":2503,"annt":2504,"ĠPortug":2505,"05":2506,"Ġabs":2507,"orn":2508,"ĠGriechen":2509,"ars":2510,"Ã¶rder":2511,"Ġstehen":2512,"Ġneeds":2513,"Ġspecial":2514,"ĠLuxembourg":2515,"zieh":2516,"ruck":2517,"lobal":2518,"Ġmeasures":2519,"ĠSeite":2520,"PAN":2521,"ĠJahre":2522,"ĠSan":2523,"Ġbefind":2524,"ktur":2525,"Ġversch":2526,"ransp":2527,"UL":2528,"ĠFinance":2529,"303":2530,"Ġ2001":2531,"ĠStell":2532,"Ġgeb":2533,"Ġbegr":2534,"ritte":2535,"uty":2536,"Ġwish":2537,"Ġbook":2538,"Ġsec":2539,"ĠdaÃŁ":2540,"Ġdevelopment":2541,"Ġgeme":2542,"udget":2543,"Ġbas":2544,"uft":2545,"CE":2546,"Ġspec":2547,"ĠSu":2548,"ĠRE":2549,"atss":2550,"isl":2551,"Ġtot":2552,"genommen":2553,"Ġflo":2554,"ĠMo":2555,"ĠGriechenland":2556,"Ġacce":2557,"ually":2558,"eiten":2559,"ĠÃĸff":2560,"Ġmak":2561,"ĠMich":2562,"ĠwÃ¼r":2563,"agement":2564,"ĠApril":2565,"ĠBen":2566,"Ġthings":2567,"atssek":2568,"Ġ)":2569,"Ġproposal":2570,"201":2571,"Ġsubmitted":2572,"ĠMittel":2573,"ĠDokument":2574,"bt":2575,"ĠMay":2576,"Ġcho":2577,"ipt":2578,"NEH":2579,"reen":2580,"ĠApp":2581,"ĠChina":2582,"ĠPark":2583,"ĠKr":2584,"ari":2585,"ĠThema":2586,"ĠTEIL":2587,"ĠBook":2588,"Ġselbst":2589,"atssekretÃ¤r":2590,"ĠHere":2591,"Ġpriv":2592,"ĠFrÃ¼h":2593,"taurant":2594,"Ġfavour":2595,"Ġanderen":2596,"Ġlevel":2597,"ĠSep":2598,"ĠÃĸsterreich":2599,"IB":2600,"ĠMinutes":2601,"ĠzurÃ¼ck":2602,"ommend":2603,"atch":2604,"ĠwÃ¤re":2605,"ismus":2606,"stÃ¼ck":2607,"Ġsupp":2608,"Ġbetter":2609,"ZI":2610,"ness":2611,"herlands":2612,"ĠDoch":2613,"ĠAnfrage":2614,"ĠSit":2615,"EAS":2616,"ĠBelgium":2617,"ungsantrag":2618,"!!":2619,"man":2620,"Ġorgan":2621,"Ġele":2622,"Ġkm":2623,"vert":2624,"Ġfinan":2625,"less":2626,"ĠKo":2627,"ĠVorschlag":2628,"ister":2629,"Ġservices":2630,"Ġanswer":2631,"ĠLuxemburg":2632,"ided":2633,"stit":2634,"ination":2635,"ino":2636,"amer":2637,"Ġmatter":2638,"Ġforward":2639,"NEHMER":2640,"rauch":2641,"ĠKÃ¶nigreich":2642,"Ġfun":2643,"Ġpoints":2644,"vention":2645,"ierte":2646,"ĠFinn":2647,"Ġber":2648,"Ġ2005":2649,"ĠPOL":2650,"ĠBelgien":2651,"TICI":2652,"MENT":2653,"ÃĸR":2654,"Ġread":2655,"Ġcall":2656,"ype":2657,"Ġ4303":2658,"Ġausge":2659,"ather":2660,"Ġcol":2661,"ĠRuss":2662,"Ġprof":2663,"ĠDec":2664,"ĠIrland":2665,"ftware":2666,"ialog":2667,"mit":2668,"Ġ2003":2669,"ĠAntwort":2670,"AG":2671,"Ġboth":2672,"Ġwirklich":2673,"06":2674,"ĠNetherlands":2675,"ibility":2676,"Ġpack":2677,"ĠMio":2678,"Ġbesten":2679,"ĠPARTICI":2680,"Ġchild":2681,"ĠCol":2682,"verfahren":2683,"agt":2684,"ĠRepublic":2685,"Ġword":2686,"--":2687,"ĠIst":2688,"ĠMEMO":2689,"ĠTEILNEHMER":2690,"itor":2691,"Ġfac":2692,"Ġvoted":2693,"PANTS":2694,"ĠPal":2695,"Ġperfe":2696,"tember":2697,"ished":2698,"Ġfil":2699,"immen":2700,"ĠQuestion":2701,"ĠRepublik":2702,"ctor":2703,"ĠPARTICIPANTS":2704,"Ġbelieve":2705,"ists":2706,"Ġgem":2707,"Ġnichts":2708,"Ġprior":2709,"Ġgeben":2710,"Ã¤ft":2711,"Ġca":2712,"Ġop":2713,"ĠKar":2714,"ĠSoc":2715,"ĠTod":2716,"04":2717,"Ġze":2718,"ĠSweden":2719,"antw":2720,"xim":2721,"Ġobject":2722,"oment":2723,"Ġfest":2724,"ME":2725,"Ġcertain":2726,"Ġmeet":2727,"ĠPortugal":2728,"ĠSer":2729,"Ġ2004":2730,"ffic":2731,"ĠZusammenarbeit":2732,"Ġbr":2733,"CHAF":2734,"uro":2735,"07":2736,"ĠJed":2737,"trib":2738,"Ġlot":2739,"Ġmoney":2740,"ĠNow":2741,"schutz":2742,"unktion":2743,"ĠAG":2744,"Ġtaken":2745,"24":2746,"ĠPreis":2747,"ĠAug":2748,"Ġev":2749,"iges":2750,"IG":2751,"Ġlist":2752,"ĠBank":2753,"Ġletz":2754,"TERN":2755,"ĠKe":2756,"genda":2757,"Ġaddress":2758,"ĠEl":2759,"Ġ26":2760,"ĠEnde":2761,"fung":2762,"ĠWeg":2763,"inistr":2764,"ĠBeit":2765,"Ġcap":2766,"ĠWenn":2767,"Ġput":2768,"Ġeach":2769,"fortable":2770,"ĠDu":2771,"Ġmed":2772,"Ġnice":2773,"Ġseine":2774,"Ġreviews":2775,"IA":2776,"partment":2777,"ILUNG":2778,"emark":2779,"ĠFinland":2780,"licken":2781,"ĠSchlussfolgerungen":2782,"Ġohne":2783,"Ġgef":2784,"Ġ2002":2785,"ĠBest":2786,"Ġconclusions":2787,"lande":2788,"ĠBl":2789,"ĠPROCESS":2790,"bewert":2791,"Ġdiscuss":2792,"Ġcountry":2793,"ĠRichtlinie":2794,"Ġlocated":2795,"Ġaround":2796,"ika":2797,"ĠIhren":2798,"blems":2799,"ĠFeb":2800,"GENOMMEN":2801,"Ġconf":2802,"ĠANGENOMMEN":2803,"Ġdabei":2804,"let":2805,"Ġaller":2806,"ĠStadt":2807,"gaben":2808,"Ġwissen":2809,"Ġselect":2810,"ĠSc":2811,"OV":2812,"Ġeinmal":2813,"Ġfra":2814,"ĠSchweden":2815,"ITTEILUNG":2816,"iving":2817,"Ġ32":2818,"ĠkÃ¶nn":2819,"Ġsk":2820,"ĠUnsere":2821,"Ġrequest":2822,"Ġgemeins":2823,"ĠGeld":2824,"duc":2825,"ovation":2826,"til":2827,"ichtige":2828,"na":2829,"Ġsite":2830,"Ġupd":2831,"ĠRates":2832,"ĠEnergie":2833,"ĠZug":2834,"ĠGet":2835,"ander":2836,"Ġbring":2837,"Ġthose":2838,"ĠKingdom":2839,"ĠEngl":2840,"Ġgar":2841,"Ġgoing":2842,"jects":2843,"Ġnational":2844,"EASE":2845,"hor":2846,"ĠFIN":2847,"ĠMrs":2848,"Ġamend":2849,"gabe":2850,"199":2851,"Ġmember":2852,"Ġquite":2853,"Ġgestimmt":2854,"ference":2855,"ĠSitzung":2856,"Ġwalk":2857,"uments":2858,"ĠRel":2859,"Ġenvironment":2860,"olf":2861,"ittle":2862,"ĠWith":2863,"yl":2864,"Ġdays":2865,"Ġfol":2866,"Ġgleich":2867,"schuss":2868,"Ġallen":2869,"ĠIndustr":2870,"ĠRELEASE":2871,"Ġincre":2872,"Ã¤nemark":2873,"AD":2874,"ĠFirst":2875,"utzen":2876,"falls":2877,"ĠWes":2878,"Ġname":2879,"ppe":2880,"Ã¤tz":2881,"toine":2882,"gesamt":2883,"Ġeasy":2884,"Ġglaub":2885,"folgend":2886,"Ġsitting":2887,"itive":2888,"Ġdesign":2889,"asse":2890,"Ã¤ÃŁ":2891,"In":2892,"ĠgehÃ¶r":2893,"ruktur":2894,"Ġsuccess":2895,"Ġconsider":2896,"ĠNiederlande":2897,"gs":2898,"Ġfamil":2899,"Ġwelcome":2900,"ef":2901,"Ġcomplete":2902,"ÃĸRTER":2903,"IP":2904,"ĠERÃĸRTER":2905,"Ġreason":2906,"bere":2907,"ĠDenmark":2908,"Ġoffers":2909,"Ġrules":2910,"Ġenough":2911,"Ġbesch":2912,"Ġshort":2913,"Ġinterest":2914,"markt":2915,"Ġfriendly":2916,"Ġeigen":2917,"ĠANGENOMMENE":2918,"ĠERÃĸRTERTE":2919,"bewertungen":2920,"Ġdoc":2921,"schl":2922,"ĠNachfolgend":2923,"ĠCommittee":2924,"ĠFinnland":2925,"griculture":2926,"AH":2927,"ĠFOR":2928,"licher":2929,"Ġzwischen":2930,"miss":2931,"allen":2932,"loyment":2933,"lemen":2934,"ift":2935,"ĠImp":2936,"Ġ45":2937,"Ġpresent":2938,"itÃ¤ts":2939,"ĠfÃ¼hr":2940,"ĠDamit":2941,"Ġexample":2942,"isches":2943,"walt":2944,"inal":2945,"ĠLÃ¶s":2946,"ĠDeb":2947,"Ġbeim":2948,"ders":2949,"Ġel":2950,"rach":2951,"ideo":2952,"ĠDÃ¤nemark":2953,"ĠMitgliedstaaten":2954,"ĠSeptember":2955,"avon":2956,"ĠGÃ¤stebewertungen":2957,"ĠPer":2958,"outh":2959,"weis":2960,"ĠInternational":2961,"Ġenjoy":2962,"Ġrespons":2963,"ĠBus":2964,"ROV":2965,"Ġbek":2966,"ielle":2967,"Ġclose":2968,"27":2969,"37":2970,"Ġhelpful":2971,"ĠWORD":2972,"ingle":2973,"ĠHilfe":2974,"Ġhuman":2975,"ias":2976,"ante":2977,"ATIONS":2978,"ĠPROCESSED":2979,"reichen":2980,"ĠVerkehr":2981,"ĠEntschlieÃŁ":2982,"reit":2983,"riften":2984,"ĠFort":2985,"Ġgute":2986,"ĠZur":2987,"Ġ99":2988,"Ġturn":2989,"Ġref":2990,"ĠOne":2991,"ĠDep":2992,"Ġwater":2993,"ĠCar":2994,"Ġcontrol":2995,"ĠStat":2996,"Ġart":2997,"St":2998,"UM":2999,"ĠAir":3000,"des":3001,"Ġweek":3002,"ĠÃ¶ff":3003,"Ġnear":3004,"rÃ¤ge":3005,"Ġimpro":3006,"Ġerhalten":3007,"gress":3008,"ĠWind":3009,"hlt":3010,"omen":3011,"asser":3012,"asst":3013,"Ġpark":3014,"ĠLandwirtschaft":3015,"Ġkommt":3016,"Ġbar":3017,"ARK":3018,"bed":3019,"Ġlittle":3020,"Ġexcellent":3021,"ours":3022,"ĠStrateg":3023,"Ã¤tze":3024,"Ġcut":3025,"burg":3026,"ĠCy":3027,"Ġareas":3028,"jor":3029,"undes":3030,"Ã¶t":3031,"ehm":3032,"ĠKomm":3033,"ĠQual":3034,"igtes":3035,"ec":3036,"Ġbuild":3037,"ron":3038,"cken":3039,"Ġ75":3040,"ĠErgebnisse":3041,"Ġdanke":3042,"AIR":3043,"nell":3044,"Ġdou":3045,"orte":3046,"oss":3047,"Ġquality":3048,"Ġrun":3049,"uge":3050,"Ġold":3051,"Ġcal":3052,"ĠZukunft":3053,"34":3054,"Ġtext":3055,"Ġagreement":3056,"ĠEnvironment":3057,"bewer":3058,"ranspar":3059,"HAL":3060,"Ġsum":3061,"ean":3062,"umen":3063,"Ġeben":3064,"vious":3065,"ĠNovember":3066,"ÃŁe":3067,"ilities":3068,"ived":3069,"ruf":3070,"ĠFisch":3071,"Ġresolution":3072,"ĠSituation":3073,"Ġtool":3074,"Ġseit":3075,"Ġnet":3076,"TO":3077,"Ġresults":3078,"Ġaid":3079,"Ã¼rger":3080,"glichkeit":3081,"IV":3082,"iber":3083,"Ġja":3084,"Ġaddition":3085,"Ġactiv":3086,"ĠFolgen":3087,"ĠSon":3088,"Ġrecommend":3089,"utions":3090,"ĠdÃ¼r":3091,"igures":3092,"stag":3093,"ĠGrÃ¼n":3094,"Ġissues":3095,"ziehungen":3096,"ĠAFF":3097,"chte":3098,"Ġeffect":3099,"ĠMinisterin":3100,"lli":3101,"ĠDevelopment":3102,"ĠDirective":3103,"GES":3104,"ĠJahren":3105,"ĠReform":3106,"Ġenerg":3107,"ĠHung":3108,"Ġkey":3109,"uter":3110,"Ġwithin":3111,"bes":3112,"bau":3113,"oting":3114,"iff":3115,"by":3116,"fang":3117,"Ġopt":3118,"Ġprotection":3119,"ĠAFFAIR":3120,"Ġwenden":3121,"08":3122,"Ġple":3123,"ĠFahr":3124,"ĠAFFAIRS":3125,"ivid":3126,"ĠLie":3127,"stÃ¼tzung":3128,"ĠZe":3129,"ĠVertrag":3130,"ctions":3131,"ĠRecht":3132,"ĠTRAN":3133,"Ġtransport":3134,"ently":3135,"ĠJustiz":3136,"ĠAPPROV":3137,"ĠFebru":3138,"ury":3139,"ames":3140,"ĠProble":3141,"21":3142,"ĠAPPROVED":3143,"AB":3144,"ĠOther":3145,"ning":3146,"ĠGerichts":3147,"Ġcheck":3148,"ĠSozial":3149,"Ġ2015":3150,"ettbewer":3151,"ften":3152,"ĠDann":3153,"Ġproblems":3154,"Ġbro":3155,"Ġret":3156,"Ã¶l":3157,"Ġabsol":3158,"ĠDIE":3159,"Ġmodern":3160,"ĠDEBATED":3161,"Ġbath":3162,"OLITI":3163,"Ġsicher":3164,"ĠForm":3165,"Ġfolgenden":3166,"cript":3167,"ĠPressek":3168,"IK":3169,"Ġlo":3170,"ano":3171,"ENT":3172,"ĠPresse":3173,"sicht":3174,"Ġtalk":3175,"sto":3176,"ĠVereinigtes":3177,"Ġstud":3178,"ĠStra":3179,"ĠYour":3180,"Ġcompet":3181,"Ġlarge":3182,"Ġklar":3183,"ĠFrÃ¼hstÃ¼ck":3184,"Ġdaher":3185,"Ġdoch":3186,"ĠProgramme":3187,"ĠSocial":3188,"Das":3189,"Ġuntil":3190,"arliament":3191,"ĠPOLIC":3192,"agen":3193,"Ġsl":3194,"ĠHotels":3195,"ĠKinder":3196,"got":3197,"Ġminutes":3198,"Ġkosten":3199,"ĠTur":3200,"assung":3201,"Ġlet":3202,"onia":3203,"Ġpres":3204,"ĠHin":3205,"Ġkind":3206,"Ġfood":3207,"Ġaway":3208,"Ġcomfortable":3209,"Ar":3210,"ennen":3211,"ites":3212,"Ġitem":3213,"cel":3214,"Ġje":3215,"31":3216,"ĠSome":3217,"Ġcentre":3218,"ĠTour":3219,"ĠDES":3220,"ically":3221,"Ġdevelop":3222,"gang":3223,"isierung":3224,"Ġhome":3225,"ĠChe":3226,"ĠSystem":3227,"Ġeing":3228,"ĠIns":3229,"Ġbietet":3230,"leit":3231,"Ġlaw":3232,"STAT":3233,"ĠGl":3234,"enk":3235,"ĠMÃ¤r":3236,"ĠZw":3237,"ĠFlug":3238,"Ġdamit":3239,"Ġbig":3240,"ĠPoland":3241,"Ġterm":3242,"Ġlife":3243,"illa":3244,"EIN":3245,"Ġless":3246,"pre":3247,"ential":3248,"ĠTele":3249,"ĠAmer":3250,"Ġfloor":3251,"ĠAfter":3252,"tschafts":3253,"Ġmov":3254,"ichten":3255,"Ġextre":3256,"ĠMill":3257,"uli":3258,"ĠEntscheid":3259,"ody":3260,"ĠHerrn":3261,"ross":3262,"ocus":3263,"ĠAfr":3264,"achen":3265,"Ġprom":3266,"Ġvalue":3267,"OT":3268,"ĠÃ¤":3269,"anc":3270,"med":3271,"orten":3272,"Ġhist":3273,"ave":3274,"ugen":3275,"ĠBeispiel":3276,"Ġtre":3277,"prÃ¼":3278,"otal":3279,"ĠFINAN":3280,"eut":3281,"ĠDenn":3282,"Ġlegisl":3283,"Ġatt":3284,"ultur":3285,"Ġmonth":3286,"IM":3287,"Ġenergy":3288,"Ġtop":3289,"resse":3290,"OLITIK":3291,"CC":3292,"ĠVertreter":3293,"ulture":3294,"tzen":3295,"ĠEIB":3296,"TSCHAF":3297,"iod":3298,"Ġ..":3299,"An":3300,"ĠArtikel":3301,"Ġtotal":3302,"Der":3303,"ĠDaher":3304,"Ġbeach":3305,"Ġanother":3306,"ĠPOLICY":3307,"Ġreform":3308,"IRTSCHAF":3309,"28":3310,"ĠZum":3311,"ĠText":3312,"ĠPolen":3313,"26":3314,"yr":3315,"ima":3316,"ĠUnterstÃ¼tzung":3317,"Ġmacht":3318,"ology":3319,"36":3320,"ĠRegel":3321,"oto":3322,"Ġmeans":3323,"ared":3324,"iation":3325,"ferenz":3326,"ini":3327,"incip":3328,"Ã¤mp":3329,"cher":3330,"ĠGroup":3331,"Ġtax":3332,"Ġgrow":3333,"atte":3334,"Ġmention":3335,"aterial":3336,"Ġprocedure":3337,"ĠIII":3338,"ĠGegen":3339,"Pro":3340,"lungs":3341,"Ġeuro":3342,"Ġthing":3343,"undheit":3344,"Ġverl":3345,"Ġ]":3346,"Ġclick":3347,"ĠMus":3348,"ĠVerfahren":3349,"Ġ02":3350,"Ġhim":3351,"Ġapproach":3352,"48":3353,"ling":3354,"Ġtimes":3355,"Ġentsp":3356,"ducation":3357,"Ã¤ng":3358,"EK":3359,"anken":3360,"rad":3361,"ĠJuly":3362,"ĠCas":3363,"ĠnatÃ¼rlich":3364,"hin":3365,"ĠSw":3366,"ums":3367,"Ġ35":3368,"ĠPrÃ¤sidentin":3369,"Ġreach":3370,"ana":3371,"Ġnie":3372,"Ġsince":3373,"cause":3374,"Ġstrateg":3375,"kauf":3376,"Ġfour":3377,"ĠOb":3378,"ĠJune":3379,"Ġgehen":3380,"oten":3381,"adies":3382,"Ã¤hlen":3383,"Ġcompany":3384,"Ġbl":3385,"amm":3386,"HEIT":3387,"ĠArbeits":3388,"Ġwhole":3389,"unter":3390,"AK":3391,"angen":3392,"ĠPunkte":3393,"ĠAgriculture":3394,"SA":3395,"Ġversion":3396,"ications":3397,"uÃŁen":3398,"TERNAL":3399,"ply":3400,"Ġnimmt":3401,"Ġlanguage":3402,"SCH":3403,"hang":3404,"ĠVerfÃ¼g":3405,"Ġshe":3406,"elf":3407,"bild":3408,"za":3409,"Ġfield":3410,"ystems":3411,"Ġweit":3412,"ĠPa":3413,"Ġgenau":3414,"itÃ¤ten":3415,"dings":3416,"Ġrights":3417,"ĠLassen":3418,"onds":3419,"ĠAugust":3420,"pend":3421,"otos":3422,"ĠSiehe":3423,"Ġwerde":3424,"ĠAlso":3425,"Ġduring":3426,"Ġbudget":3427,"Ġvar":3428,"ffice":3429,"ĠStud":3430,"ension":3431,"38":3432,"Ġlim":3433,"ĠLit":3434,"ĠMarkt":3435,"ĠStaatssekretÃ¤r":3436,"ondere":3437,"Ġbecome":3438,"veral":3439,"Ġbesteht":3440,"ĠLanguage":3441,"Ġkom":3442,"hnt":3443,"ĠGerichtshof":3444,"halts":3445,"ĠbegrÃ¼":3446,"imate":3447,"Ġprojects":3448,"Ġallow":3449,"Ġindustr":3450,"ĠPolitik":3451,"ĠProbleme":3452,"legt":3453,"Ġunseren":3454,"Ġpract":3455,"Ġmen":3456,"ĠVon":3457,"ĠverfÃ¼g":3458,"okrat":3459,"uc":3460,"wick":3461,"ners":3462,"ands":3463,"ĠEUROSTAT":3464,"Ġdiff":3465,"ĠEinzel":3466,"Ġproject":3467,"Ġdefin":3468,"Ġtrue":3469,"Ġinclude":3470,"Ġchildren":3471,"via":3472,"usch":3473,"ĠFamil":3474,"Ã¤nde":3475,"fo":3476,"Ġdavon":3477,"Ġnecess":3478,"clud":3479,"itiative":3480,"ving":3481,"fa":3482,"Ġtown":3483,"Ġdeal":3484,"Ġdarf":3485,"TU":3486,"ĠWho":3487,"ĠWhere":3488,"treten":3489,"reg":3490,"ĠEvery":3491,"Ġ40":3492,"Ġcontrib":3493,"Ġmajor":3494,"app":3495,"ja":3496,"ump":3497,"ival":3498,"Ġcurrently":3499,"ĠTotal":3500,"ĠPublic":3501,"Ġable":3502,"Ġguests":3503,"ession":3504,"ĠMarch":3505,"val":3506,"ĠBil":3507,"Ġnothing":3508,"entliche":3509,"Ġsocial":3510,"ĠGar":3511,"ĠGru":3512,"ĠMeine":3513,"Ġnight":3514,"tag":3515,"Ġcare":3516,"garn":3517,"Ġpolitical":3518,"ĠNational":3519,"Ġregard":3520,"ker":3521,"ĠDurch":3522,"zech":3523,"ontro":3524,"fragen":3525,"Ġcontinue":3526,"Ġleft":3527,"ĠErklÃ¤rungen":3528,"Ġthird":3529,"ĠAnne":3530,"ches":3531,"ĠCypr":3532,"Ġdecision":3533,"ĠSONSTIGE":3534,"ĠHaupt":3535,"isa":3536,"ielt":3537,"ĠEX":3538,"ĠCost":3539,"Ġgiven":3540,"Ġeinz":3541,"ĠErw":3542,"Ġperfect":3543,"ĠMer":3544,"ĠwÃ¼rde":3545,"Ġpict":3546,"Ġresult":3547,"Ġelect":3548,"ĠWirtschafts":3549,"hler":3550,"self":3551,"ĠCent":3552,"Ġlearn":3553,"ĠBundes":3554,"ĠunterstÃ¼":3555,"Ġbesonder":3556,"aster":3557,"ĠFed":3558,"Ġextrem":3559,"bereich":3560,"ufen":3561,"orm":3562,"ĠAnsp":3563,"Ġnoon":3564,"ser":3565,"Ġinde":3566,"Ġtrade":3567,"Ġfinancial":3568,"lement":3569,"gether":3570,"ĠDeputy":3571,"kten":3572,"Ġwr":3573,"icle":3574,"ĠZwe":3575,"ification":3576,"Ã¼tz":3577,"Ġchar":3578,"ĠTransport":3579,"39":3580,"ichter":3581,"ĠHome":3582,"ĠRÃ¼ck":3583,"Ġbit":3584,"Ġproduct":3585,"Ġposition":3586,"aps":3587,"ĠgrÃ¶ÃŁ":3588,"ĠMil":3589,"Ġimple":3590,"uh":3591,"ĠTRANSP":3592,"Parliament":3593,"ĠAL":3594,"Ġyet":3595,"Ġprincip":3596,"ĠIhrer":3597,"Ġtour":3598,"ily":3599,"ĠWettbewer":3600,"ĠBÃ¼rger":3601,"zug":3602,"ĠFollow":3603,"ĠverfÃ¼gbar":3604,"ona":3605,"Ġlang":3606,"Ġspeaker":3607,"ĠCyprus":3608,"Ġint":3609,"ĠColom":3610,"wards":3611,"Ġbeginn":3612,"esse":3613,"ĠHungary":3614,"Ġmot":3615,"ĠCzech":3616,"Ġbeaut":3617,"ources":3618,"Ġ93":3619,"Ġdownload":3620,"Ġfeel":3621,"ativ":3622,"Ġlassen":3623,"ĠNun":3624,"riter":3625,"Ġdifficult":3626,"ĠlÃ¤":3627,"ĠPat":3628,"Ġworking":3629,"Ġ1999":3630,"Ġenter":3631,"entrum":3632,"ĠDienst":3633,"Ġglaube":3634,"Ġ2011":3635,"ĠVerbrauch":3636,"vorsch":3637,"ĠFax":3638,"Ġaim":3639,"ĠMain":3640,"Ġparticip":3641,"iben":3642,"ĠUngarn":3643,"Ġprices":3644,"Ġarbeit":3645,"ĠgroÃŁe":3646,"ĠMobil":3647,"isher":3648,"Ġplan":3649,"ypern":3650,"29":3651,"ĠShe":3652,"Ġagree":3653,"ĠGesundheit":3654,"ĠWeb":3655,"Ġmoment":3656,"ĠVery":3657,"ĠHouse":3658,"iner":3659,"verkehr":3660,"Ġ546":3661,"Ġkurz":3662,"fÃ¼hrt":3663,"ĠWoch":3664,"log":3665,"Ġschnell":3666,"asch":3667,"2001":3668,"44":3669,"oren":3670,"ĠMet":3671,"Ġrele":3672,"Ġlinks":3673,"Ġdoing":3674,"Ġgeneral":3675,"ĠOct":3676,"Ġed":3677,"llt":3678,"ĠSchutz":3679,"65":3680,"aters":3681,"atis":3682,"Ġ31":3683,"Ġbefindet":3684,"ĠLebens":3685,"Ġmus":3686,"ĠIV":3687,"ahmen":3688,"ĠAv":3689,"Ġangenommen":3690,"ĠClick":3691,"osition":3692,"ĠAngeb":3693,"Ġinn":3694,"ots":3695,"error":3696,"Ġentfern":3697,"ĠSol":3698,"Ġdarauf":3699,"ennt":3700,"weg":3701,"pekt":3702,"ized":3703,"ĠEnglish":3704,"chten":3705,"ĠWahl":3706,"Ġshow":3707,"kungen":3708,"ĠJa":3709,"sser":3710,"ITH":3711,"ĠMaria":3712,"schech":3713,"ĠLin":3714,"Ġrespect":3715,"hmer":3716,"oor":3717,"ĠRedner":3718,"Ġseem":3719,"ada":3720,"frast":3721,"ĠPlan":3722,"ĠHandel":3723,"gese":3724,"enien":3725,"ĠIM":3726,"ength":3727,"sh":3728,"ĠUp":3729,"Ġjeden":3730,"inuten":3731,"ĠPartner":3732,"Ġfolgt":3733,"mÃ¶":3734,"ĠSloven":3735,"bank":3736,"ehen":3737,"vak":3738,"enzen":3739,"ĠDr":3740,"ged":3741,"ports":3742,"ĠÃĸffentlich":3743,"ĠBug":3744,"ĠZypern":3745,"itizen":3746,"Ġselector":3747,"iar":3748,"Ġholid":3749,"uper":3750,"ĠForsch":3751,"ĠGeschÃ¤":3752,"kung":3753,"Ġpop":3754,"ĠWorld":3755,"ĠFrom":3756,"ĠVII":3757,"Ġstation":3758,"isions":3759,"Ġdirekt":3760,"ĠdÃ¼rfen":3761,"umer":3762,"ising":3763,"ĠSuch":3764,"Ġgan":3765,"ource":3766,"Ġerreichen":3767,"Ġfinal":3768,"PL":3769,"ka":3770,"Ġbal":3771,"zept":3772,"stellung":3773,"IEN":3774,"Ġoffen":3775,"ĠVerfÃ¼gung":3776,"Ġsector":3777,"ĠUSA":3778,"Ġopin":3779,"antwort":3780,"aper":3781,"ĠMag":3782,"ĠCommunity":3783,"Ġbenef":3784,"zo":3785,"Ġeinge":3786,"ithu":3787,"89":3788,"Ġtest":3789,"Ġlooking":3790,"vertreter":3791,"iful":3792,"folgt":3793,"omat":3794,"ĠCurrent":3795,"Ġnehmen":3796,"ĠDate":3797,"Ġpower":3798,"ĠCons":3799,"Art":3800,"70":3801,"Ġnon":3802,"ĠDazu":3803,"ĠIde":3804,"ĠHerren":3805,"Ġkeinen":3806,"Ġindivid":3807,"under":3808,"Ġlog":3809,"ĠZiele":3810,"Ġjeder":3811,"mut":3812,"opp":3813,"ĠBerlin":3814,"Ġinstall":3815,"Ġnever":3816,"Die":3817,"affen":3818,"Ġweb":3819,"ĠErfolg":3820,"Ġzusammen":3821,"Ġconne":3822,"IF":3823,"Ġersten":3824,"Ġentfernt":3825,"Ġdate":3826,"iting":3827,"Ġerwar":3828,"ĠnÃ¤chsten":3829,"inner":3830,"unately":3831,"ĠCor":3832,"Ġopport":3833,"ĠRum":3834,"Ġspecific":3835,"ĠBucht":3836,"Ġcommon":3837,"vernment":3838,"Ġann":3839,"igr":3840,"Ġfa":3841,"Ġhostels":3842,"lock":3843,"ĠAls":3844,"ĠDown":3845,"emp":3846,"redit":3847,"urp":3848,"entlemen":3849,"ĠErklÃ¤rung":3850,"onger":3851,"ĠDamen":3852,"alle":3853,"Ġprogress":3854,"80":3855,"raum":3856,"nehmer":3857,"Ġarr":3858,"Ġcooperation":3859,"ĠPRESSEM":3860,"ASS":3861,"Ġeverything":3862,"ĠBem":3863,"ĠOf":3864,"iety":3865,"ĠTrade":3866,"ĠGD":3867,"auer":3868,"ĠeuropÃ¤ische":3869,"ĠPRESSEMITTEILUNG":3870,"haus":3871,"ĠWelcome":3872,"ĠSlovenia":3873,"UD":3874,"ĠAntoine":3875,"Ġschw":3876,"bil":3877,"ĠKultur":3878,"Ġneeded":3879,"NEN":3880,"64":3881,"ithuania":3882,"anges":3883,"Ã¶rderung":3884,"ises":3885,"Ġfile":3886,"ĠTÃ¼r":3887,"ichtigt":3888,"HALT":3889,"ĠFil":3890,"Ġsteps":3891,"ested":3892,"Ġsingle":3893,"Ġpool":3894,"Ġcomments":3895,"akt":3896,"fet":3897,"Ġnote":3898,"ĠKosten":3899,"67":3900,"va":3901,"Ġerst":3902,"Ġmean":3903,"Ã¤ndert":3904,"ĠPersonen":3905,"ĠSlovak":3906,"NER":3907,"Ġperiod":3908,"55":3909,"Ġvier":3910,"Ġverschieden":3911,"go":3912,"ique":3913,"Ġfunktion":3914,"ĠThen":3915,"Ġnecessary":3916,"wand":3917,"ĠJetzt":3918,"Ġprivate":3919,"ief":3920,"leist":3921,"igital":3922,"ĠNÃ¤":3923,"ĠSal":3924,"bei":3925,"partner":3926,"ĠNur":3927,"ĠÃĦnderungsantrag":3928,"roat":3929,"ĠMin":3930,"achst":3931,"ĠOctober":3932,"etzen":3933,"Ġfast":3934,"ĠMarket":3935,"imme":3936,"ĠBeschÃ¤ft":3937,"ĠLÃ¶sung":3938,"ros":3939,"ĠFund":3940,"istan":3941,"ĠWindows":3942,"Ġihn":3943,"Ġgerne":3944,"ĠFo":3945,"Ġbeh":3946,"sequ":3947,"ivil":3948,"ĠFortsch":3949,"ai":3950,"ĠLithuania":3951,"ksam":3952,"ĠTschech":3953,"Ġseveral":3954,"ĠSlowenien":3955,"ĠJanuary":3956,"ying":3957,"ĠVertre":3958,"lÃ¤ge":3959,"llig":3960,"USTI":3961,"Ġpa":3962,"ĠLÃ¤nder":3963,"Ã¤nger":3964,"Ġcosts":3965,"irm":3966,"ultation":3967,"Ġsimply":3968,"Ġcorre":3969,"eres":3970,"int":3971,"ĠSum":3972,"Ġregion":3973,"ceed":3974,"Ġcharge":3975,"ĠBesuch":3976,"Ġnews":3977,"ĠStÃ¤ndigen":3978,"lungen":3979,"ĠSO":3980,"ĠFree":3981,"apan":3982,"ĠMai":3983,"Ġsolution":3984,"ined":3985,"ikation":3986,"Ġfamily":3987,"fre":3988,"Ġexist":3989,"Ġbereit":3990,"60":3991,"zess":3992,"Ġbieten":3993,"ty":3994,"ĠKann":3995,"ĠSchrift":3996,"ĠkÃ¶nnte":3997,"fasst":3998,"Ġtas":3999,"ĠDan":4000,"ĠMor":4001,"Ġsubject":4002,"Ġglobal":4003,"ĠEstonia":4004,"wh":4005,"Ġintegr":4006,"ĠOrt":4007,"Ġexperience":4008,"ĠAgenda":4009,"Ġgesagt":4010,"bani":4011,"Ġwaters":4012,"stru":4013,"Ġlange":4014,"Ġauthor":4015,"49":4016,"ĠAUS":4017,"ĠVertreters":4018,"DER":4019,"orge":4020,"letz":4021,"ĠHel":4022,"Ġprovide":4023,"ĠRoom":4024,"rid":4025,"ĠTages":4026,"Ġeconomic":4027,"ĠFar":4028,"ĠOpen":4029,"Ġworden":4030,"ĠColombani":4031,"Ġdeut":4032,"ĠGew":4033,"ĠPressekontakt":4034,"ĠLett":4035,"Ġbesser":4036,"Ġbetrifft":4037,"ĠRegion":4038,"Ġbleibt":4039,"ĠWichtig":4040,"Ġve":4041,"Ġredu":4042,"ĠJUSTI":4043,"ences":4044,"alen":4045,"Ġstop":4046,"ĠSecurity":4047,"ĠProdukte":4048,"ĠProjekt":4049,"Ġhealth":4050,"Ġwind":4051,"Ġmembers":4052,"Ġhoffe":4053,"ĠRomania":4054,"ĠLitauen":4055,"wÃ¤sser":4056,"ton":4057,"ability":4058,"Ġorig":4059,"Ġ299":4060,"ĠListe":4061,"Ġachie":4062,"iere":4063,"Ġsend":4064,"ĠerklÃ¤r":4065,"IRTSCHAFT":4066,"information":4067,"gew":4068,"ĠLatvia":4069,"ency":4070,"ĠSehr":4071,"gment":4072,"ĠFISCH":4073,"Ġsozial":4074,"ructure":4075,"ko":4076,"2007":4077,"thers":4078,"Ġusing":4079,"rÃ¤gt":4080,"ppen":4081,"prochen":4082,"ĠPolicy":4083,"Ġtools":4084,"fety":4085,"amb":4086,"Ã¤nien":4087,"ĠAusschuss":4088,"risis":4089,"ĠEstland":4090,"Ġmind":4091,"ĠBuch":4092,"ĠGleich":4093,"Ġeng":4094,"ĠDinge":4095,"ORT":4096,"ĠWasser":4097,"schein":4098,"ĠHeute":4099,"ZIEH":4100,"PS":4101,"ĠNicht":4102,"Ġnetwork":4103,"EIT":4104,"ĠGibt":4105,"Ġline":4106,"Ġdenke":4107,"ager":4108,"Ġroad":4109,"Ġwords":4110,"arte":4111,"ense":4112,"ĠhÃ¶":4113,"Ġreserv":4114,"Ġerstellt":4115,"ĠLettland":4116,"fehl":4117,"Ġrest":4118,"Ã¶ffnet":4119,"Ġsus":4120,"ĠCom":4121,"ĠReport":4122,"Ã¤chst":4123,"ĠProdukt":4124,"ĠUnser":4125,"ĠZugang":4126,"Ġlive":4127,"gangen":4128,"Ġassistance":4129,"ĠAgre":4130,"ĠweiÃŁ":4131,"uropa":4132,"ĠGeschÃ¤fts":4133,"ĠPra":4134,"Ã¼l":4135,"ISS":4136,"Ġitself":4137,"Ġinvol":4138,"Ġmar":4139,"ĠWITH":4140,"ume":4141,"ĠSchritte":4142,"gency":4143,"Ã¤d":4144,"Ġkeep":4145,"ĠInnovation":4146,"han":4147,"kon":4148,"wegen":4149,"Ġmess":4150,"Ġhouse":4151,"ĠRumÃ¤nien":4152,"Ġdenn":4153,"Ġnah":4154,"Ġreturn":4155,"itizens":4156,"Ġgraph":4157,"Ġserious":4158,"Ġbathroom":4159,"Ġmob":4160,"ĠNews":4161,"Ġhard":4162,"Ġrate":4163,"telle":4164,"Ġfeat":4165,"arly":4166,"TIN":4167,"Ġpositive":4168,"Ġunderstand":4169,"ĠUms":4170,"ĠPreise":4171,"reibung":4172,"ZIEHUNGEN":4173,"Ġsecurity":4174,"Ġmakes":4175,"ki":4176,"Ġsele":4177,"Ġgame":4178,"Ġverw":4179,"Ġconcerns":4180,"gleich":4181,"ĠwÃ¼n":4182,"ierungs":4183,"itionen":4184,"kra":4185,"Ġinform":4186,"ĠNamen":4187,"ontrol":4188,"CIAL":4189,"ĠBulgaria":4190,"ĠDis":4191,"Ġtogether":4192,"ĠFinancial":4193,"ĠMicha":4194,"ĠEntscheidung":4195,"ĠAllgeme":4196,"47":4197,"fÃ¤h":4198,"ĠAnnex":4199,"UB":4200,"liches":4201,"zimmer":4202,"Ġir":4203,"Ġstellen":4204,"Ġstep":4205,"ĠMany":4206,"Ġside":4207,"ĠEd":4208,"Ġocc":4209,"ĠRahmen":4210,"ĠVors":4211,"Ġ80":4212,"setzung":4213,"reif":4214,"ĠTO":4215,"Ġpackage":4216,"Ġet":4217,"ĠJuni":4218,"uÃŁerdem":4219,"uelle":4220,"see":4221,"Ġ2013":4222,"ĠReal":4223,"Ġunserem":4224,"fortunately":4225,"ĠVol":4226,"onn":4227,"Ġsea":4228,"Ġsprechen":4229,"ĠSÃ¼":4230,"rodu":4231,"lax":4232,"ĠCommun":4233,"conomy":4234,"ĠVis":4235,"key":4236,"ĠSchul":4237,"partments":4238,"Ġsimple":4239,"ĠRELATIONS":4240,"LICH":4241,"ĠSim":4242,"ĠschÃ¶n":4243,"Ġideal":4244,"ĠBulgarien":4245,"Ġzweite":4246,"ĠStÃ¤ndiger":4247,"pected":4248,"zÃ¼":4249,"ĠAUSS":4250,"Ġpat":4251,"tabl":4252,"lliard":4253,"rÃ¤n":4254,"Ġx":4255,"ĠTre":4256,"ĠMac":4257,"ĠJuli":4258,"ĠProf":4259,"ĠFest":4260,"ĠBelliard":4261,"Ġattention":4262,"88":4263,"ĠCH":4264,"Ġrestaurant":4265,"Ġ296":4266,"VER":4267,"berg":4268,"ĠAbkommen":4269,"Ġtyp":4270,"ĠErst":4271,"ĠToday":4272,"Ġgl":4273,"OD":4274,"lichkeit":4275,"Ġrole":4276,"ITY":4277,"igation":4278,"ternal":4279,"Ab":4280,"of":4281,"term":4282,"stad":4283,"ĠRolle":4284,"Ġlink":4285,"ĠBeziehungen":4286,"Ġinternet":4287,"ĠCOMM":4288,"23":4289,"ĠWritten":4290,"idence":4291,"ĠGemeins":4292,"Ġteil":4293,"ĠIhrem":4294,"ĠDecember":4295,"Ġextremely":4296,"ĠSlovakia":4297,"Ġpost":4298,"cing":4299,"Ġ2012":4300,"Ġcover":4301,"igkeiten":4302,"ĠDabei":4303,"ĠBinnen":4304,"ĠNatur":4305,"Ġincluded":4306,"ptable":4307,"ĠSeit":4308,"Ġfair":4309,"2000":4310,"Ġsieht":4311,"oung":4312,"Ġsoon":4313,"earch":4314,"Ġerforder":4315,"ĠDownload":4316,"itors":4317,"Ġhoch":4318,"akei":4319,"Ġbleiben":4320,"ĠTschechische":4321,"teile":4322,"ĠEG":4323,"ĠunterstÃ¼tzen":4324,"ĠÃ¼":4325,"ĠDav":4326,"Ġmiss":4327,"ĠRegionen":4328,"Ġstate":4329,"Ġ2014":4330,"Artikel":4331,"ĠMÃ¤rz":4332,"ones":4333,"ĠAud":4334,"Ġmil":4335,"ĠKat":4336,"Ġdort":4337,"ĠMinuten":4338,"ĠBES":4339,"ĠOper":4340,"ĠKomp":4341,"ĠEinige":4342,"Ġbeautiful":4343,"utet":4344,"Ġaccept":4345,"mÃ¤ÃŁ":4346,"ĠWebs":4347,"Ġbelow":4348,"Ġihnen":4349,"most":4350,"side":4351,"wahl":4352,"Ġallem":4353,"Ġur":4354,"reet":4355,"EHR":4356,"wertung":4357,"ĠSchriftliche":4358,"ĠDez":4359,"Ġpurp":4360,"ĠverfÃ¼":4361,"ĠKons":4362,"ĠEnergy":4363,"ĠSlowakei":4364,"Ġu":4365,"ream":4366,"ĠBas":4367,"ĠJav":4368,"UND":4369,"mework":4370,"ĠOrgan":4371,"Ġmeeting":4372,"Ġebenfalls":4373,"Ġtreat":4374,"arf":4375,"schied":4376,"Ġchallen":4377,"iled":4378,"ĠOnly":4379,"ÃľR":4380,"hilfe":4381,"Ġwa":4382,"imal":4383,"Ġdemoc":4384,"flicht":4385,"ĠArbeitsp":4386,"stitution":4387,"ĠTV":4388,"ĠDom":4389,"ĠDialog":4390,"Ġopp":4391,"iken":4392,"arante":4393,"over":4394,"Ġpersonal":4395,"AV":4396,"ĠEW":4397,"Ġaccount":4398,"ĠMadam":4399,"ĠBenutz":4400,"Ġsure":4401,"ĠSP":4402,"ller":4403,"ĠNein":4404,"ĠMÃ¶glichkeit":4405,"ĠCase":4406,"quir":4407,"Ġrichtig":4408,"ĠAmend":4409,"ĠFischere":4410,"ba":4411,"unch":4412,"Ġhours":4413,"ĠFrauen":4414,"Ġfront":4415,"Ġnahm":4416,"HER":4417,"ichtet":4418,"Ġresearch":4419,"ĠDemokrat":4420,"ĠLoc":4421,"ples":4422,"SPOLITIK":4423,"fÃ¼hrung":4424,"idency":4425,"Ġmis":4426,"ĠUse":4427,"ĠVerbraucher":4428,"atur":4429,"Ġhatte":4430,"ording":4431,"ĠPeter":4432,"ĠCONTEN":4433,"bereit":4434,"IER":4435,"Ġproposals":4436,"ĠÃĸffentlichkeit":4437,"uck":4438,"ĠEben":4439,"ĠBUS":4440,"ĠUnivers":4441,"Ġlead":4442,"ĠbenÃ¶t":4443,"ĠMichael":4444,"ĠSport":4445,"Ġmark":4446,"Ã¤uf":4447,"Ġlonger":4448,"ĠRelease":4449,"Ġdra":4450,"ĠDim":4451,"ESC":4452,"ĠKap":4453,"ĠPlay":4454,"large":4455,"Ġtraining":4456,"ĠheiÃŁ":4457,"Ġ142":4458,"igration":4459,"Ġak":4460,"ichen":4461,"GER":4462,"orted":4463,"Ġ60":4464,"Ġonce":4465,"ĠTherefore":4466,"ĠINHALT":4467,"Ġshare":4468,"Ġhead":4469,"rim":4470,"text":4471,"Ġgra":4472,"ili":4473,"87":4474,"met":4475,"ĠAD":4476,"Ġstuff":4477,"zw":4478,"Ġextra":4479,"85":4480,"Ġgener":4481,"reicht":4482,"Ġrelations":4483,"hod":4484,"ita":4485,"ĠBy":4486,"ĠON":4487,"1040":4488,"EMEIN":4489,"Ġreasons":4490,"ĠSONSTIGES":4491,"Ġliegen":4492,"wendung":4493,"ĠgehÃ¶rt":4494,"bet":4495,"Ġrelax":4496,"ova":4497,"Ġbede":4498,"Ġbeiden":4499,"ĠTreat":4500,"Ġnor":4501,"ĠGra":4502,"ĠGesamt":4503,"ĠPhil":4504,"voll":4505,"ĠCD":4506,"liegen":4507,"ĠCONTENTS":4508,"ĠAuÃŁen":4509,"Ġbuilding":4510,"ĠÃ¤ndern":4511,"ĠOkt":4512,"ĠWork":4513,"Ġbecause":4514,"rief":4515,"arian":4516,"stellen":4517,"Ġmeiner":4518,"uffet":4519,"blick":4520,"Ġsw":4521,"Ġevent":4522,"ĠKunden":4523,"abel":4524,"ategor":4525,"Ġabsolute":4526,"bung":4527,"Ġprogram":4528,"Ġwenig":4529,"UT":4530,"hnen":4531,"ony":4532,"Ġoften":4533,"Ġapartment":4534,"lling":4535,"ele":4536,"Ġtable":4537,"MW":4538,"atul":4539,"eg":4540,"stadt":4541,"iations":4542,"racy":4543,"ĠJapan":4544,"kÃ¤mp":4545,"Ġtype":4546,"Ġstellt":4547,"hes":4548,"Ġcrisis":4549,"ĠVersion":4550,"Ġkostenlos":4551,"eu":4552,"Ġsow":4553,"aff":4554,"Ã¤ter":4555,"Ġ70":4556,"Ġhig":4557,"ierten":4558,"ĠSubject":4559,"Ã¼nft":4560,"ĠGood":4561,"ric":4562,"Ġfal":4563,"raq":4564,"Ġrequired":4565,"hÃ¶":4566,"inz":4567,"ips":4568,"ĠLinks":4569,"NEX":4570,"Ġimplement":4571,"ios":4572,"ĠFa":4573,"Ġnotwend":4574,"Ġquick":4575,"Ġgetan":4576,"ACH":4577,"ministr":4578,"ĠDisk":4579,"Ġ09":4580,"aufen":4581,"Ġverste":4582,"IES":4583,"ĠBefore":4584,"Ġ04":4585,"platz":4586,"full":4587,"ĠTage":4588,"gestellt":4589,"ĠRad":4590,"ĠKlicken":4591,"ola":4592,"ĠNote":4593,"ĠerhÃ¤lt":4594,"reiben":4595,"ĠAUSSEN":4596,"ĠTime":4597,"ĠANNEX":4598,"Ġreceive":4599,"ĠStellvertreter":4600,"Ġdi":4601,"anta":4602,"ĠJud":4603,"Ġgee":4604,"ALL":4605,"Ġcommun":4606,"ĠTRA":4607,"Ġlater":4608,"INESS":4609,"Ġfollows":4610,"Ġfreuen":4611,"kraine":4612,"uz":4613,"stra":4614,"Ġrecht":4615,"lad":4616,"Ġmanagement":4617,"Ġ1998":4618,"ĠMod":4619,"ingungen":4620,"Ġport":4621,"ĠFer":4622,"ĠunterstÃ¼tz":4623,"umente":4624,"ĠFederal":4625,"ĠBemerk":4626,"ditions":4627,"tig":4628,"Ġstatements":4629,"Rule":4630,"Ġlight":4631,"ĠBUSINESS":4632,"ex":4633,"ĠVI":4634,"ĠBildung":4635,"prÃ¤sident":4636,"ĠGraph":4637,"Ġestabl":4638,"Ġcomes":4639,"Ġinsgesamt":4640,"REN":4641,"ented":4642,"ĠHaushalts":4643,"ĠFebruary":4644,"Ġess":4645,"ĠKommissarin":4646,"rechpartner":4647,"GRA":4648,"Ġvielen":4649,"ĠRue":4650,"ĠVerwalt":4651,"Ġ500":4652,"Ġsitu":4653,"Ã¼nst":4654,"ĠNext":4655,"ĠPriv":4656,"ĠVerbesser":4657,"Ġbesonders":4658,"chan":4659,"Ġdistr":4660,"ĠdarÃ¼ber":4661,"Ġlegal":4662,"Ġopinion":4663,"Ġsug":4664,"ĠNatÃ¼rlich":4665,"Ġprocedures":4666,"Ġapply":4667,"ĠOnline":4668,"Ġgraphics":4669,"FT":4670,"recht":4671,"Ġvia":4672,"ĠhÃ¤t":4673,"Ġland":4674,"ĠInst":4675,"Ġnotified":4676,"Ġairport":4677,"ĠPers":4678,"Ġhandelt":4679,"ison":4680,"Ġpriority":4681,"Ġrefer":4682,"Ġern":4683,"Ġstrong":4684,"Ġclass":4685,"Ġlocal":4686,"Ġdouble":4687,"gn":4688,"mos":4689,"ĠSpa":4690,"auber":4691,"Ġ00":4692,"Ġdest":4693,"ara":4694,"Ġworks":4695,"ĠWohn":4696,"ĠMart":4697,"ĠRaum":4698,"ĠOst":4699,");":4700,"ishing":4701,"Ġbased":4702,"schaften":4703,"Ver":4704,"ingen":4705,"endet":4706,"Ġquiet":4707,"zieht":4708,"besondere":4709,"Ġderzeit":4710,"achsen":4711,"ĠSchw":4712,"ĠSecond":4713,"ĠAnsprechpartner":4714,"Ġson":4715,"Ġbank":4716,"ĠWTO":4717,"entlichen":4718,"ĠMeinung":4719,"Ġgemacht":4720,"Ġwrong":4721,"LAN":4722,"bon":4723,"ĠHuman":4724,"Ġ07":4725,"coming":4726,"ĠIndustrie":4727,"UK":4728,"ĠPla":4729,"ĠBra":4730,"Ã¼nf":4731,"Ġhotels":4732,"ĠSel":4733,"ĠAgreement":4734,"%.":4735,"Ġsett":4736,"ĠKÃ¼":4737,"ommod":4738,"93":4739,"llschaft":4740,"Ġentire":4741,"Ġinstit":4742,"Ġgemeinsame":4743,"81":4744,"kre":4745,"tes":4746,"Ġ34":4747,"Ġusers":4748,"ĠSoftware":4749,"Ġ9396":4750,"mus":4751,"ĠMark":4752,"ĠBetrifft":4753,"Ġadditional":4754,"ĠVertrags":4755,"ernen":4756,"ops":4757,"Ġstrategy":4758,"ĠvÃ¶":4759,"ify":4760,"ĠDafÃ¼r":4761,"yle":4762,"ĠAnn":4763,"Ġleast":4764,"Ġcertainly":4765,"ograph":4766,"Ġbedeutet":4767,"Ġbrief":4768,"Ġmat":4769,"Ġmid":4770,"Ġmult":4771,"ĠFÃ¶rderung":4772,"Ġabove":4773,"Ġenc":4774,"ontroll":4775,"hib":4776,"Ġcitizens":4777,"ably":4778,"achr":4779,"CHE":4780,"merksam":4781,"fassung":4782,"ances":4783,"tellung":4784,"Ġ149":4785,"Ġparking":4786,"Ġmonths":4787,"KEHR":4788,"Ġgentlemen":4789,"ANDEL":4790,"ĠBedeut":4791,"ĠKle":4792,"ama":4793,"cks":4794,"change":4795,"Ġadds":4796,"ĠHeraus":4797,"Ġdeliver":4798,"ĠEM":4799,"kei":4800,"mals":4801,"Ġwrit":4802,"ĠfÃ¼":4803,"Ġprogramm":4804,"ought":4805,"KL":4806,"ĠDon":4807,"Ġerreicht":4808,"Ġexpect":4809,"ĠChar":4810,"ĠHerz":4811,"ĠSouth":4812,"ĠSeiten":4813,"En":4814,"abour":4815,"ĠRichtung":4816,"ĠWell":4817,"ĠParis":4818,"ĠWichtigste":4819,"aket":4820,"ĠKlima":4821,"ĠJanuar":4822,"Ġobjectives":4823,"355":4824,"ĠErgebnis":4825,"Ġhistor":4826,"ĠEXTERNAL":4827,"ason":4828,"ĠVideo":4829,"Ġteam":4830,"ĠFehler":4831,"Ġsoftware":4832,"buch":4833,"ordin":4834,"Ġremains":4835,"ĠMembers":4836,"Ge":4837,"OW":4838,"Ġmag":4839,"ĠGR":4840,"ĠLuft":4841,"SE":4842,"Ġtro":4843,"Ġsize":4844,"ĠTor":4845,"ĠKos":4846,"ĠunterstÃ¼tzt":4847,"ĠFÃľR":4848,"ĠKraft":4849,"verb":4850,"ĠAnhang":4851,"Ġinvestment":4852,"fel":4853,"Ġneu":4854,"play":4855,"Ġmaxim":4856,"Ġstandard":4857,"ĠRelations":4858,"ya":4859,"Ġmal":4860,"Ġzie":4861,"Ġnegot":4862,"ĠSache":4863,"ĠPass":4864,"Ġsearch":4865,"ĠSchritt":4866,"range":4867,"Ġfunction":4868,"Ġetwa":4869,"ĠVorschlÃ¤ge":4870,"ĠFigures":4871,"ĠLeg":4872,"Ġtakes":4873,"idesh":4874,"94":4875,"Ã¼t":4876,"ĠStrategie":4877,"now":4878,"ught":4879,"vorschriften":4880,"UCH":4881,"ĠNord":4882,"Ġsollen":4883,"ĠTurkey":4884,"ena":4885,"ĠBro":4886,"ican":4887,"ĠViel":4888,"Ġhear":4889,"Ġ1997":4890,"Ġpleas":4891,"ĠBinnenmarkt":4892,"57":4893,"utt":4894,"Ġwarm":4895,"ĠRegional":4896,"Ġactivities":4897,"ĠBedeutung":4898,"LAND":4899,"ero":4900,"2005":4901,"Ġfacilities":4902,"ĠDavid":4903,"ieten":4904,"Ġholiday":4905,"ĠDezember":4906,"son":4907,"Ġtele":4908,"inistry":4909,"ĠvÃ¶llig":4910,"Ġgab":4911,"ĠProte":4912,"ichterst":4913,"EW":4914,"pects":4915,"ovo":4916,"Ġadded":4917,"ĠKol":4918,"Ġcompletely":4919,"ĠEntschlieÃŁung":4920,"ĠErweiter":4921,"ĠVice":4922,"ĠSchwe":4923,"Ġgot":4924,"ĠVize":4925,"ĠWerde":4926,"ĠChristop":4927,"Ġchoice":4928,"hren":4929,"ĠZus":4930,"ifiz":4931,"ibe":4932,"ikan":4933,"ĠSm":4934,"ĠGreen":4935,"medi":4936,"FOR":4937,"ĠAR":4938,"ĠAction":4939,"ĠWachst":4940,"ĠJugend":4941,"Ġgrowth":4942,"ĠWissen":4943,"ĠCap":4944,"Ġcomb":4945,"ĠDesign":4946,"Ġheart":4947,"Ġenthalten":4948,"ĠNorth":4949,"Ġabruf":4950,"IONS":4951,"Ġguarante":4952,"Ġindividual":4953,"Ġmaterial":4954,"Ġzahl":4955,"ckt":4956,"Ġconditions":4957,"wendet":4958,"schluss":4959,"Ġsent":4960,"ĠBad":4961,"TURE":4962,"Ġwichtige":4963,"Ġmeisten":4964,"ĠBewertung":4965,"ĠHintergrundinformation":4966,"Ġtrain":4967,"Ġapplies":4968,"ĠBilder":4969,"__":4970,"min":4971,"ĠFern":4972,"laden":4973,"Ġrisk":4974,"ender":4975,"ĠMinistry":4976,"urf":4977,"ĠRa":4978,"Ġattra":4979,"Ġbasis":4980,"ĠGraphik":4981,"ĠOl":4982,"ERG":4983,"agegen":4984,"ired":4985,"ĠKOM":4986,"ĠAC":4987,"bert":4988,"osed":4989,"Ġcenter":4990,"besch":4991,"rachen":4992,"ĠUkraine":4993,"lei":4994,"Ġhappy":4995,"ĠMillionen":4996,"Ġtranspar":4997,"Ġfive":4998,"ĠDanke":4999,"Ġbew":5000,"Ġneues":5001,"Ġbekannt":5002,"oul":5003,"iers":5004,"glieder":5005,"Ġaccommod":5006,"Ġfocus":5007,"ĠAcc":5008,"aging":5009,"werk":5010,"UNGS":5011,"bl":5012,"dam":5013,"Ġcolle":5014,"ĠPost":5015,"Ã¼sse":5016,"ĠSlidesh":5017,"Ġreceived":5018,"rechte":5019,"Ġimage":5020,"Ġtravel":5021,"Ġthough":5022,"Ġyoung":5023,"Ġprevious":5024,"Ġwes":5025,"ests":5026,"ĠVerp":5027,"Ġpartners":5028,"tainable":5029,"bildung":5030,"Ġconclud":5031,"ĠRestaurant":5032,"Ġeig":5033,"ĠUnfortunately":5034,"well":5035,"ĠLeider":5036,"Ġperform":5037,"taurants":5038,"achrichtigt":5039,"ĠFind":5040,"Ġjoint":5041,"Ġabge":5042,"ĠTeam":5043,"ĠAufgabe":5044,"Ġprovided":5045,"77":5046,"Ġresources":5047,"ĠProjekte":5048,"90":5049,"ĠKurz":5050,"ĠIntegr":5051,"Ġrent":5052,"Ġ90":5053,"Ġbenachrichtigt":5054,"Ġfully":5055,"ĠID":5056,"irt":5057,"cker":5058,"ĠHealth":5059,"programm":5060,"Ġwichtigsten":5061,"Ġcases":5062,"ĠGlobal":5063,"fringe":5064,"Ġproduction":5065,"ĠInterior":5066,"Ġdirective":5067,"ĠeuropÃ¤ischen":5068,"ĠBundesminister":5069,"41":5070,"Ġappear":5071,"ĠUrteil":5072,"Ġgelten":5073,"ĠNÃ¤he":5074,"Ã¤m":5075,"cke":5076,"Ġcard":5077,"ĠCity":5078,"ĠKa":5079,"resident":5080,"ula":5081,"okes":5082,"linien":5083,"Ġallerdings":5084,"zogen":5085,"ĠDemokratie":5086,"dig":5087,"ĠIts":5088,"Ġcentral":5089,"ĠOp":5090,"onnen":5091,"Ġseiner":5092,"gra":5093,"lack":5094,"ĠUmsetzung":5095,"hil":5096,"Ġsystems":5097,"ĠOver":5098,"Ġexact":5099,"ĠBerichterst":5100,"Ġregister":5101,"RIC":5102,"Ġsal":5103,"Ġwonder":5104,"ĠSE":5105,"iesen":5106,"Ġproceed":5107,"lle":5108,"ĠBlick":5109,"Ġapplication":5110,"ĠTÃ¼rkei":5111,"Ġwriting":5112,"Ġwhe":5113,"ĠKern":5114,"ĠAntrag":5115,"Ġerg":5116,"ĠWhich":5117,"Ġcontent":5118,"Ġdirectly":5119,"9586":5120,"Ġmusic":5121,"ĠSlideshows":5122,"unikation":5123,"00352":5124,"ĠVerantwort":5125,"Ġsound":5126,"Ġgesam":5127,"Ġconcerned":5128,"Ġchoose":5129,"Ġihren":5130,"ĠRussia":5131,"cent":5132,"lear":5133,"ĠPH":5134,"Ã¼nfte":5135,"ĠMadrid":5136,"BEZIEHUNGEN":5137,"kÃ¤mpfung":5138,"ĠSchwer":5139,"stehen":5140,"Ġchanges":5141,"ĠWillkommen":5142,"Ġmentioned":5143,"Ġabrufbar":5144,"ĠHÃ¶":5145,"Ġsubs":5146,"SEN":5147,"Ġdam":5148,"ĠEducation":5149,"icial":5150,"Ġihm":5151,"ĠKom":5152,"Ġallgeme":5153,"uk":5154,"onz":5155,"Ġfort":5156,"mbH":5157,"Ġresponsibility":5158,"UC":5159,"ively":5160,"ĠGeorg":5161,"ologie":5162,"ipped":5163,"Ġcreate":5164,"isheries":5165,"arten":5166,"ĠOffice":5167,"legation":5168,"ĠMA":5169,"ĠKop":5170,"ANG":5171,"ĠMobile":5172,"ĠAmendment":5173,"ĠEach":5174,"Ġef":5175,"ĠGal":5176,"ĠHinweis":5177,"page":5178,"urt":5179,"eta":5180,"Ġjob":5181,"Ġschein":5182,"teilt":5183,"ĠTAC":5184,"ĠMot":5185,"Ġeffic":5186,"Ġsepar":5187,"ĠJahres":5188,"Ġproposed":5189,"255":5190,"Ġfiles":5191,"fonds":5192,"Ġsafe":5193,"GRAM":5194,"Ġtarge":5195,"atives":5196,"Ġschrift":5197,"Ġprinciple":5198,"gles":5199,"Ġletzten":5200,"42":5201,"ungsverfahren":5202,"ĠpersÃ¶n":5203,"ĠForschung":5204,"ding":5205,"Ġdev":5206,"Ġsafety":5207,"Ġdocument":5208,"edom":5209,"ĠEng":5210,"Ġregional":5211,"Ã¼ndet":5212,"ĠAngebot":5213,"mosph":5214,"ĠDel":5215,"ĠES":5216,"ĠWant":5217,"ĠBalk":5218,"ommer":5219,"Ġcomment":5220,"ĠECU":5221,"Ġspace":5222,"Ġwomen":5223,"ĠFR":5224,"Ġleben":5225,"Ġautomat":5226,"Ġcalled":5227,"VII":5228,"Ġ).":5229,"Ġdialog":5230,"ĠLAND":5231,"ians":5232,"ĠPlatz":5233,"Ġmove":5234,"ĠEmpfehl":5235,"Ġindustry":5236,"ole":5237,"resh":5238,"spr":5239,"ization":5240,"Ġ297":5241,"ĠQualitÃ¤t":5242,"ĠAUSSENBEZIEHUNGEN":5243,"isiert":5244,"Ġvan":5245,"ĠLog":5246,"mann":5247,"atten":5248,"ĠTro":5249,"Ġemail":5250,"fu":5251,"unÃ¤chst":5252,"Ġmer":5253,"Ġruh":5254,"Ġgenug":5255,"ĠStrand":5256,"leben":5257,"ĠGmbH":5258,"ĠBeitrag":5259,"61":5260,"xis":5261,"une":5262,"ĠJohn":5263,"order":5264,"Ġmoun":5265,"ĠMARK":5266,"ĠPay":5267,"ĠNeue":5268,"Ġupdates":5269,"ĠKind":5270,"maÃŁnahmen":5271,"Ġanders":5272,"orteur":5273,"43":5274,"ators":5275,"Ġflex":5276,"Ġdisp":5277,"Ġlegislation":5278,"date":5279,"Ġident":5280,"ĠBreakfast":5281,"ĠBeifall":5282,"Ġhelfen":5283,"ĠFISCHER":5284,"ĠTreaty":5285,"irc":5286,"ĠDebatte":5287,"ĠBeschÃ¤ftigung":5288,"hÃ¤ng":5289,"ĠLink":5290,"Ġrund":5291,"ĠWieder":5292,"Ġdocuments":5293,"alten":5294,"Ġever":5295,"51":5296,"Ġcamp":5297,"rael":5298,"ĠViele":5299,"gratul":5300,"ĠGlÃ¼ck":5301,"Ġganze":5302,"68":5303,"ĠFir":5304,"indung":5305,"Ġmeinen":5306,"ĠArbeitspl":5307,"largement":5308,"atory":5309,"ĠTab":5310,"ĠAuÃŁerdem":5311,"ĠLadies":5312,"....":5313,"ffiz":5314,"ĠYes":5315,"Ġtry":5316,"Ġinteress":5317,"VD":5318,"Ġvoting":5319,"ette":5320,"ĠVal":5321,"ourn":5322,"Ġens":5323,"Ġgeschehen":5324,"Ġsolche":5325,"Ġarbeiten":5326,"komm":5327,"ued":5328,"lauf":5329,"pecial":5330,"ĠCooperation":5331,"ĠBeschl":5332,"uel":5333,"Ġhalten":5334,"ĠMitteilung":5335,"icles":5336,"ctive":5337,"Ã¤lle":5338,"clusion":5339,"letter":5340,"ĠChristopher":5341,"LER":5342,"sst":5343,"zt":5344,"Ġclearly":5345,"Ġasked":5346,"Ġ3355":5347,"Ġnotwendig":5348,"EV":5349,"Ġbetre":5350,"Ġwohl":5351,"Ġmaking":5352,"President":5353,"fert":5354,"ĠPresidency":5355,"ĠContact":5356,"ĠENERG":5357,"aden":5358,"bare":5359,"ĠSind":5360,"Ġothers":5361,"altung":5362,"ĠInsgesamt":5363,"Ġsituated":5364,"asing":5365,"ims":5366,"ille":5367,"ĠFranz":5368,"ĠPersonal":5369,"Ġidea":5370,"Ġmessage":5371,"Ġna":5372,"ĠPC":5373,"aments":5374,"ured":5375,"Ġwahr":5376,"ingt":5377,"Ġfunktioniert":5378,"ĠHerausforder":5379,"ĠWest":5380,"ĠLi":5381,"Ġkannst":5382,"Ġcompanies":5383,"erve":5384,"ĠGreat":5385,"fully":5386,"ONOM":5387,"ils":5388,"ĠVerordnung":5389,"ĠspÃ¤ter":5390,"Ġoutside":5391,"Ġmethod":5392,"Ġamendment":5393,"icies":5394,"Ġpurpose":5395,"59":5396,"europa":5397,"ĠschlieÃŁ":5398,"IST":5399,"Ġterms":5400,"ĠOktober":5401,"dle":5402,"ĠIT":5403,"ĠMc":5404,"Ġtook":5405,"Ġaufge":5406,"Ġamount":5407,"Ġzust":5408,"ropri":5409,"Ġcontra":5410,"essment":5411,"uellen":5412,"anger":5413,"ĠenthÃ¤lt":5414,"Ġapproved":5415,"ĠRis":5416,"schn":5417,"istic":5418,"stein":5419,"zeichnet":5420,"Ġhappened":5421,"bahn":5422,"cal":5423,"oo":5424,"Ġerw":5425,"ĠThemen":5426,"ÃŁt":5427,"ĠRegions":5428,"vis":5429,"ĠTagesordnung":5430,"Ġbad":5431,"ĠIS":5432,"ĠHoch":5433,"ĠRegulation":5434,"Ġeingehen":5435,"ĠNutz":5436,"Ġren":5437,"ipment":5438,"ĠExp":5439,"Ġgroups":5440,"aktion":5441,"Ġherv":5442,"ĠerwÃ¤":5443,"ĠPriority":5444,"Ġhalte":5445,"ĠTax":5446,"Ġetc":5447,"ĠOH":5448,"Ġerfolgt":5449,"ube":5450,"gricultural":5451,"ĠAfrica":5452,"Ġpubl":5453,"Ġverd":5454,"Ġpeace":5455,"Ġinsbesondere":5456,"cover":5457,"Ġcompetition":5458,"ĠBESCH":5459,"ader":5460,"aly":5461,"ĠWeiter":5462,"geord":5463,"Ã¤ren":5464,"rieden":5465,"Ġreception":5466,"Ġkonn":5467,"Ġelse":5468,"ĠWÃ¤hr":5469,"ĠGonz":5470,"roffen":5471,"Ġparticularly":5472,"ZEN":5473,"onse":5474,"ĠAlex":5475,"ĠLond":5476,"staat":5477,"fÃ¤":5478,"ĠIgles":5479,"ichtigen":5480,"Ġrange":5481,"Ġdirection":5482,"haps":5483,"Ġstor":5484,"gesetzt":5485,"ĠAllgemeine":5486,"ĠfÃ¼nf":5487,"ires":5488,"Ġessential":5489,"Ġjud":5490,"orf":5491,"ĠBeg":5492,"Ġbestehen":5493,"Ġcharac":5494,"ĠRese":5495,"alez":5496,"ĠIglesias":5497,"racht":5498,"deut":5499,"ĠGonzalez":5500,"IO":5501,"ĠPolit":5502,"Ġant":5503,"Ġdef":5504,"Ġ3255":5505,"Ġ65":5506,"ĠGrand":5507,"ĠMarisa":5508,"Ġsuper":5509,"ĠAp":5510,"ELT":5511,"Ġregistr":5512,"Ġgerade":5513,"ĠvollstÃ¤nd":5514,"Ġcr":5515,"Ġinfringe":5516,"stant":5517,"ppel":5518,"Ġbefinden":5519,"licht":5520,"mand":5521,"ench":5522,"Ġter":5523,"ĠTerror":5524,"ither":5525,"ĠReise":5526,"Ġopportunity":5527,"Ġsession":5528,"ĠFrei":5529,"igten":5530,"ĠauÃŁer":5531,"gelegt":5532,"ĠInner":5533,"Ġweniger":5534,"ĠEntschlieÃŁungsantrag":5535,"fassen":5536,"ĠSil":5537,"ĠWert":5538,"Ġpot":5539,"igungs":5540,"ĠNetz":5541,"Ã¶m":5542,"istics":5543,"Ġseinen":5544,"ĠInnern":5545,"ĠStellung":5546,"ĠKosovo":5547,"Ġdagegen":5548,"ĠME":5549,"ĠHans":5550,"handlungen":5551,"ĠTRADE":5552,"ONOMIC":5553,"KI":5554,"ĠHaben":5555,"ĠAnfang":5556,"Ġphone":5557,"ĠSÃ¼d":5558,"66":5559,"fon":5560,"ĠFol":5561,"ĠBeispiele":5562,"Ġkomple":5563,"ees":5564,"ĠPan":5565,"ĠHigh":5566,"verletz":5567,"lav":5568,"Ġ33":5569,"Ġunterb":5570,"Ġachieved":5571,"ĠErweiterung":5572,"Ġsun":5573,"Ġoption":5574,"acy":5575,"ĠEntwicklungs":5576,"Ġchanged":5577,"Ġschwier":5578,"kÃ¼nfte":5579,"Ġground":5580,"ĠVilla":5581,"uell":5582,"Ġeigenen":5583,"Ġsummer":5584,"ĠSelbst":5585,"punkte":5586,"anst":5587,"iders":5588,"ĠInsel":5589,"ffee":5590,"ĠHandels":5591,"itel":5592,"ĠAB":5593,"Ġleave":5594,"Ġknown":5595,"ĠBenutzer":5596,"ativen":5597,"ĠBÃ¼":5598,"laus":5599,"hafen":5600,"reifen":5601,"frei":5602,"ius":5603,"Ġlov":5604,"ĠRechn":5605,"Ġtell":5606,"ĠClub":5607,"Ġcreated":5608,"Ġachieve":5609,"pecially":5610,"ĠED":5611,"utes":5612,"ĠGeschichte":5613,"word":5614,"ĠTake":5615,"ĠTranspar":5616,"Ġ300":5617,"zeigt":5618,"ĠInvestitionen":5619,"ery":5620,"ĠEmail":5621,"TEL":5622,"GEL":5623,"ĠSEC":5624,"ĠFIS":5625,"Ġfinanz":5626,"ĠVizeprÃ¤sident":5627,"ĠTwo":5628,"Ġeveryone":5629,"Ġbraucht":5630,"ĠZahlen":5631,"Ġallowed":5632,"52":5633,"Ġlove":5634,"Ġschool":5635,"Ġprec":5636,"ĠBerichterstatter":5637,"ĠTa":5638,"ley":5639,"Ġcrit":5640,"ĠHANDEL":5641,"ĠVOR":5642,"ĠAuswahl":5643,"Ġcorrect":5644,"Ġsens":5645,"ĠAgr":5646,"Ġstimmen":5647,"ienen":5648,"ĠECONOMIC":5649,"Ġlat":5650,"Ġdep":5651,"ĠStruktur":5652,"OME":5653,"quiries":5654,"Ġimmedi":5655,"assili":5656,"Ġspac":5657,"ledge":5658,"strument":5659,"Ġdat":5660,"ĠProgram":5661,"Ġsogar":5662,"Ġihrer":5663,"iol":5664,"erst":5665,"heless":5666,"Ġvideo":5667,"ragen":5668,"ĠVON":5669,"ĠÃĦnderungen":5670,"ULTURE":5671,"celona":5672,"ĠLondon":5673,"entur":5674,"ĠMaÃŁ":5675,"scheiden":5676,"ĠDoes":5677,"struction":5678,"ĠResearch":5679,"ĠAny":5680,"Ġverwendet":5681,"Ġrapp":5682,"Ġobs":5683,"Ġseen":5684,"ĠMeer":5685,"OUT":5686,"bott":5687,"Ġsag":5688,"Ġalmost":5689,"ĠIsrael":5690,"rÃ¼ck":5691,"ymb":5692,"tended":5693,"Ġseems":5694,"itzen":5695,"ĠFuÃŁ":5696,"olz":5697,"ummer":5698,"Ġstarted":5699,"ĠEWSA":5700,"Ġworth":5701,"arity":5702,"ĠSchluÃŁ":5703,"ĠSolid":5704,"Ġpath":5705,"ĠLÃ¤ndern":5706,"essional":5707,"Ġincrease":5708,"ĠHintergrundinformationen":5709,"este":5710,"ĠJean":5711,"ontrolle":5712,"OG":5713,"Ġ$":5714,"ĠMAR":5715,"Ġconven":5716,"Ġanything":5717,"ĠUrlaub":5718,"Ġincludes":5719,"Ġincluding":5720,"ĠRechtss":5721,"Ġunver":5722,"rieben":5723,"Ġbeginning":5724,"unsch":5725,"Ġcop":5726,"ĠgroÃŁen":5727,"Ġoft":5728,"Ġerfolg":5729,"Ġprovides":5730,"ĠfÃ¼hrt":5731,"ĠMost":5732,"ĠRec":5733,"Ġleider":5734,"Ġheld":5735,"ĠHave":5736,"ĠPrioritÃ¤ts":5737,"ĠStandard":5738,"UP":5739,"Ġnutzen":5740,"leistungen":5741,"Re":5742,"ĠEESC":5743,"ico":5744,"gesehen":5745,"ĠheiÃŁt":5746,"read":5747,"Ġentwick":5748,"Ġfreund":5749,"Ġcontribution":5750,"assiliou":5751,"teid":5752,"ĠAndre":5753,"Ġerforderlich":5754,"OIN":5755,"Ġatta":5756,"Ġuser":5757,"mas":5758,"alog":5759,"Ġplann":5760,"wa":5761,"Ã¼gen":5762,"ĠCamp":5763,"Ġlik":5764,"ufrieden":5765,"clar":5766,"Ġcode":5767,"Ġnature":5768,"ĠSupport":5769,"Ġpriorities":5770,"Ġmight":5771,"roso":5772,"ĠWould":5773,"ĠDat":5774,"Ġcreat":5775,"Ġvol":5776,"ilen":5777,"comes":5778,"ĠInteresse":5779,"ĠZweit":5780,"ilf":5781,"Ġentzieht":5782,"ĠDarÃ¼ber":5783,"book":5784,"hÃ¤":5785,"ĠDi":5786,"oper":5787,"Ġyourself":5788,"utzt":5789,"CK":5790,"Ġ01":5791,"ĠTar":5792,"enten":5793,"ĠRei":5794,"Ġthanks":5795,"Ġage":5796,"rak":5797,"ĠRef":5798,"Ġrecord":5799,"Ġweiterhin":5800,"anguages":5801,"ĠKolle":5802,"ques":5803,"ysteme":5804,"rowser":5805,"ĠFerien":5806,"iture":5807,"ĠTerm":5808,"Ġready":5809,"schul":5810,"Ġupon":5811,"Ġamendments":5812,"ISSION":5813,"FORM":5814,"the":5815,"Ġpast":5816,"ĠGolf":5817,"ĠKre":5818,"ĠStart":5819,"Ġ37":5820,"Ġpayment":5821,"Ã¤here":5822,"umping":5823,"ĠVerantwortung":5824,"itable":5825,"ney":5826,"Ġarch":5827,"Ġactually":5828,"ĠTRANSPORT":5829,"Ġhervor":5830,"ane":5831,"Ġsor":5832,"fahrt":5833,"Ġcapital":5834,"Ġabsolutely":5835,"omit":5836,"ĠCal":5837,"Ġrichtige":5838,"ĠBrit":5839,"acce":5840,"82":5841,"WE":5842,"Ġest":5843,"ĠName":5844,"Ġamb":5845,"Ġregul":5846,"Ġmehrere":5847,"ĠBarcelona":5848,"ĠgehÃ¶ren":5849,"Ġbill":5850,"ĠAU":5851,"Ġforce":5852,"Ġrather":5853,"ugs":5854,"ĠPhilipp":5855,"orr":5856,"Ġem":5857,"ĠNacht":5858,"Ġprep":5859,"Ġemployment":5860,"ienste":5861,"EST":5862,"amental":5863,"Ġstandards":5864,"missions":5865,"ĠLE":5866,"ĠNO":5867,"ĠgeÃ¶ffnet":5868,"ĠStaff":5869,"geschlagen":5870,"Ġrev":5871,"osen":5872,"ĠAbgeord":5873,"ĠSteuer":5874,"ĠGroÃŁ":5875,"Ġzeigt":5876,"Ġdistrib":5877,"MARK":5878,"Ġtowards":5879,"ĠENV":5880,"Ġvalid":5881,"ci":5882,"Ġunacce":5883,"Ġexpected":5884,"haupt":5885,"Ġherz":5886,"Ġdistance":5887,"ĠDEC":5888,"ĠCentral":5889,"ĠZust":5890,"Ġdist":5891,"ĠEuropas":5892,"Ġrates":5893,"ĠEnd":5894,"ĠPrÃ¼":5895,"handel":5896,"ĠJeder":5897,"Ġframework":5898,"ĠWachstum":5899,"stagung":5900,"where":5901,"ĠHar":5902,"ĠEinw":5903,"Ġdaran":5904,"Ġtransl":5905,"Ġparts":5906,"geschlossen":5907,"2010":5908,"Ġtaking":5909,"BEIT":5910,"ĠAK":5911,"ĠBern":5912,"Ġconference":5913,"Ġerne":5914,"Ġresponse":5915,"Ġhalf":5916,"Ġevents":5917,"Ġprogrammes":5918,"oz":5919,"ieht":5920,"Ġhon":5921,"Ġalong":5922,"ĠArg":5923,"Ġconsum":5924,"Ġsatis":5925,"ĠAS":5926,"Ġearly":5927,"ĠZentrum":5928,"astic":5929,"ĠFrench":5930,"Ġweltw":5931,"Ġrepres":5932,"ĠWoche":5933,"ĠFischerei":5934,"ĠMartin":5935,"Ġhold":5936,"ĠBE":5937,"Ġlate":5938,"ounts":5939,"ĠJoe":5940,"Ġtalking":5941,"HO":5942,"nes":5943,"ĠIran":5944,"ĠErk":5945,"AREN":5946,"Ġ1996":5947,"Ġunacceptable":5948,"92":5949,"regel":5950,"grif":5951,"ĠSea":5952,"produ":5953,"itzer":5954,"ech":5955,"ĠEle":5956,"Ġpurch":5957,"Ġred":5958,"nete":5959,"Ġdiscussion":5960,"ĠfÃ¼hren":5961,"ĠVorsitz":5962,"ĠVerbesserung":5963,"anted":5964,"ĠAngaben":5965,"ĠErfahr":5966,"Ġpicture":5967,"Ġakzept":5968,"Ġconcludes":5969,"ĠFret":5970,"terdam":5971,"Ġstra":5972,"Ġerr":5973,"Ġleicht":5974,"Ġgoes":5975,"ĠChance":5976,"Ġallein":5977,"ĠCommon":5978,"Ġdepend":5979,"Ġactions":5980,"SPRA":5981,"Ġexactly":5982,"head":5983,"ĠEast":5984,"ĠMann":5985,"Ġklicken":5986,"iko":5987,"Ġappropri":5988,"----":5989,"ging":5990,"ĠDigital":5991,"ternative":5992,"ARD":5993,"obby":5994,"Ã¤chlich":5995,"Ġimpact":5996,"ĠVertragsverletz":5997,"ĠAccess":5998,"ĠEm":5999,"Ġtradition":6000,"ĠMusik":6001,"Ġpictures":6002,"Ġmatters":6003,"Ġlatest":6004,"Ġfigures":6005,"ĠBau":6006,"ĠBoth":6007,"Ġ(%":6008,"ends":6009,"Ġoffice":6010,"Ġexpress":6011,"cies":6012,"Ġinner":6013,"ĠHam":6014,"Ġ1000":6015,"bericht":6016,"ĠStock":6017,"Ġjedem":6018,"ode":6019,"pted":6020,"Ġaud":6021,"unk":6022,"ĠDVD":6023,"Ġzus":6024,"ĠMitarbeit":6025,"ĠRatstagung":6026,"li":6027,"Ġvill":6028,"ira":6029,"ĠStabil":6030,"ried":6031,"igte":6032,"ÃĦR":6033,"Ġnatural":6034,"Ġfriends":6035,"yd":6036,"Ġtick":6037,"ĠBIP":6038,"Ġsofort":6039,"wirkungen":6040,"Ġschriftlich":6041,"ĠFretwell":6042,"ĠPap":6043,"ĠBis":6044,"ĠInfrast":6045,"ssen":6046,"zep":6047,"ĠForum":6048,"ĠAufmerksam":6049,"Ġsignific":6050,"bel":6051,"Ġpassen":6052,"ktionen":6053,"UST":6054,"useum":6055,"Ã¶lker":6056,"ĠGruppe":6057,"FR":6058,"imum":6059,"alls":6060,"imming":6061,"ĠbetrÃ¤gt":6062,"ĠWestern":6063,"Ġaffe":6064,"Ã¤hlt":6065,"ĠUK":6066,"spokes":6067,"Ġ1995":6068,"iete":6069,"Ġschle":6070,"ĠSpecial":6071,"ĠAktions":6072,"ĠWITHOUT":6073,"inzip":6074,"chs":6075,"ĠOpt":6076,"Ġwhile":6077,"ĠErn":6078,"ahren":6079,"ringen":6080,"selves":6081,"SPRACHE":6082,"ĠAufmerksamkeit":6083,"druck":6084,"ĠBu":6085,"eder":6086,"anner":6087,"ECspokes":6088,"Ġbestimm":6089,"Ġbelie":6090,"Ã¼hren":6091,"Ġelements":6092,"Ġdemocracy":6093,"oud":6094,"aged":6095,"ĠFortschritte":6096,"Mit":6097,"alter":6098,"ĠBos":6099,"ĠGEMEIN":6100,"verstÃ¤nd":6101,"Ġ48":6102,"reiche":6103,"Ġbisher":6104,"Ġequipped":6105,"cription":6106,"ĠWettbewerb":6107,"any":6108,"Ġeindeut":6109,"aving":6110,"ĠNeu":6111,"ĠAUSSPRACHE":6112,"Ġeigentlich":6113,"asur":6114,"qual":6115,"ANN":6116,"Ġ43":6117,"ĠStaats":6118,"ĠBusiness":6119,"Ġeither":6120,"ĠLes":6121,"Ġbuy":6122,"ĠMARKET":6123,"73":6124,"mm":6125,"ensive":6126,"ĠErstens":6127,".\"":6128,"91":6129,"ĠDG":6130,"stÃ¤r":6131,"0000":6132,"ĠGDP":6133,"VEL":6134,"bour":6135,"lant":6136,"icated":6137,"ĠRu":6138,"ĠKamp":6139,"Ġgoods":6140,"Ġpolitische":6141,"Ġexamples":6142,"ĠCheck":6143,"preis":6144,"Ġbehind":6145,"ĠOHNE":6146,"Ġsolutions":6147,"Ġpolicies":6148,"ICHER":6149,"ĠFlughafen":6150,"Ġwoll":6151,"ĠEIN":6152,"Ġbehand":6153,"ufact":6154,"ultural":6155,"ĠWeise":6156,"standen":6157,"ĠLatest":6158,"ĠKrise":6159,"ĠWettbewerbs":6160,"mary":6161,"wise":6162,"ĠGed":6163,"Ġeinzel":6164,"Ġgovernment":6165,"Ġstrength":6166,"Ġfunding":6167,"oke":6168,"ilien":6169,"Ġespecially":6170,"ĠAlles":6171,"Ġdisk":6172,"ĠEUROPÃĦISCHE":6173,"feld":6174,"heim":6175,"ĠPet":6176,"ĠLeit":6177,"abkommen":6178,"Ġcongratul":6179,"ĠEuropÃ¤ischer":6180,"Ġ64":6181,"ĠKonferenz":6182,"ĠPRESSE":6183,"ĠDiskuss":6184,"Ġsuggest":6185,"pf":6186,"sb":6187,"una":6188,"Ġwaste":6189,"ĠSprache":6190,"ĠINS":6191,"IRON":6192,"Ġmarkets":6193,"Ġrapporteur":6194,"Ġbeendet":6195,"cept":6196,"halte":6197,"ĠAuskÃ¼nfte":6198,"Ġintrodu":6199,"erecht":6200,"Ġkennen":6201,"ierungen":6202,"Ġspielen":6203,"ĠLeist":6204,"Ġinvolved":6205,"LI":6206,"ĠDEN":6207,"ĠDire":6208,"ĠAugen":6209,"ilar":6210,"ationen":6211,"idel":6212,"ĠOrd":6213,"Ġrecog":6214,"rieb":6215,"Ġgarden":6216,"ĠFebruar":6217,"Ġpractice":6218,"TW":6219,"ĠSince":6220,"Ġmm":6221,"ĠEnter":6222,"Ġ58":6223,"Ġ1994":6224,"frist":6225,"Ġvarious":6226,"Ġfeatures":6227,"ĠverfÃ¼gt":6228,"IRONMENT":6229,"CY":6230,"Ġbeds":6231,"Ġbedroom":6232,"ĠTechnical":6233,"Ġequipment":6234,"ĠEmployment":6235,"Ġnormal":6236,"Ġbekommen":6237,"uth":6238,"ĠGrÃ¼nde":6239,"Ġindeed":6240,"Ġ#":6241,"unst":6242,"ĠSam":6243,"Ġkit":6244,"pekte":6245,"ĠiP":6246,"Ġposit":6247,"Ġhinaus":6248,"Ġpersons":6249,"ĠFISHER":6250,"unt":6251,"Ġverg":6252,"aily":6253,"ĠMichel":6254,"ĠTRANSPAREN":6255,"ĠerhÃ¤ltlich":6256,"ĠhÃ¤tte":6257,"Ġsuchen":6258,"ieÃŁen":6259,"ĠVan":6260,"Ġkleine":6261,"Ġreached":6262,"ĠENVIRONMENT":6263,"Ġdanken":6264,"Ġeducation":6265,"ills":6266,"ĠFINANCIAL":6267,"54":6268,"por":6269,"Ġauss":6270,"ĠClos":6271,"Ġupdate":6272,"cen":6273,"vement":6274,"zer":6275,"aby":6276,"Ġcondition":6277,"Ġamong":6278,"ĠMitglieder":6279,"prise":6280,"ĠProtection":6281,"Ġscheint":6282,"YP":6283,"obs":6284,"Ġmass":6285,"ĠGas":6286,"Ġreality":6287,"ĠUMW":6288,"gru":6289,"ungsst":6290,"ixed":6291,"ĠPrioritÃ¤ten":6292,"ĠInvestment":6293,"Ġrequirements":6294,"board":6295,"Ġadvanta":6296,"Ġwanted":6297,"ĠSommer":6298,"ĠJe":6299,"Ġalone":6300,"weisen":6301,"acity":6302,"Ġactive":6303,"Ġrad":6304,"Ġreply":6305,"Ġ285":6306,"ĠFood":6307,"hilfen":6308,"Ġdialogue":6309,"Ġfight":6310,"hens":6311,"Ġmeinem":6312,"ĠCode":6313,"Ġaktiv":6314,"Ġterra":6315,"ĠMiss":6316,"ĠWahr":6317,"Ġlar":6318,"scht":6319,"ĠRede":6320,"Ġletzte":6321,"Ġfurn":6322,"Ġjoin":6323,"Ġaccording":6324,"ĠAGRIC":6325,"Ġenvironmental":6326,"OY":6327,"auss":6328,"ester":6329,"Ġhierzu":6330,"ĠEinzelheiten":6331,"ĠZweck":6332,"Ġverschiedene":6333,"CL":6334,"iles":6335,"Ġerz":6336,"AST":6337,"Ġpropert":6338,"Ġtechnical":6339,"Ġpages":6340,"Ã¶st":6341,"ĠOL":6342,"ĠWird":6343,"Ġ08":6344,"Ġtrip":6345,"Ġbuilt":6346,"ĠFISHERIES":6347,"745":6348,"Ġsense":6349,"ĠBon":6350,"lla":6351,"ĠLib":6352,"ĠStar":6353,"Ã¤nge":6354,"haft":6355,"Ġwalking":6356,"EGEN":6357,"WIRTSCHAFT":6358,"ua":6359,"ĠTat":6360,"Ġhot":6361,"Ġlisten":6362,"Ã¶ren":6363,"ĠArticle":6364,"ients":6365,"zuf":6366,"ĠKare":6367,"ĠNÃ¤ch":6368,"ĠKollegen":6369,"ĠFISCHEREI":6370,"ĠAM":6371,"ĠWinter":6372,"Ġumfasst":6373,"ritts":6374,"Ġclimate":6375,"ĠAuto":6376,"ĠLinux":6377,"ĠZweitens":6378,"EA":6379,"wÃ¼r":6380,"Ġliving":6381,"Ġstark":6382,"Ġstimme":6383,"adurch":6384,"ĠStunden":6385,"OINT":6386,"Ġoil":6387,"ĠCont":6388,"teuer":6389,"Ġeconomy":6390,"abase":6391,"ĠYet":6392,"fence":6393,"MENTS":6394,"ariat":6395,"ĠWochen":6396,"attet":6397,"sprÃ¤sident":6398,"haltung":6399,"ĠTest":6400,"tragen":6401,"entrale":6402,"Ġerwarten":6403,"meld":6404,"Ġurg":6405,"ĠLis":6406,"Ġmodel":6407,"Ġboard":6408,"prÃ¤":6409,"Ġfrei":6410,"ids":6411,"ĠerfÃ¼":6412,"Ġpleased":6413,"opping":6414,"Ġlow":6415,"ociation":6416,"Ġmonitor":6417,"ĠRussland":6418,"Ġtask":6419,"Ġimplementation":6420,"Ġpo":6421,"lain":6422,"Ġwillkommen":6423,"Ã¤ngt":6424,"Ġtechnology":6425,"armon":6426,"gy":6427,"ĠDruck":6428,"ĠFus":6429,"iding":6430,"deb":6431,"Ġunique":6432,"oph":6433,"Ġrail":6434,"Ġhistory":6435,"Ġquickly":6436,"unds":6437,"ĠFinally":6438,"ennis":6439,"ructural":6440,"Ġstatement":6441,"Un":6442,"Ġcame":6443,"ĠProv":6444,"Ġ55":6445,"einander":6446,"Ġ06":6447,"jekt":6448,"2002":6449,"Ġrepresent":6450,"Ġmenu":6451,"ĠJudgment":6452,"MARKT":6453,"ĠPie":6454,"ĠBre":6455,"ĠBahn":6456,"Ã¶ne":6457,"ĠBerat":6458,"Ġcontains":6459,"Ġ298":6460,"Ġheraus":6461,"Ġtut":6462,"Ġaspects":6463,"ĠParlaments":6464,"ĠÃ¤uÃŁer":6465,"ĠAgrar":6466,"Ġabst":6467,"arbeiten":6468,"ĠAdd":6469,"Ġverbess":6470,"Ġoptim":6471,"ato":6472,"Ġschwer":6473,"Ġcomputer":6474,"Ġmorning":6475,"zÃ¼glich":6476,"back":6477,"kret":6478,"Ġdau":6479,"asmus":6480,"ĠInitiative":6481,"ĠBegr":6482,"Ġourselves":6483,"itteilungen":6484,"Ġserved":6485,"ymbol":6486,"Press":6487,"mat":6488,"ĠMITTEILUNG":6489,"schieden":6490,"ĠKeine":6491,"Ġmobile":6492,"Ġernst":6493,"Ġsagte":6494,"hab":6495,"esten":6496,"Ġpoor":6497,"Ġhinter":6498,"ĠRest":6499,"ĠLo":6500,"Ġexc":6501,"AGUNG":6502,"ĠGrÃ¼nden":6503,"ĠInhalt":6504,"ignet":6505,"ĠAller":6506,"Ġendg":6507,"amera":6508,"iterr":6509,"Ġlies":6510,"Ġusually":6511,"ategory":6512,"UG":6513,"ĠZoll":6514,"tigen":6515,"ĠKrie":6516,"utter":6517,"Ġdisplay":6518,"ĠUMWELT":6519,"uted":6520,"Ġdue":6521,"ĠDetails":6522,"Ġcou":6523,"ĠBot":6524,"Ġ03":6525,"Ġ67":6526,"ĠImm":6527,"strÃ¶m":6528,"Ġsurround":6529,"Ġdeutlich":6530,"ĠGeschÃ¤ftsordnung":6531,"62":6532,"ĠBAR":6533,"ĠAmerica":6534,"ĠMid":6535,"ĠBi":6536,"Ġkam":6537,"ĠInde":6538,"Ġago":6539,"Ġgeschieht":6540,"ĠKomment":6541,"ĠVerpflicht":6542,"ĠLANDWIRTSCHAFT":6543,"jahr":6544,"Ġzwe":6545,"ĠgeÃ¤ndert":6546,"Ġstock":6547,"Ġvorhand":6548,"ĠFolgendes":6549,"Sta":6550,"ball":6551,"ateral":6552,"ĠCulture":6553,"stat":6554,"ĠAnmer":6555,"ĠProzess":6556,"ĠGegenteil":6557,"LUSS":6558,"Ġdom":6559,"Ġfran":6560,"Ġsection":6561,"Ġobjective":6562,"ĠCostasur":6563,"ĠJUSTICE":6564,"We":6565,"person":6566,"alys":6567,"Ġcirc":6568,"Ġangeb":6569,"ĠLas":6570,"ador":6571,"ĠAlb":6572,"Ġdecisions":6573,"100":6574,"oon":6575,"ws":6576,"ĠProp":6577,"Ġshower":6578,"Ġcommit":6579,"RIS":6580,"ĠCroat":6581,"EMENT":6582,"78":6583,"lÃ¤nder":6584,"wort":6585,"wesen":6586,"alia":6587,"ĠOder":6588,"ĠJac":6589,"aking":6590,"Ġsoc":6591,"Ġdemand":6592,"Ġimportance":6593,"Ġwelche":6594,"ĠGruppen":6595,"Ġselection":6596,"Ġsignificant":6597,"ĠGEMEINS":6598,"LIN":6599,"ĠHal":6600,"Ġexplan":6601,"Ġ475":6602,"ĠExper":6603,"ĠÃľBER":6604,"ĠDebian":6605,"ĠAirport":6606,"wers":6607,"igur":6608,"ĠVertra":6609,"INNEN":6610,"ORK":6611,"Ġjede":6612,"Ġwichtiger":6613,"ĠServer":6614,"Ġlegislative":6615,"STE":6616,"sk":6617,"Ġdiv":6618,"aren":6619,"ĠFull":6620,"Ġvo":6621,"ĠKM":6622,"ĠCosta":6623,"ĠVertragsverletzungsverfahren":6624,"Ġagenda":6625,"ĠtÃ¤":6626,"Ġfine":6627,"ĠThurs":6628,"ĠFraktion":6629,"ĠAuswirkungen":6630,"Ġagreed":6631,"ĠTransparenz":6632,"orre":6633,"ĠSign":6634,"ĠGEN":6635,"Ġgegeben":6636,"oker":6637,"Ġregulation":6638,"Ġfarm":6639,"Ġaccepted":6640,"Ġsoziale":6641,"Ġaccommodation":6642,"Ġspacious":6643,"ĠzusÃ¤tz":6644,"ICHERHEIT":6645,"ĠAGRICULTURE":6646,"just":6647,"onen":6648,"isted":6649,"Ġcross":6650,"ĠAnsatz":6651,"essere":6652,"ĠRev":6653,"ĠPaul":6654,"wide":6655,"engen":6656,"Ġapartments":6657,"anced":6658,"ĠAc":6659,"Ġdeshalb":6660,"Ġshows":6661,"Ġhinzu":6662,"ilitÃ¤t":6663,"Ġerfahren":6664,"Ġ36":6665,"ĠArch":6666,"ĠStaaten":6667,"ĠSTA":6668,"ĠKommunikation":6669,"Ġveh":6670,"ĠInneres":6671,"ĠKarel":6672,"Ġlack":6673,"ĠFrieden":6674,"teilung":6675,"ielleicht":6676,"ĠFilm":6677,"74513":6678,"Ġtel":6679,"ĠVielleicht":6680,"Ġsolid":6681,"Ġguten":6682,"Ġinternal":6683,"ĠWorte":6684,"ĠAntworten":6685,"tabel":6686,"fÃ¤higkeit":6687,"chise":6688,"isieren":6689,"Ġpain":6690,"uten":6691,"ĠRechte":6692,"ĠGenehm":6693,"Ġconnection":6694,"ĠbenÃ¶tigen":6695,"hesion":6696,"Ġrue":6697,"ĠAbend":6698,"Ġhatten":6699,"ĠZeitpunkt":6700,"Ġbasic":6701,"ĠlÃ¤sst":6702,"ox":6703,"ables":6704,"ĠOber":6705,"ĠMinisterium":6706,"Ġwarum":6707,"tzdem":6708,"Ġ150":6709,"Ġnegotiations":6710,"Office":6711,"ĠTH":6712,"ĠBudget":6713,"Ġgern":6714,"ĠConference":6715,"Ġopened":6716,"iberal":6717,"Ġeffective":6718,"ĠEbene":6719,"Ġdring":6720,"ĠBal":6721,"Ġanim":6722,"ĠKey":6723,"Ġchallenge":6724,"Ġaf":6725,"Ġinfl":6726,"ĠPAP":6727,"Ġanges":6728,"ĠRot":6729,"ometer":6730,"msel":6731,"ĠRegierung":6732,"ĠGemeinschaft":6733,"Ġtw":6734,"ĠSOL":6735,"ĠDoc":6736,"ĠGi":6737,"ĠKunst":6738,"ourcen":6739,"Ġgenehm":6740,"Ġarg":6741,"pective":6742,"ĠMalta":6743,"Ġski":6744,"mission":6745,"ĠJava":6746,"Ġvorhanden":6747,"72":6748,"83":6749,"iten":6750,"ĠTats":6751,"Ġcat":6752,"Ġcriter":6753,"Ġadministr":6754,"gebung":6755,"Ġfreedom":6756,"ĠAms":6757,"Ġcru":6758,"ĠDEVEL":6759,"ĠAnti":6760,"TING":6761,"ĠIntegration":6762,"Mitglied":6763,"ĠMont":6764,"ĠCop":6765,"ĠHOME":6766,"Ġwirtschaft":6767,"iveness":6768,"prÃ¼ft":6769,"HEITEN":6770,"ĠSecondly":6771,"ĠPHP":6772,"mselves":6773,"ĠDEVELOP":6774,"Ġwatch":6775,"ĠMult":6776,"Ġgas":6777,"ĠAndere":6778,"Ġserver":6779,"brigen":6780,"ĠhÃ¶ch":6781,"best":6782,"kosten":6783,"ym":6784,"ĠEv":6785,"ĠWall":6786,"ICKL":6787,"ĠFamilie":6788,"ĠLebensmittel":6789,"Ġinnovation":6790,"ĠThursday":6791,"Ġthemselves":6792,"ush":6793,"rab":6794,"Ġdeine":6795,"Ġlimited":6796,"Ġdatabase":6797,"56":6798,"Ġentscheiden":6799,"Ġqual":6800,"ĠANGEL":6801,"STR":6802,"Antoine":6803,"Ad":6804,"erc":6805,"Ġbreak":6806,"Ġinitiative":6807,"ĠMoment":6808,"ĠKan":6809,"ĠErasmus":6810,"Ġshopping":6811,"Ġerster":6812,"ĠgroÃŁer":6813,"ĠDatei":6814,"Ġinfringement":6815,"ECspokesAntoine":6816,"bility":6817,"kr":6818,"ĠFunktion":6819,"igent":6820,"Ġlic":6821,"lare":6822,"ogle":6823,"Ġempfe":6824,"ĠGemeinschafts":6825,"lim":6826,"mitt":6827,"Ġhar":6828,"ĠCle":6829,"ĠKein":6830,"ichtlich":6831,"Ġstreet":6832,"ENS":6833,"handlung":6834,"Ġsetzen":6835,"ĠwÃ¼rden":6836,"tt":6837,"ĠstÃ¤r":6838,"Ġparties":6839,"ĠINNER":6840,"ĠCompet":6841,"Ġgefunden":6842,"mel":6843,"alien":6844,"ĠAnsicht":6845,"ĠAnwendung":6846,"ĠInformations":6847,"Ġvalues":6848,"LAGE":6849,"ĠTun":6850,"ĠMIT":6851,"inger":6852,"Ġbezahl":6853,"ENMinister":6854,"Ġreports":6855,"Ġpaar":6856,"Ġfalsch":6857,"ĠAllerdings":6858,"inne":6859,"ĠFel":6860,"andid":6861,"indest":6862,"ĠAnzahl":6863,"ISC":6864,"ĠAspekte":6865,"zeugnisse":6866,"Ġbringt":6867,"Ġresponsible":6868,"Ġbenefit":6869,"ĠJUSTIZ":6870,"ĠWebseite":6871,"ĠRechtssache":6872,"zif":6873,"ĠverÃ¶ff":6874,"ĠFlash":6875,"Ġinteresting":6876,"Ġdelivered":6877,"hle":6878,"more":6879,"Ġcredit":6880,"ĠFotos":6881,"ĠOut":6882,"Ġvorgeschlagen":6883,"nerstag":6884,"ĠExternal":6885,"Ġhandeln":6886,"Ġzentral":6887,"Ġ46":6888,"arbeitet":6889,"Ġhappens":6890,"Ġpassiert":6891,"Ġklein":6892,"Ġinnov":6893,"OB":6894,"Ġil":6895,"ĠBINNEN":6896,"ĠAnnahme":6897,"ideos":6898,"Ġofficial":6899,"ĠENTW":6900,"ĠTechnische":6901,"ĠMode":6902,"lang":6903,"istet":6904,"Ġinquiries":6905,"ĠWÃ¤hlen":6906,"uche":6907,"Ġstyle":6908,"Ġverkauf":6909,"Ġjobs":6910,"Ġrestaurants":6911,"ĠHaup":6912,"claration":6913,"ĠMitarbeiter":6914,"74":6915,"zus":6916,"Ġdanger":6917,"unge":6918,"Ġwide":6919,"Ġbillion":6920,"ĠLabour":6921,"phone":6922,"Ġbox":6923,"Ġoriginal":6924,"84":6925,"gu":6926,"yer":6927,"Ġsix":6928,"Ġthought":6929,"ĠZwei":6930,"enster":6931,"Ġreading":6932,"roatien":6933,"di":6934,"fg":6935,"rik":6936,"vi":6937,"ĠMED":6938,"ĠBa":6939,"ental":6940,"Ã¶ÃŁe":6941,"ĠnÃ¤chste":6942,"iterran":6943,"ĠCroatia":6944,"Ġill":6945,"chsel":6946,"ipl":6947,"half":6948,"Ġphotos":6949,"ĠBedingungen":6950,"Ġrelev":6951,"Ġsatisf":6952,"body":6953,"uern":6954,"Ġdaily":6955,"irl":6956,"Ġgovern":6957,"ORG":6958,"Ġobl":6959,"fallen":6960,"riterien":6961,"ĠAmsterdam":6962,"ĠTop":6963,"tage":6964,"ĠDarum":6965,"mosphere":6966,"ĠINNERES":6967,"unities":6968,"ĠLam":6969,"Ġreicht":6970,"ĠVerteid":6971,"TIV":6972,"Ġsowie":6973,"enken":6974,"Ġbald":6975,"Ġey":6976,"ĠFA":6977,"raf":6978,"Ġlos":6979,"ĠLast":6980,"hnung":6981,"ĠPrioritÃ¤t":6982,"Ġinternationale":6983,"ĠDEBATE":6984,"Ġoptions":6985,"Ġorigin":6986,"Ã¤ufig":6987,"Ġbehalf":6988,"ĠStÃ¤r":6989,"haltige":6990,"Ġenlargement":6991,"Ġpartner":6992,"Ġoperation":6993,"stoff":6994,"Ġfan":6995,"ĠBY":6996,"ĠHA":6997,"forts":6998,"ontakte":6999,"Ġconsult":7000,"ological":7001,"ĠÃĦnderung":7002,"Ã¼tzt":7003,"Ġeindeutig":7004,"RIT":7005,"Sch":7006,"anzen":7007,"ĠlÃ¶":7008,"ĠNoch":7009,"try":7010,"ĠÃĦnderungsant":7011,"ĠChristian":7012,"FER":7013,"ivery":7014,"Ġgek":7015,"Ġhaving":7016,"Ġplaces":7017,"Ġacross":7018,"Ġcomplex":7019,"EGENHEITEN":7020,"ĠDEVELOPMENT":7021,"ĠANGELEGENHEITEN":7022,"Ġlanguages":7023,"rang":7024,"beziehungen":7025,"Ġround":7026,"Ġ92":7027,"ĠIsland":7028,"ĠDoppel":7029,"Ġmoder":7030,"ĠDennoch":7031,"ĠDonnerstag":7032,"71":7033,"Ġcm":7034,"ĠMos":7035,"Ġverein":7036,"ĠKategor":7037,"ĠConvention":7038,"Ġcustomer":7039,"ĠBugtra":7040,"Ġtreatment":7041,"Ġdeta":7042,"Ġbeantw":7043,"Ġkos":7044,"Ġinterested":7045,"Ġencour":7046,"ML":7047,"Ġbre":7048,"ĠKroatien":7049,"ĠVerhandlungen":7050,"Ġmanufact":7051,"Ġrelativ":7052,"Ġkonkre":7053,"ynam":7054,"Focus":7055,"Ġfinis":7056,"eding":7057,"ĠNice":7058,"Ġneuer":7059,"ĠGemeinsame":7060,"ĠBugtraq":7061,"Ġsle":7062,"Ġfail":7063,"ruit":7064,"Ġsimilar":7065,"Ġeinger":7066,"uclear":7067,"Sp":7068,"Traq":7069,"Ġaware":7070,"ĠJon":7071,"Ġerschein":7072,"ĠProced":7073,"ĠEnjoy":7074,"ĠAbout":7075,"STA":7076,"Ġpopular":7077,"Ġverstehen":7078,"rÃ¼":7079,"Ġsauber":7080,"ĠMic":7081,"ĠWIRTSCHAFT":7082,"ĠPrÃ¤":7083,"ĠKir":7084,"idiar":7085,"Ġdead":7086,"ĠINTERNAL":7087,"ĠGeschenk":7088,"Ġangezeigt":7089,"Ġcharacter":7090,"fil":7091,"Ġtem":7092,"anda":7093,"Ġdecor":7094,"enntnis":7095,"ĠBugTraq":7096,"ĠVIII":7097,"ĠSecurityFocus":7098,"Ġverwenden":7099,"ĠReihe":7100,"cer":7101,"tte":7102,"ĠAct":7103,"Ġlux":7104,"avigation":7105,"ĠAsyl":7106,"Ġitems":7107,"ĠÃ¤uÃŁerst":7108,"ĠBINNENMARKT":7109,"ĠENTWICKL":7110,"63":7111,"ĠIX":7112,"ĠUnder":7113,"lines":7114,"ĠAdresse":7115,"ĠTick":7116,"altet":7117,"rogen":7118,"Ġculture":7119,"ĠMass":7120,"ĠGese":7121,"ande":7122,"abor":7123,"ĠSerb":7124,"Ġbalance":7125,"ĠInstall":7126,"ĠKMU":7127,"JA":7128,"ĠRead":7129,"stimmung":7130,"ĠSonst":7131,".-":7132,"CD":7133,"urd":7134,"gegen":7135,"enty":7136,"ĠThose":7137,"ford":7138,"iode":7139,"Ġ85":7140,"ĠGenau":7141,"richtung":7142,"ĠSchweiz":7143,"Ġzufrieden":7144,"ĠGewÃ¤sser":7145,"Ġcomprom":7146,"Ġdarum":7147,"Ġemploy":7148,"ĠTeilnehmer":7149,"Ġsupported":7150,"ĠHis":7151,"ĠOS":7152,"Ġseason":7153,"ĠMonate":7154,"Ġdoubt":7155,"Ġentsprechen":7156,"ĠFisheries":7157,"Ġfore":7158,"Ġfinde":7159,"house":7160,"Ġ2020":7161,"Ġgestellt":7162,"tained":7163,"ĠSchlÃ¼ssel":7164,"zeichnung":7165,"ĠgefÃ¤hr":7166,"iterranean":7167,"has":7168,"ĠMi":7169,"ĠMand":7170,"Ġlernen":7171,"ĠVoll":7172,"Ġeinigen":7173,"Ġvertreten":7174,"Ġatmosphere":7175,"ĠWerk":7176,"ĠgegenÃ¼ber":7177,"vertheless":7178,"Ch":7179,"ĠwÃ¤hlen":7180,"ĠStelle":7181,"ĠGold":7182,"ĠBekÃ¤mpfung":7183,"astrop":7184,"ĠAlt":7185,"iano":7186,"ĠPrÃ¤sidenten":7187,"ĠerklÃ¤rte":7188,"Ġhigher":7189,"ature":7190,"reise":7191,"ĠSICHERHEIT":7192,"ĠStimme":7193,"izes":7194,"Ġknowledge":7195,"Ġcentury":7196,"ĠSTRA":7197,"beschreibung":7198,"ĠPhilippe":7199,"cle":7200,"cement":7201,"Ġdigital":7202,"Ġthus":7203,"ĠLu":7204,"ĠVeranst":7205,"ĠSchengen":7206,"Ġexchange":7207,"ĠBeide":7208,"mehr":7209,"ĠReserv":7210,"ziehen":7211,"ĠVERKEHR":7212,"Ġeigene":7213,"Ġconvenient":7214,"DA":7215,"ĠSTE":7216,"ĠSME":7217,"ĠEas":7218,"ĠBud":7219,"ĠUR":7220,"Ġvorgesehen":7221,"Ġthroughout":7222,"ĠFamilien":7223,"ĠCentre":7224,"wach":7225,"ĠRES":7226,"Ġanderes":7227,"laf":7228,"orea":7229,"Ġausgest":7230,"ĠDelegation":7231,"ĠAussch":7232,"ĠPROGRAM":7233,"Ġeasily":7234,"ĠInvestitions":7235,"Ġfundamental":7236,"bereink":7237,"Ġtypes":7238,"Ġvergessen":7239,"arth":7240,"Ġbody":7241,"ĠPL":7242,"quare":7243,"Ġ%.":7244,"Ġevening":7245,"Ġestablished":7246,"Ġpublished":7247,"500":7248,"Ġfant":7249,"ĠGran":7250,"ĠLauf":7251,"Ġrein":7252,"inden":7253,"uffer":7254,"Ġunten":7255,"Ġzug":7256,"oking":7257,"ĠPressemitteilungen":7258,"ĠStatist":7259,"Ġpleasant":7260,"Ġwonderful":7261,"schnitt":7262,"griffen":7263,"Se":7264,"Ġisland":7265,"ĠMÃ¤n":7266,"icip":7267,"ĠREG":7268,"tak":7269,"ĠInc":7270,"ĠFragest":7271,"ĠFlor":7272,"ĠGesetz":7273,"ĠwÃ¼nschen":7274,"ga":7275,"ĠTerr":7276,"ĠMir":7277,"Ġtouch":7278,"ending":7279,"ĠANLAGE":7280,"Ġarrange":7281,"Ġbeginnt":7282,"haben":7283,"Ġface":7284,"Ġpan":7285,"ĠFÃ¼hr":7286,"Ġviol":7287,"ĠHart":7288,"ĠNotes":7289,"Ġimages":7290,"rÃ¤sent":7291,"iction":7292,"lÃ¤ss":7293,"ĠKonsultation":7294,"Ġdraw":7295,"Ġimmediately":7296,"OK":7297,"itarian":7298,"Ġneg":7299,"ĠWein":7300,"ENCE":7301,"Ġremark":7302,"ĠGoogle":7303,"ĠFragestunde":7304,"79":7305,"otion":7306,"ĠEnts":7307,"TIG":7308,"AMMEN":7309,"Ġbringen":7310,"Ġwhether":7311,"spro":7312,"ĠPrem":7313,"ii":7314,"Ġherr":7315,"eme":7316,"Ġkur":7317,"ĠUs":7318,"ĠAng":7319,"ausschuss":7320,"eth":7321,"ĠOhne":7322,"Ġ05":7323,"ĠCharl":7324,"ĠStad":7325,"Ġobvious":7326,"ĠPosition":7327,"ĠLou":7328,"verage":7329,"Ġcoming":7330,"Ġkomme":7331,"Ġwindow":7332,"tion":7333,"Ġterr":7334,"Ġshown":7335,"Ġprefer":7336,"ĠERNEN":7337,"face":7338,"hotel":7339,"erer":7340,"Ġterror":7341,"Ġways":7342,"Ġpie":7343,"eten":7344,"zeugen":7345,"Ġresol":7346,"ĠAbstimmungsst":7347,"ĠbegrÃ¼ÃŁen":7348,"Ġswimming":7349,"Ġcriteria":7350,"ĠDid":7351,"ĠFan":7352,"Ġvict":7353,"Ã¤ude":7354,"Ġlesen":7355,"Ġfoot":7356,"Ġweiteren":7357,"ĠlÃ¤uft":7358,"Ġproperty":7359,"Ġgenehmigt":7360,"ĠERNENN":7361,"ĠAbstimmungsstunde":7362,"Ġhuge":7363,"Ġstimmt":7364,"ĠVorteile":7365,"ELL":7366,"ĠAndris":7367,"finden":7368,"Ġpaid":7369,"itzerland":7370,"ĠWed":7371,"entlicht":7372,"Ġladies":7373,"ĠLook":7374,"Ġverm":7375,"Ġ44":7376,"Ġ400":7377,"ĠCommunication":7378,"Ġmaximum":7379,"bus":7380,"wenden":7381,"Ġimm":7382,"endes":7383,"ĠProcess":7384,"trie":7385,"ILD":7386,"ĠVorschriften":7387,"ĠSus":7388,"ĠOP":7389,"ERUNG":7390,"atell":7391,"Ġstage":7392,"ĠBerg":7393,"Ġregular":7394,"Ġherunter":7395,"ĠServices":7396,"ape":7397,"Ġwine":7398,"usion":7399,"meer":7400,"ĠHoff":7401,"Ġstarting":7402,"Ġfunds":7403,"Ġterrace":7404,"ĠwÃ¤hr":7405,"ĠBER":7406,"ĠEuropÃ¤isches":7407,"ĠEUROPÃĦISCHER":7408,"ĠSubmitted":7409,"Ġweltweit":7410,"off":7411,"Ġgives":7412,"ĠLim":7413,"ĠAnlage":7414,"Ã¤tzen":7415,"Ġavo":7416,"Ã¤ndig":7417,"LICHE":7418,"Ġoppos":7419,"OUR":7420,"Presse":7421,"Ġung":7422,"ĠTier":7423,"ĠEing":7424,"ĠMel":7425,"ategie":7426,"Ġtransfer":7427,"GewÃ¤sser":7428,"%)":7429,"TA":7430,"put":7431,"ĠTagen":7432,"tains":7433,"ionsk":7434,"Ġmedia":7435,"Ġmotor":7436,"Ġbenefits":7437,"onte":7438,"Ġwent":7439,"rete":7440,"ĠTas":7441,"ĠPRE":7442,"omas":7443,"ĠVAT":7444,"...?":7445,"Ġconsultation":7446,"Ġbeginnen":7447,"ĠMagst":7448,"De":7449,"itation":7450,"ĠHor":7451,"ĠÃ¶ffentlichen":7452,"Ġimprove":7453,"ĠMobiltel":7454,"ĠHANDELSPOLITIK":7455,"76":7456,"lassen":7457,"Ġagricultural":7458,"ĠDokumenten":7459,"Ġprofit":7460,"ournal":7461,"PO":7462,"Ġsouth":7463,"ĠEven":7464,"Ġehr":7465,"Ġgreen":7466,"ĠYork":7467,"Ġdrive":7468,"ĠIndustry":7469,"ĠFINANZEN":7470,"ĠbegrÃ¼ÃŁe":7471,"Ġerwartet":7472,"ĠPrivat":7473,"Ġfill":7474,"Ġblock":7475,"Ġeins":7476,"abhÃ¤ng":7477,"IND":7478,"schlieÃŁend":7479,"ĠSkype":7480,"Ġprofessional":7481,"ĠMÃ¶glichkeiten":7482,"Ġefficient":7483,"Ġkonnte":7484,"\",":7485,"AU":7486,"Ġdir":7487,"itness":7488,"ibr":7489,"ĠÃ¼berhaupt":7490,"immung":7491,"hoben":7492,"ĠLiefer":7493,"Ġfields":7494,"Ġprepared":7495,"fghan":7496,"zwe":7497,"teilen":7498,"Ġdesigned":7499,"ĠBemerkungen":7500,"ĠWissenschaft":7501,"ĠSolidar":7502,"Ġsociety":7503,"FOL":7504,"Ġwritten":7505,"ĠApartment":7506,"Ġextens":7507,"sehen":7508,"ĠIND":7509,"ĠInternal":7510,"ĠRATES":7511,"ĠKarte":7512,"ĠKomprom":7513,"Ġcommunication":7514,"wel":7515,"ĠStellen":7516,"Ġpaper":7517,"tert":7518,"elie":7519,"ĠManagement":7520,"ĠkÃ¶nnten":7521,"gesellschaft":7522,"ĠLocation":7523,"ĠLisbon":7524,"down":7525,"ĠBur":7526,"ĠHIN":7527,"umm":7528,"zeuge":7529,"Ġwarten":7530,"Ġ96":7531,"Ġgesprochen":7532,"Ġgutes":7533,"ĠOrganisation":7534,"Ġtransparency":7535,"vÃ¶lker":7536,"ĠSuper":7537,"eds":7538,"Ġdoor":7539,"EF":7540,"zentr":7541,"Ġip":7542,"Ġbott":7543,"ĠAfghan":7544,"Ġnennen":7545,"ĠGeorge":7546,"ktoren":7547,"ĠHomepage":7548,"TUR":7549,"Ġbil":7550,"Ġvac":7551,"ĠStaat":7552,"Ġgetting":7553,"Ġkostet":7554,"orden":7555,"ĠPf":7556,"ĠPina":7557,"osit":7558,"Ġsei":7559,"ĠProm":7560,"ĠRatsprÃ¤sident":7561,"Ġconcerning":7562,"Ġpassword":7563,"ĠProgramms":7564,"Ġkitchen":7565,"Ġsav":7566,"ĠPack":7567,"Ġgese":7568,"Ġtrack":7569,"Ġphoto":7570,"Ġdifference":7571,"Ġimpress":7572,"Ġensure":7573,"ĠwÃ¤hrend":7574,"POLITIK":7575,"aria":7576,"Ġemer":7577,"ĠRub":7578,"Ġbeide":7579,"ifel":7580,"Ġbedeut":7581,"box":7582,"ĠCasino":7583,"ĠPerspekt":7584,"ĠSonder":7585,"ĠKn":7586,"ĠNa":7587,"ĠErd":7588,"ointed":7589,"URITY":7590,"Ġmeasure":7591,"ĠVerwaltungs":7592,"Ġinnerhalb":7593,"VI":7594,"Ġdim":7595,"Ġbuffet":7596,"Ġcivil":7597,"ungss":7598,"Ã¤ss":7599,"igure":7600,"ĠOR":7601,"Ġheard":7602,"Ġschaffen":7603,"balgs":7604,"Ġcapacity":7605,"CLUS":7606,"Ġli":7607,"Ġlau":7608,"abon":7609,"Ġexpl":7610,"Ġ74":7611,"Ġappe":7612,"ĠGrenzen":7613,"hagen":7614,"Ġcolor":7615,"ĠFirstly":7616,"Ġrecogn":7617,"Ġcategory":7618,"ĠPad":7619,"idge":7620,"Ġerk":7621,"ĠAufent":7622,"Ġseries":7623,"Ġfacts":7624,"ĠPiebalgs":7625,"Le":7626,"bark":7627,"ĠSyr":7628,"irit":7629,"ĠKur":7630,"Ġerlaub":7631,"ĠDemoc":7632,"Ġweeks":7633,"Ġopportunities":7634,"Ġcovered":7635,"ĠPaper":7636,"Ã¤um":7637,"ĠCustom":7638,"ĠAnfragen":7639,"ĠImplement":7640,"ĠÃ¶ffentliche":7641,"ĠWord":7642,"ĠFRE":7643,"ĠCr":7644,"ĠTheir":7645,"iffer":7646,"ĠSprachen":7647,"Ġformat":7648,"ĠAPPOINT":7649,"Europ":7650,"leicht":7651,"Ġperm":7652,"ĠRules":7653,"ĠLU":7654,"Ġ41":7655,"Ġrequires":7656,"Ġkeiner":7657,"ĠFinanzierung":7658,"ĠSwiss":7659,"Ġguarantee":7660,"Ġvillage":7661,"Ġtim":7662,"Ġsave":7663,"ĠGebiet":7664,"ĠAktiv":7665,"ĠModern":7666,"Ġstudy":7667,"leitung":7668,"Ġarrival":7669,"Ġpotential":7670,"ĠtÃ¤glich":7671,"Er":7672,"ĠVen":7673,"Ġrepe":7674,"Ġunbed":7675,"Ġstory":7676,"nehm":7677,"agraph":7678,"ĠYear":7679,"ĠWaren":7680,"ĠUpdate":7681,"drÃ¼ck":7682,"ĠEconomy":7683,"ĠInt":7684,"ERS":7685,"Ġconsequ":7686,"ĠALL":7687,"ĠSECURITY":7688,"lass":7689,"sam":7690,"Ġahead":7691,"iegen":7692,"Ġfishing":7693,"asts":7694,"Ġbor":7695,"ala":7696,"Ġcaus":7697,"Ġrechts":7698,"Ġrule":7699,"ĠWhite":7700,"Ġ52":7701,"USAMMEN":7702,"angeb":7703,"ĠMex":7704,"Ġjedes":7705,"lemente":7706,"Engl":7707,"ĠSchwerpunkt":7708,"prechen":7709,"Ġsil":7710,"ĠBay":7711,"entwick":7712,"ĠRess":7713,"ĠGM":7714,"ĠGip":7715,"ĠNÃ¤here":7716,"elles":7717,"Ġsuccessful":7718,"Ġselected":7719,"KAN":7720,"nungs":7721,"wes":7722,"Ġborn":7723,"ERATION":7724,"Ġcontr":7725,"Ġadvert":7726,"Ġsites":7727,"ĠResort":7728,"uffic":7729,"ĠSicherheits":7730,"ĠSCHLUSS":7731,"ĠBemerkung":7732,"idelines":7733,"Ġfish":7734,"stead":7735,"ĠQU":7736,"Ġinstitutions":7737,"Ġrenov":7738,"FAH":7739,"mon":7740,"estens":7741,"heben":7742,"Ġgames":7743,"ĠLiss":7744,"umn":7745,"ĠBeach":7746,"Ġappre":7747,"periode":7748,"flÃ¤":7749,"ĠImpro":7750,"Ġmotion":7751,"ĠBlog":7752,"stances":7753,"osp":7754,"schie":7755,"jected":7756,"ĠBeruf":7757,"ĠLÃ¶sungen":7758,"Ġabsolut":7759,"Ġeditors":7760,"hung":7761,"eneral":7762,"Ġiniti":7763,"ĠPA":7764,"ĠGES":7765,"Ġlost":7766,"ĠDefence":7767,"ĠAndro":7768,"ÃľSS":7769,"ĠSitzungs":7770,"ĠBeitritts":7771,"ĠGenehmigung":7772,"inary":7773,"hel":7774,"ĠWunsch":7775,"tausch":7776,"achse":7777,"Ġgelegen":7778,"Ã¶rt":7779,"fÃ¼hren":7780,"Ġself":7781,"Ġideas":7782,"ĠDirector":7783,"ĠTelefon":7784,"Ġganzen":7785,"Ġmilit":7786,"ĠAUF":7787,"jÃ¤hr":7788,"sa":7789,"Ġten":7790,"atic":7791,"ĠSA":7792,"ĠApartments":7793,"ĠMitte":7794,"ĠBO":7795,"ĠKontrolle":7796,"ĠNutzen":7797,"icken":7798,"ĠComputer":7799,"Ġbooking":7800,"ĠRegeln":7801,"orsch":7802,"ĠSingle":7803,"ĠEur":7804,"ura":7805,"ĠGast":7806,"Ġlay":7807,"apt":7808,"Ġ1993":7809,"Ġbegin":7810,"ximately":7811,"ĠSwitzerland":7812,"Ġopposite":7813,"barkeit":7814,"Ġsource":7815,"Ġcause":7816,"Ġsex":7817,"OLL":7818,"ĠDarauf":7819,"ras":7820,"Ġsort":7821,"ĠData":7822,"Ġcards":7823,"ĠPaket":7824,"ĠCCI":7825,"imb":7826,"ĠLive":7827,"Ġexhib":7828,"2008":7829,"Ġagreements":7830,"Ġparticipants":7831,"53":7832,"69":7833,"ĠExce":7834,"ĠAmerican":7835,"58":7836,"Ġpen":7837,"Ġhour":7838,"terne":7839,"ĠCard":7840,"ĠRet":7841,"ĠKenntnis":7842,"ĠZunÃ¤chst":7843,"ĠEinsatz":7844,"ĠTex":7845,"Ġfounded":7846,"ĠCONCLUS":7847,"Ġdefinit":7848,"Ġhighl":7849,"Ġwollte":7850,"FOLGER":7851,"ĠGott":7852,"ĠLuc":7853,"ĠVerÃ¤nder":7854,"Ġ39":7855,"loss":7856,"ĠAbs":7857,"Ġincreased":7858,"Ġdeveloped":7859,"ĠMerger":7860,"mÃ¤ÃŁig":7861,"gern":7862,"Ġfahren":7863,"ĠBeteil":7864,"Ġrepla":7865,"Ġgemeinsam":7866,"Ġincreasing":7867,"Ġeinges":7868,"Ġverschiedenen":7869,"Ġsustainable":7870,"ĠFusionsk":7871,"Auss":7872,"iser":7873,"Ġfand":7874,"olo":7875,"ida":7876,"Ġregel":7877,"Ġkil":7878,"ĠInstitution":7879,"TEG":7880,"2009":7881,"Ġdecided":7882,"Ġgeworden":7883,"ĠNorway":7884,"ĠUniversity":7885,"ĠFirma":7886,"ĠRechnungs":7887,"ĠKampf":7888,"Ġcompromise":7889,"ercial":7890,"aring":7891,"ĠAgency":7892,"ierter":7893,"Ġcontext":7894,"ĠDerzeit":7895,"Ġindic":7896,"cribe":7897,"ĠÃĸffentliche":7898,"Ġslow":7899,"Ġgesamte":7900,"ĠLissabon":7901,"rem":7902,"ĠRem":7903,"ĠLesen":7904,"ĠThird":7905,"Ġclar":7906,"zeichen":7907,"ĠStrategy":7908,"Ġbalcon":7909,"Ġappropriate":7910,"Pl":7911,"PAR":7912,"QL":7913,"zÃ¶s":7914,"iter":7915,"ĠCe":7916,"Ġbevor":7917,"ĠZentral":7918,"cco":7919,"Ġparty":7920,"Ġproper":7921,"ĠDennis":7922,"Ġvariety":7923,"ĠDiskussion":7924,"debate":7925,"gliche":7926,"karte":7927,"vo":7928,"Ġwinter":7929,"ĠHead":7930,"klus":7931,"Ġhappening":7932,"Ġbroad":7933,"IFE":7934,"Ġefforts":7935,"**":7936,"Ġsale":7937,"utive":7938,"Ġconstruction":7939,"Ġsole":7940,"Ġzeigen":7941,"stoffe":7942,"nesday":7943,"pid":7944,"zone":7945,"Ġsport":7946,"ĠMail":7947,"amous":7948,"ibilities":7949,"ĠerhÃ¶":7950,"Ġgoal":7951,"Ġregions":7952,"attung":7953,"Ġuseful":7954,"Ġexpensive":7955,"Ġminimum":7956,"ĠLegal":7957,"ĠEmpfehlung":7958,"ufficient":7959,"Aussprache":7960,"tete":7961,"Ġintens":7962,"gef":7963,"ĠVAN":7964,"Ġ38":7965,"Ġfolgender":7966,"ratic":7967,"Ġexception":7968,"DEN":7969,"bauen":7970,"Ġmail":7971,"ĠMigration":7972,"ĠHE":7973,"ĠMrd":7974,"Ġcomfort":7975,"Ġrestr":7976,"ÃĦN":7977,"ĠPerhaps":7978,"ĠÃ¤hn":7979,"ĠProcedure":7980,"aders":7981,"ĠSource":7982,"ĠAk":7983,"ĠIraq":7984,"ĠMÃ¼n":7985,"ĠWand":7986,"ĠHins":7987,"ĠJoint":7988,"ĠMarg":7989,"Ġoutcome":7990,"ĠPeople":7991,"Ġexperien":7992,"1999":7993,"Ġseparate":7994,"ĠErkki":7995,"Ġcongratulate":7996,"km":7997,"Ġbackground":7998,"ĠIC":7999,"ĠFach":8000,"ĠGift":8001,"ĠKriterien":8002,"ĠVe":8003,"decken":8004,"ktiv":8005,"Ġstructure":8006,"Ġvern":8007,"Ġledig":8008,"ĠAmb":8009,"ĠAssociation":8010,"Ġreservation":8011,"ĠverÃ¶ffentlicht":8012,"ĠÃĦnderungsantrÃ¤ge":8013,"ĠSCHLUSSFOLGER":8014,"EO":8015,"ĠErach":8016,"ĠPo":8017,"ĠSchlieÃŁ":8018,"ĠBecause":8019,"astle":8020,"Ġteach":8021,"OMM":8022,"2003":8023,"ĠgewÃ¤hr":8024,"ĠKÃ¶nnen":8025,"verstÃ¤ndlich":8026,"STRÃĸ":8027,"Ġrelevant":8028,"ĠAfghanistan":8029,"ĠErachtens":8030,"daten":8031,"ral":8032,"Ġthreat":8033,"indern":8034,"ĠVorbereit":8035,"Ġseinem":8036,"Ġzweiten":8037,"Ġpolitischen":8038,"Ġaktuelle":8039,"Ġkleinen":8040,"Ġlediglich":8041,"comm":8042,"dienst":8043,"Ġinfrast":8044,"ĠBEI":8045,"ĠFlex":8046,"Ġging":8047,"berto":8048,"ocol":8049,"ĠDeswegen":8050,"ĠUrs":8051,"ĠGeneralse":8052,"GN":8053,"IZ":8054,"Ã¤ne":8055,"Ġalt":8056,"ĠProz":8057,"ervice":8058,"ORS":8059,"ĠZahlungen":8060,"verty":8061,"Ġeinzige":8062,"nungen":8063,"ares":8064,"ĠTEL":8065,"ĠPool":8066,"Ġanalys":8067,"ĠRein":8068,"Ã¶rper":8069,"ĠPraxis":8070,"ffizien":8071,"zeptabel":8072,"KS":8073,"QU":8074,"pal":8075,"Ġmap":8076,"ĠPower":8077,"Ġgeeignet":8078,"ĠSpaÃŁ":8079,"Ġeinzelnen":8080,"ĠSicht":8081,"ĠDI":8082,"artige":8083,"arbeitung":8084,"ICHT":8085,"Ġplayer":8086,"Ġprakt":8087,"Ġchallenges":8088,"ĠHartmut":8089,"td":8090,"ĠApplause":8091,"ĠElect":8092,"Ġhor":8093,"ĠHu":8094,"ĠHolid":8095,"ĠZimm":8096,"ĠArten":8097,"Ġdisapp":8098,"Ġtruth":8099,"hood":8100,"Ġphot":8101,"uption":8102,"ĠAnton":8103,"Ġsuppl":8104,"ĠEnglisch":8105,"Ġjewe":8106,"ĠChem":8107,"Ġpractical":8108,"ĠSummary":8109,"ĠInfrastruktur":8110,"zy":8111,"Ġign":8112,"ĠWater":8113,"Ġeuch":8114,"ĠGest":8115,"oses":8116,"Ã¤tig":8117,"ĠNeelie":8118,"Ġadvance":8119,"mÃ¶glichkeit":8120,"Ġerfolgreich":8121,"ĠWednesday":8122,"CO":8123,"usst":8124,"Ġlives":8125,"ĠANH":8126,"Ġspeed":8127,"ĠXII":8128,"ĠPartners":8129,"Ġprotect":8130,"Ġlevels":8131,"Ġeval":8132,"ĠZeichen":8133,"UCHT":8134,"ĠNutzung":8135,"Ġlovely":8136,"ĠVorsitzes":8137,"ĠERNENNUNGEN":8138,"heb":8139,"ĠhÃ¶ren":8140,"Ġprob":8141,"ECAF":8142,"Ġ202":8143,"AME":8144,"Ġconsidered":8145,"Ġpopulation":8146,"techn":8147,"ĠPak":8148,"ĠBade":8149,"Ġvari":8150,"Ġgain":8151,"rahmen":8152,"Ġdeath":8153,"ĠbestÃ¤t":8154,"Ġcarried":8155,"Ġrespond":8156,"ĠberÃ¼ck":8157,"Ġrunning":8158,"ĠBosn":8159,"af":8160,"ched":8161,"ĠOffic":8162,"Ġplus":8163,"ĠHerzen":8164,"Ġengine":8165,"Ġobserv":8166,"ĠElekt":8167,"Ġforeign":8168,"Fra":8169,"iro":8170,"ĠForest":8171,"Ã¼cken":8172,"ĠQuelle":8173,"Ġbenutzen":8174,"Ġoffered":8175,"ĠMÃ¶chten":8176,"ĠVerkehrs":8177,"Ġpresented":8178,"Ġlimit":8179,"ĠNewsletter":8180,"ĠRealitÃ¤t":8181,"Ġperformance":8182,"iann":8183,"Ġol":8184,"ĠRoy":8185,"TIC":8186,"iedr":8187,"behÃ¶r":8188,"ĠprÃ¼":8189,"ordination":8190,"ĠMedia":8191,"Ġunterbricht":8192,"ĠBeratung":8193,"such":8194,"ancy":8195,"rock":8196,"ĠProdi":8197,"Ġunterschied":8198,"ĠZusammenhang":8199,"Ġhighly":8200,"ĠSubs":8201,"here":8202,"enhagen":8203,"Ġsetzt":8204,"ĠSand":8205,"ĠSinn":8206,"urance":8207,"Ġenorm":8208,"LAR":8209,"cia":8210,"Ġdream":8211,"Ġwid":8212,"Ġhost":8213,"Ġexternal":8214,"immungen":8215,"Ġdelivery":8216,"iversity":8217,"Ġdiskut":8218,"ĠSitzungsperiode":8219,"ĠHen":8220,"osal":8221,"ĠVert":8222,"TIS":8223,"ameter":8224,"ennung":8225,"Ġsuitable":8226,"Ġguter":8227,"Ġlaunch":8228,"Ġminute":8229,"Ġvisitors":8230,"Ġwaiting":8231,"ries":8232,"Ġmem":8233,"leisch":8234,"ĠnÃ¤":8235,"ĠPut":8236,"ĠVorgehen":8237,"ĠAuswÃ¤r":8238,"Ġinside":8239,"Ġ282":8240,"ĠFreiheit":8241,"Ġunbedingt":8242,"Member":8243,"ikt":8244,"Ġ;":8245,"Ġwants":8246,"Ġfresh":8247,"gefÃ¼hrt":8248,"Ġkaum":8249,"ĠYouth":8250,"baren":8251,"Ġmyself":8252,"AMT":8253,"Ġrelated":8254,"Ġemphas":8255,"ĠGovernment":8256,"ĠAppro":8257,"Ġsupply":8258,"Ġanimals":8259,"Dok":8260,"itle":8261,"Ġfert":8262,"ĠInfl":8263,"law":8264,"rance":8265,"ĠRegul":8266,"Ġvielleicht":8267,"Ġeuros":8268,"Ġelectric":8269,"KA":8270,"ĠDort":8271,"umb":8272,"ERAL":8273,"ĠAbsatz":8274,"Ġ800":8275,"ATEN":8276,"ongs":8277,"Ġtragen":8278,"RAGEN":8279,"Ġcalls":8280,"iance":8281,"ĠSor":8282,"ĠLA":8283,"ulted":8284,"udem":8285,"Ġ88":8286,"struments":8287,"gehend":8288,"ĠQuestions":8289,"ĠBereiche":8290,"Ġmovement":8291,"Ã¼ltig":8292,"Ġtarget":8293,"Ġnahe":8294,"ĠDECIS":8295,"Ġdringend":8296,"ses":8297,"Ġsagt":8298,"ĠSud":8299,"Ġvirt":8300,"ray":8301,"ourable":8302,"istisch":8303,"lob":8304,"anging":8305,"ĠAbbott":8306,"Ġ600":8307,"Ġfeed":8308,"Ġreleased":8309,"ĠRednerin":8310,"ĠSCHLUSSFOLGERUNGEN":8311,"STRÃĸM":8312,"ham":8313,"ĠDritt":8314,"ĠAT":8315,"ĠBla":8316,"annen":8317,"Ġmechan":8318,"Ġschl":8319,"Ġengl":8320,"ĠWerte":8321,"Ġhohe":8322,"ĠBeihilfen":8323,"Ġannoun":8324,"ĠANHANG":8325,"DO":8326,"ora":8327,"Ġoben":8328,"Ġcy":8329,"ĠRich":8330,"ĠGU":8331,"hrte":8332,"ĠCho":8333,"attle":8334,"ĠPrioritÃ¤tsachse":8335,"Ġsan":8336,"ĠTA":8337,"ĠDol":8338,"ĠDuring":8339,"teren":8340,"Ġlines":8341,"ĠZudem":8342,"ĠLeute":8343,"Ġdiscussed":8344,"ĠIdee":8345,"ĠPier":8346,"Ġ(âĤ¬":8347,"ĠNic":8348,"ĠAnother":8349,"ERN":8350,"ĠStÃ¼ck":8351,"mented":8352,"Ã¤tigkeit":8353,"ĠDEF":8354,"Ġ250":8355,"ipping":8356,"ZIAL":8357,"ĠDecision":8358,"URE":8359,"fisch":8360,"iehe":8361,"Ġcele":8362,"ĠNik":8363,"ĠInstit":8364,"ĠRele":8365,"Ġabgeschlossen":8366,"twoch":8367,"ulla":8368,"ĠMenschenrechte":8369,"Ġanswers":8370,"ĠBooking":8371,"Ġmountain":8372,"Ġempfehlen":8373,"Ġappreci":8374,"kn":8375,"ĠKenn":8376,"ĠGewalt":8377,"Ġcarry":8378,"ĠAfrika":8379,"ĠÃ¼brigen":8380,"ĠMaÃŁnahme":8381,"Ġeingerichtet":8382,"ĠCONCLUSIONS":8383,"ĠTon":8384,"ĠPE":8385,"ĠPrag":8386,"ĠHall":8387,"ĠGod":8388,"ĠKy":8389,"ĠKarl":8390,"Ġshop":8391,"ĠGefahr":8392,"Ġ1992":8393,"ĠSpanish":8394,"Ġaktuellen":8395,"ĠHÃ¶he":8396,"ĠEinwÃ¤nde":8397,"Ġurgent":8398,"nd":8399,"Ġfall":8400,"ĠTOT":8401,"ĠBR":8402,"ĠBSE":8403,"Ã¤us":8404,"ivity":8405,"ĠClimate":8406,"Ġimproved":8407,"Ġinstitution":8408,"ĠTerrorismus":8409,"Ġherzlich":8410,"ĠKrieg":8411,"ĠAPPOINTMENTS":8412,"sc":8413,"ĠRights":8414,"ĠOff":8415,"Ġdeep":8416,"ugos":8417,"Ġ51":8418,"ologies":8419,"ĠVertrauen":8420,"Ġilleg":8421,"ĠFusionskontroll":8422,"hone":8423,"ĠCre":8424,"ĠLtd":8425,"take":8426,"ĠSeine":8427,"uds":8428,"Ġgewesen":8429,"Ġapplied":8430,"ĠKarten":8431,"ĠStraÃŁen":8432,"ĠKÃ¼che":8433,"ĠBÃ¼ro":8434,"Ġban":8435,"ĠDay":8436,"resp":8437,"Ġalternative":8438,"Ġverh":8439,"Ġwert":8440,"ounge":8441,"Ġ42":8442,"Ã¼nsche":8443,"ĠFlÃ¼":8444,"zeitig":8445,"Ġparagraph":8446,"Ġziehen":8447,"Ġdich":8448,"union":8449,"Ġfamous":8450,"Ġcurr":8451,"Ġcultural":8452,"ĠMat":8453,"tere":8454,"emin":8455,"ĠNon":8456,"ĠkÃ¼nft":8457,"pper":8458,"iency":8459,"Ġclub":8460,"ĠDimit":8461,"Ġdetailed":8462,"GA":8463,"came":8464,"fangen":8465,"fÃ¤lle":8466,"ĠfÃ¶r":8467,"Ġcla":8468,"Ġzentrale":8469,"ĠInnen":8470,"though":8471,"ĠStÃ¤d":8472,"grÃ¼ndet":8473,"ĠWerden":8474,"OPERATION":8475,"ĠENERGY":8476,"Ġsleep":8477,"519":8478,"Ġwinn":8479,"Ġblog":8480,"geber":8481,"ĠNie":8482,"Ġko":8483,"ĠIniti":8484,"erry":8485,"CHN":8486,"ĠSek":8487,"Ġplans":8488,"bedingungen":8489,"ĠHinsicht":8490,"ĠTOTAL":8491,"eing":8492,"Ġcert":8493,"ĠPed":8494,"ĠlÃ¤nger":8495,"Ã¼rz":8496,"Ġ--":8497,"Ġprot":8498,"ĠPros":8499,"Ġoral":8500,"ĠKommissions":8501,"ĠChild":8502,"ĠINTER":8503,"ĠHaushalt":8504,"ĠJede":8505,"ĠgrÃ¶ÃŁte":8506,"ĠverfÃ¼gen":8507,"ĠVerwaltung":8508,"ĠWiederauf":8509,"ĠerwÃ¤hnt":8510,"Ġschwierig":8511,"Ġsup":8512,"Ġbase":8513,"Ġcook":8514,"Ġreag":8515,"001":8516,"ĠSchlaf":8517,"ĠDeut":8518,"plant":8519,"plÃ¤tze":8520,"ĠLeon":8521,"ĠVerbindung":8522,"cape":8523,"hÃ¤s":8524,"ĠOrdnung":8525,"messen":8526,"Ġ),":8527,"ĠDina":8528,"emand":8529,"ĠOption":8530,"ĠerÃ¶ffnet":8531,"ĠVerl":8532,"ARBEIT":8533,"legung":8534,"Ġtreten":8535,"ĠAvra":8536,"WEIS":8537,"Ġausgestattet":8538,"ĠSolidaritÃ¤t":8539,"sÃ¤tze":8540,"vote":8541,"Ġnorth":8542,"Ã¼tzen":8543,"ĠHenn":8544,"ĠView":8545,"Ġerreich":8546,"Ġgreater":8547,"SSON":8548,"Ġbrings":8549,"ĠRegelung":8550,"ĠHerausforderung":8551,"MA":8552,"THE":8553,"cure":8554,"gas":8555,"ĠDISC":8556,"aler":8557,"ĠMON":8558,"ĠRO":8559,"Ġexerc":8560,"2006":8561,"ĠTagung":8562,"Ġgleiche":8563,"Ġdetail":8564,"ĠhÃ¤ufig":8565,"Ġanz":8566,"ĠHat":8567,"annes":8568,"Ġexclus":8569,"ĠNevertheless":8570,"Ġsimpl":8571,"Ġapplications":8572,"ĠDateien":8573,"bre":8574,"richten":8575,"ored":8576,"ĠDrit":8577,"iler":8578,"Ġalb":8579,"Ġverfolgt":8580,"ĠWirkung":8581,"Ġumfassen":8582,"Ġspielt":8583,"Ġplat":8584,"Ġconsumer":8585,"zeiten":8586,"Ġcompleted":8587,"Ã¼ndliche":8588,"2013":8589,"ĠMiddle":8590,"IX":8591,"VIT":8592,"inos":8593,"ĠIR":8594,"ĠCat":8595,"ĠKong":8596,"Ġwhite":8597,"ague":8598,"ĠBeschreibung":8599,"CCCC":8600,"Ġentspricht":8601,"mÃ¶glich":8602,"Abstimmung":8603,"Ġgesehen":8604,"ĠAvraam":8605,"General":8606,"kraft":8607,"Ġsays":8608,"ĠMuseum":8609,"Ã¼b":8610,"ĠJul":8611,"Ġneigh":8612,"Ġrat":8613,"zeption":8614,"Ġchance":8615,"Ġprim":8616,"ĠMittwoch":8617,"ĠAufgaben":8618,"ĠAuthor":8619,"Ġconfirm":8620,"Ġbrought":8621,"ĠTourismus":8622,"Ġruhig":8623,"Ġcritic":8624,"fass":8625,"rank":8626,"setz":8627,"arus":8628,"ichert":8629,"iane":8630,"ĠPalace":8631,"Ġaddressed":8632,"Ġjederzeit":8633,"ĠVerpflichtungen":8634,"Ġangesprochen":8635,"cul":8636,"sweise":8637,"Ġbi":8638,"Ġnights":8639,"Ġbecame":8640,"ufe":8641,"aint":8642,"Ġnoise":8643,"ĠNehmen":8644,"ĠHause":8645,"ĠStandpunkt":8646,"Ġholidays":8647,"rimin":8648,"Ġakzeptieren":8649,"ĠWahrheit":8650,"SV":8651,"Ġdise":8652,"rehens":8653,"Ġblack":8654,"ĠMess":8655,"vey":8656,"ĠDefin":8657,"Ġ89":8658,"dire":8659,"furt":8660,"Ġfire":8661,"Ġblo":8662,"Ġcas":8663,"ĠLIFE":8664,"ctors":8665,"ĠOJ":8666,"ĠWeiÃŁ":8667,"ANT":8668,"ĠschÃ¶ne":8669,"cles":8670,"ĠRegistr":8671,"ĠWillst":8672,"Ġfilm":8673,"pendent":8674,"VERKEHR":8675,"Ġpurchase":8676,"isely":8677,"ĠSir":8678,"ĠBlack":8679,"ĠCECAF":8680,"ĠGanz":8681,"Ġrejected":8682,"dete":8683,"ĠAnna":8684,"ĠChin":8685,"Ġtraffic":8686,"TIONS":8687,"Ġcoffee":8688,"Ġscreen":8689,"ĠRoad":8690,"stellungen":8691,"Ġorganis":8692,"Ã¶tig":8693,"ĠCenter":8694,"ĠSOCIAL":8695,"ĠFacts":8696,"Ġfreundlich":8697,"ĠJacques":8698,"Ġinfo":8699,"Ã¼ÃŁ":8700,"Ġconv":8701,"ĠBevÃ¶lker":8702,"ĠArmut":8703,"jekte":8704,"ELLE":8705,"ĠBerichts":8706,"ĠAngelegenheit":8707,"Ġcheap":8708,"Ġprinciples":8709,"ĠTU":8710,"ĠMond":8711,"ĠBan":8712,"ickt":8713,"ĠInf":8714,"ĠVerkauf":8715,"Ġleisten":8716,"Ġgesp":8717,"Ministerin":8718,"ĠJedes":8719,"band":8720,"Ġglad":8721,"ĠKal":8722,"ĠKrit":8723,"teller":8724,"EDER":8725,"ĠPrime":8726,"rechend":8727,"Ġpressure":8728,"ĠStatement":8729,"Ġload":8730,"Ġsondern":8731,"ĠSmall":8732,"bereinkommen":8733,".,":8734,"VEN":8735,"ih":8736,"ĠDou":8737,"ĠWa":8738,"ĠVassiliou":8739,"Ġstands":8740,"ĠBereichen":8741,"ĠScience":8742,"ĠAngebote":8743,"wandel":8744,"Ġentirely":8745,"ĠBritish":8746,"ĠVerteidigung":8747,"pass":8748,"Ġbuchen":8749,"Ġgran":8750,"Ġgross":8751,"Ġprepar":8752,"Ġmachine":8753,"ously":8754,"Ġarticle":8755,"Ġstrengthen":8756,"nel":8757,"Ġut":8758,"ering":8759,"ĠVier":8760,"ĠEuropol":8761,"ĠAuftrag":8762,"ĠRedaktion":8763,"MAN":8764,"ortet":8765,"ieg":8766,"ĠFÃ¤":8767,"ĠLang":8768,"ĠUntersuch":8769,"Ġanyone":8770,"2004":8771,"Ġassessment":8772,"verkehrs":8773,"ĠKapital":8774,"Ġsetting":8775,"ĠSMEs":8776,"Ġbalcony":8777,"Ġsuffer":8778,"ĠPas":8779,"ĠBere":8780,"ĠHon":8781,"ĠHist":8782,"Ġged":8783,"Ġmeters":8784,"Ġ49":8785,"Ġ95":8786,"Ġfrequ":8787,"ĠAssessment":8788,"reiten":8789,"Ġregistered":8790,"inem":8791,"Ġdraft":8792,"anlage":8793,"ĠUl":8794,"Ġ76":8795,"gelt":8796,"ĠMediterranean":8797,"ĠXIV":8798,"Ġapproximately":8799,"Ġstatus":8800,"ĠBoden":8801,"Ġ753":8802,"ĠCasa":8803,"Ġexisting":8804,"Ġwait":8805,"ĠMcC":8806,"HA":8807,"aign":8808,"ĠtÃ¤tig":8809,"onstr":8810,"anten":8811,"ĠEigen":8812,"undert":8813,"ĠgÃ¼nst":8814,"ĠVill":8815,"Ġsehe":8816,"Ġsched":8817,"ĠAlter":8818,"Ġprin":8819,"Ġworked":8820,"ĠConclusion":8821,"Ã¶ffnung":8822,"Ġhoffen":8823,"ĠMonat":8824,"Ġplayers":8825,"Ġgarant":8826,"Ã¼tzliche":8827,"zwischen":8828,"ĠHerausforderungen":8829,"Ġcrucial":8830,"ĠGesellschaft":8831,"wasser":8832,"chter":8833,"Ġwunder":8834,"ĠNumber":8835,"Ġjour":8836,"Ġquot":8837,"Ġvorliegen":8838,"Ġcommunity":8839,"ĠConclusions":8840,"ĠAddition":8841,"Ġstatistics":8842,"ĠSOZIAL":8843,"ĠerklÃ¤rt":8844,"Ġentwickelt":8845,"Ġlargest":8846,"LIC":8847,"ĠCarl":8848,"ĠVom":8849,"Ġplant":8850,"Ġconsist":8851,"ĠPlen":8852,"ĠPRES":8853,"Ġversuchen":8854,"ĠIndia":8855,"ĠDienstleistungen":8856,"ĠwÃ¼nsche":8857,"____":8858,"Ġsales":8859,"ĠHoliday":8860,"falt":8861,"ĠSinne":8862,"ĠIl":8863,"ĠMacht":8864,"ĠFour":8865,"iffe":8866,"iker":8867,"Ġalloc":8868,"ĠGrenz":8869,"gebiet":8870,"ĠMenge":8871,"ĠTraining":8872,"ĠWohl":8873,"Ġdrink":8874,"Ġmajority":8875,"Ġaims":8876,"Ġgesamten":8877,"Ġconsumers":8878,"ĠLesung":8879,"ĠAnmerkungen":8880,"OMMUN":8881,"()":8882,"ĠAUD":8883,"ĠnÃ¤m":8884,"ĠPun":8885,"ĠGÃ¼n":8886,"Ġprevent":8887,"Ġmeines":8888,"itÃ¤re":8889,"folgerung":8890,"ĠNothing":8891,"ĠAgentur":8892,"Ġtotally":8893,"ossible":8894,"Ġzustimmen":8895,"ĠBESCHL":8896,"schuld":8897,"ĠNÃ¤chste":8898,"ĠAndroulla":8899,"ĠnÃ¤mlich":8900,"hop":8901,"yan":8902,"itiveness":8903,"Ġwin":8904,"iellen":8905,"ales":8906,"leb":8907,"ĠGO":8908,"ĠKabel":8909,"ĠgefÃ¼hrt":8910,"UNGSPOLITIK":8911,"Ġraised":8912,"ĠQuality":8913,"Ġkurze":8914,"PE":8915,"ĠSur":8916,"ĠMake":8917,"ĠMaterial":8918,"ela":8919,"ILL":8920,"ĠAsia":8921,"Ġcollect":8922,"ronic":8923,"ĠConsumer":8924,"Ġerneut":8925,"ĠPerspektiven":8926,"polit":8927,"ĠSY":8928,"ĠRob":8929,"Ġexport":8930,"Ġaspect":8931,"ĠFinal":8932,"ilding":8933,"Ġbetroffen":8934,"Ġcoast":8935,"standing":8936,"ĠDatenschutz":8937,"ĠÃ¤uÃŁ":8938,"Ġniemand":8939,"ĠSalz":8940,"eesc":8941,"Ġliked":8942,"ĠErfahrung":8943,"Ġlautet":8944,"Ġhilf":8945,"ĠBio":8946,"ĠBAL":8947,"ĠFenster":8948,"ĠAusgang":8949,"Ġdiscover":8950,"ĠAmt":8951,"ĠAdministr":8952,"ĠBarroso":8953,"Ġsaying":8954,"ĠZwischen":8955,"Ġindustrial":8956,"Ġintegration":8957,"onym":8958,"ĠAlexand":8959,"Ġdauert":8960,"Ex":8961,"It":8962,"rey":8963,"Ġantw":8964,"ĠlÃ¤nd":8965,"Ġweil":8966,"ATES":8967,"ĠShow":8968,"Ġnumbers":8969,"Ġihrem":8970,"ĠCarlo":8971,"ĠGarten":8972,"ĠbenÃ¶tigt":8973,"ĠAufenthalt":8974,"lam":8975,"Ġtats":8976,"het":8977,"ĠTim":8978,"ĠKurs":8979,"ĠZU":8980,"ĠReview":8981,"uba":8982,"tellte":8983,"Ġknows":8984,"azza":8985,"Ġzehn":8986,"Ġmaterials":8987,"ĠprÃ¼fen":8988,"ĠHennon":8989,"Ne":8990,"iable":8991,"pack":8992,"seit":8993,"enze":8994,"ĠTer":8995,"Ġbag":8996,"Ġhostel":8997,"ĠBack":8998,"Ġlaufen":8999,"Ġstress":9000,"zenz":9001,"cont":9002,"ĠOnce":9003,"ĠVereinbar":9004,"ĠKOMM":9005,"Ġeffort":9006,"Ġrepresented":9007,"51925":9008,"Ġsyn":9009,"ĠMP":9010,"Ġthous":9011,"ĠThus":9012,"ĠAusbildung":9013,"ĠCOOPERATION":9014,"Ġthinking":9015,"ĠJoh":9016,"version":9017,"ĠnÃ¤chster":9018,"ĠSpieler":9019,"prÃ¼fung":9020,"ĠGesundheits":9021,"Ġbehandelt":9022,"Ġsolidarity":9023,"heet":9024,"Ġfirm":9025,"Ġbessere":9026,"ĠIrak":9027,"ĠWien":9028,"ĠWolf":9029,"ĠPos":9030,"ĠhÃ¤lt":9031,"ĠBUD":9032,"Ã¤te":9033,"quem":9034,"Ġdeterm":9035,"Ã¤ngen":9036,"ĠDeclaration":9037,"spolitik":9038,"ĠOrder":9039,"Ġrecent":9040,"Ġremov":9041,"ĠShar":9042,"mbuds":9043,"Ġsecure":9044,"ĠForschungs":9045,"Ġauthorities":9046,"ĠOpfer":9047,"ĠGENERAL":9048,"no":9049,"Ġtrifft":9050,"ario":9051,"Ġbaby":9052,"roes":9053,"ĠEisen":9054,"ĠGute":9055,"ĠVien":9056,"Ġunbe":9057,"ĠItalian":9058,"Ġsupports":9059,"fault":9060,"ĠRooms":9061,"ĠPlayer":9062,"Ġestablish":9063,"USAMMENARBEIT":9064,"GR":9065,"last":9066,"itial":9067,"itude":9068,"ĠWE":9069,"ĠPoker":9070,"Ã¤llt":9071,"Ġsechs":9072,"Ġgenommen":9073,"ÃĦF":9074,"Ġwelchen":9075,"ĠAmts":9076,"Ġdeliber":9077,"ĠSanta":9078,"Ġregistration":9079,"Ġcouple":9080,"HR":9081,"pret":9082,"rechts":9083,"ĠNAT":9084,"Ġkg":9085,"owers":9086,"Ġdenken":9087,"ANA":9088,"Ġfolgendes":9089,"strumente":9090,"ĠIIa":9091,"ITTEL":9092,"grade":9093,"Ġerlaubt":9094,"Al":9095,"fiz":9096,"chmal":9097,"Ġdan":9098,"Ġnames":9099,"ĠControl":9100,"ĠHT":9101,"ĠKredit":9102,"Ġconcept":9103,"ensions":9104,"Ġbutton":9105,"Ġworldwide":9106,"ĠRoma":9107,"Ġactivity":9108,"leitet":9109,"Ġwrite":9110,"ĠKopf":9111,"ĠKommentare":9112,"ĠLouis":9113,"lÃ¤ndern":9114,"vements":9115,"ĠSomet":9116,"gegeben":9117,"Ġhous":9118,"Ġansp":9119,"ido":9120,"Ġforms":9121,"Ã¶hn":9122,"ĠThree":9123,"Ġchem":9124,"INS":9125,"ĠMarc":9126,"Ġ120":9127,"ĠMeet":9128,"Ġregarding":9129,"ĠEL":9130,"Ġersch":9131,"Ġroute":9132,"Ġprem":9133,"Ã¤hrung":9134,"schlieÃŁlich":9135,"zeugt":9136,"ziehung":9137,"bereiche":9138,"Ġmarked":9139,"ĠENERGIE":9140,"action":9141,"ĠDadurch":9142,"Ġpick":9143,"ĠFunkt":9144,"ĠCF":9145,"ĠHO":9146,"olden":9147,"inde":9148,"ĠOsten":9149,"Ġweak":9150,"Ġaufbauen":9151,"Ġrichtigen":9152,"zeg":9153,"ĠBerichte":9154,"Ġspricht":9155,"Ġcommercial":9156,"Ġendlich":9157,"ĠTool":9158,"Ġwenige":9159,"Ġeffects":9160,"ĠKohÃ¤s":9161,"ĠDatum":9162,"ĠBahnhof":9163,"ÃľSSE":9164,"ĠAktion":9165,"ĠGut":9166,"Ġlake":9167,"Ġkaufen":9168,"annten":9169,"ĠspÃ¤t":9170,"Ġserviert":9171,"ĠArbeiten":9172,"Ġplaying":9173,"Ġadvice":9174,"Ġfinancing":9175,"ĠHamburg":9176,"Ġmonitoring":9177,"ĠRen":9178,"estic":9179,"Ġerfolgen":9180,"Ġ53":9181,"Ġ84":9182,"Ġcool":9183,"ĠÃĸl":9184,"Ġscr":9185,"crib":9186,"mitteln":9187,"Ġtourist":9188,"ĠMotor":9189,"mÃ¶glichkeiten":9190,"Daten":9191,"leistet":9192,"ĠMO":9193,"ĠFÃ¼":9194,"Ġlabour":9195,"ibel":9196,"Ġexec":9197,"ĠÃ¼berw":9198,"akten":9199,"Ġworkers":9200,"Ġstarts":9201,"ĠSuche":9202,"employment":9203,"ĠWohnung":9204,"Ġjudgment":9205,"ĠNOTE":9206,"Ġvehicles":9207,"omb":9208,"icit":9209,"ĠGRE":9210,"ERV":9211,"aves":9212,"Ġfreue":9213,"ĠBetrieb":9214,"ĠEverything":9215,"ĠTreffen":9216,"ĠBESCHLÃľSSE":9217,"RY":9218,"Str":9219,"Ġmatch":9220,"ĠMun":9221,"iment":9222,"etter":9223,"ĠDiesen":9224,"werte":9225,"ĠAusgaben":9226,"ĠBelarus":9227,"kennen":9228,"Ġapproval":9229,"ĠDokumente":9230,"ĠGebÃ¤ude":9231,"ĠBlue":9232,"Ġenjoyed":9233,"Ġoccas":9234,"ĠOperation":9235,"Ġ0475":9236,"ĠerfÃ¼llt":9237,"ĠKategorie":9238,"ny":9239,"ĠMas":9240,"Ã¤hl":9241,"Ġkomp":9242,"Ġklare":9243,"Ġones":9244,"ĠOmbuds":9245,"Ġris":9246,"ĠBezug":9247,"Ġ97":9248,"ĠMeter":9249,"Ġfehlt":9250,"ĠAtlant":9251,"Ġangegeben":9252,"ĠKoordin":9253,"ĠRessourcen":9254,"ĠDISCUSS":9255,"organ":9256,"ĠAF":9257,"ĠMasch":9258,"urb":9259,"ĠCAP":9260,"Ġbeachten":9261,"ĠzunÃ¤chst":9262,"ĠThomas":9263,"Ġgekommen":9264,"Ã¤nden":9265,"Ġwood":9266,"Ġcontinu":9267,"ĠLaw":9268,"Ġpromote":9269,"ĠDimension":9270,"ĠBeginn":9271,"ĠExcellent":9272,"Ã¼her":9273,"ĠBol":9274,"ĠHolz":9275,"ĠRome":9276,"Ġconfl":9277,"odes":9278,"angt":9279,"ĠschlÃ¤":9280,"Ġapplause":9281,"Ġbesondere":9282,"Ġ1990":9283,"Ġconsists":9284,"Ġremember":9285,"Ġplayed":9286,"ĠParte":9287,"Ġprotected":9288,"ĠZahlungs":9289,"ĠUnternehmens":9290,"ĠFurthermore":9291,"Ġfeature":9292,"anze":9293,"ĠMold":9294,"uren":9295,"ĠBILD":9296,"Ġlower":9297,"andal":9298,"vertreten":9299,"ĠStructural":9300,"Ġ47":9301,"Ġpayments":9302,"ĠWettbewerbsfÃ¤higkeit":9303,"FAHREN":9304,"Ġinfrastructure":9305,"Ġeher":9306,"abled":9307,"Ġcompon":9308,"Ġtrust":9309,"ĠJahrh":9310,"ĠUmgebung":9311,"Ġ%)":9312,"ifications":9313,"Ġwishes":9314,"Ġimplemented":9315,"ĠLinie":9316,"ĠKlein":9317,"Ġpositiv":9318,"Ġangeboten":9319,"mlich":9320,"uis":9321,"ĠSet":9322,"ĠPot":9323,"iga":9324,"raw":9325,"ERB":9326,"annte":9327,"fahrens":9328,"folge":9329,"Ġunseres":9330,"Ġfinally":9331,"Ġacceptable":9332,"ĠOpening":9333,"Ġprecisely":9334,"ETING":9335,"GEMEIN":9336,"PA":9337,"Ġfallen":9338,"aru":9339,"ĠTyp":9340,"alled":9341,"Ġinstruments":9342,"ĠFoto":9343,"Ġstore":9344,"END":9345,"ARE":9346,"ĠMonica":9347,"ĠFreund":9348,"Ġelections":9349,"ĠÃ¼b":9350,"fuhr":9351,"gruppe":9352,"ĠReleases":9353,"FIN":9354,"HU":9355,"len":9356,"Ġsymbol":9357,"ĠRSS":9358,"ĠVorhaben":9359,"Ġ700":9360,"ĠNeues":9361,"ĠUnterkunft":9362,"Ġoverall":9363,"ĠShop":9364,"holen":9365,"Ġnetworks":9366,"ĠEmpfehlungen":9367,"meldung":9368,"Ġerscheint":9369,"PF":9370,"ories":9371,"ĠKorea":9372,"Ġbecomes":9373,"ĠVo":9374,"Ġreich":9375,"ĠverstÃ¤r":9376,"ĠAspekt":9377,"ĠGericht":9378,"ĠMetho":9379,"afft":9380,"He":9381,"lÃ¶s":9382,"Ġdynam":9383,"Ġsufficient":9384,"ĠMik":9385,"ĠGrow":9386,"Ġbeteil":9387,"ĠJack":9388,"laufen":9389,"ĠFramework":9390,"heres":9391,"Ġgleichen":9392,"Ġadvantage":9393,"personen":9394,"Ġexplanations":9395,"ĠHAUS":9396,"EAR":9397,"fish":9398,"Ġ{":9399,"Ġcamera":9400,"lles":9401,"Ġlength":9402,"ĠLicht":9403,"Ġreact":9404,"Ġshops":9405,"Ġheav":9406,"ĠGrÃ¶ÃŁe":9407,"Ġproduced":9408,"athan":9409,"ĠZweifel":9410,"ĠSTRATEG":9411,"Ġinitiatives":9412,"ĠFusionskontrollvorschriften":9413,"Ber":9414,"Ġdates":9415,"ĠHas":9416,"ĠVia":9417,"denken":9418,"allery":9419,"bezogen":9420,"Ġtrave":9421,"Ġconsulted":9422,"ĠKonzept":9423,"Ġhands":9424,"ĠGovern":9425,"ancing":9426,"ĠStudio":9427,"Ġfunktionieren":9428,"FORMATION":9429,"bringen":9430,"hre":9431,"ĠÃ¶":9432,"Ġdon":9433,"Ġhol":9434,"etary":9435,"ĠRezeption":9436,"Ġship":9437,"reichend":9438,"Ġkept":9439,"ĠNachbar":9440,"Ġzwar":9441,"orgung":9442,"enew":9443,"Ġgeboren":9444,"ĠOtherwise":9445,"ĠGarant":9446,"Ġsozialen":9447,"Ġplanning":9448,"ĠKolleg":9449,"nissen":9450,"yond":9451,"ĠBru":9452,"abwe":9453,"Ġunz":9454,"ĠgegrÃ¼ndet":9455,"barometer":9456,"Ġcommittee":9457,"geln":9458,"neten":9459,"Ġspeaking":9460,"Ġmetres":9461,"Ġvollkommen":9462,"Programm":9463,"ĠUseful":9464,"Ġtelephone":9465,"ĠFelder":9466,"ĠVorbereitung":9467,"EEC":9468,"IEL":9469,"gers":9470,"park":9471,"arily":9472,"Ã¼ter":9473,"ĠCa":9474,"ĠHers":9475,"erei":9476,"TIGE":9477,"Ġgrund":9478,"Ġbrand":9479,"ĠBesucher":9480,"Ġpartnership":9481,"ĠGEMEINSAME":9482,"Ġconsequences":9483,"ĠPakistan":9484,"SF":9485,"Ġbzw":9486,"ĠDre":9487,"ĠEF":9488,"irus":9489,"Ġreden":9490,"Ġgets":9491,"ireless":9492,"ograf":9493,"ĠTeile":9494,"Ġsets":9495,"Ġhighest":9496,"forderungen":9497,"ĠREP":9498,"ĠVolk":9499,"Ġurban":9500,"Ġcollection":9501,"ĠArbeitsplÃ¤tze":9502,"ĠPolitical":9503,"Ġstraight":9504,"Ġerror":9505,"Ġfantastic":9506,"Kommissar":9507,"lit":9508,"pool":9509,"ĠSach":9510,"ione":9511,"ĠFire":9512,"ila":9513,"Ġbetrach":9514,"ĠContrib":9515,"IRTSCHAFTS":9516,"ontrollen":9517,"Ġbezahlen":9518,"Ġavoid":9519,"ĠPartnership":9520,"ĠVienna":9521,"anies":9522,"ĠSund":9523,"Ġanderer":9524,"ĠInstrument":9525,"Ġscheme":9526,"ĠLearn":9527,"Ġbestimmt":9528,"ĠMoreover":9529,"ĠAnnual":9530,"ĠHerzlich":9531,"ĠPasswort":9532,"Ġdangerous":9533,"ĠPROGRAMME":9534,"ĠFÃ¤llen":9535,"Ġmand":9536,"Ã¼d":9537,"Ġgave":9538,"ando":9539,"Ġdeg":9540,"ollar":9541,"ĠBehÃ¶r":9542,"ROL":9543,"pliz":9544,"ĠChange":9545,"Ġ1991":9546,"ĠMorgen":9547,"Ġdefinitely":9548,"ffizienz":9549,"ĠPuer":9550,"Ġangen":9551,"adem":9552,"Ġru":9553,"Ġallows":9554,"ĠAbstimmungen":9555,"ĠMensch":9556,"Ġexpend":9557,"ĠNetwork":9558,"Ġspecies":9559,"Ġreleases":9560,"ĠCommunications":9561,"Ġcampaign":9562,"ĠISO":9563,"ĠOLAF":9564,"wÃ¼rd":9565,"wachung":9566,"ĠschlÃ¤gt":9567,"BAN":9568,"Ġsinn":9569,"Ġfear":9570,"Ġbrowser":9571,"ĠPrinzip":9572,"ĠBetr":9573,"ĠLiebe":9574,"Ġdevelopments":9575,"ĠMilch":9576,"uttle":9577,"Ġtransparent":9578,"ĠModell":9579,"bÃ¼":9580,"press":9581,"Ġnuclear":9582,"ĠKauf":9583,"aming":9584,"Ġstates":9585,"ĠSchaden":9586,"ĠBeh":9587,"Ġstability":9588,"ĠGeben":9589,"Ġapprox":9590,"Ġcars":9591,"Ã¶rdert":9592,"Ġwesentlich":9593,"ĠIndeed":9594,"TOR":9595,"bha":9596,"Ġcred":9597,"Ġdesk":9598,"Ġspirit":9599,"Ġstayed":9600,"UTZ":9601,"ĠTabelle":9602,"ĠSchlieÃŁlich":9603,"AIN":9604,"hner":9605,"ria":9606,"Ġaverage":9607,"itime":9608,"ĠSoll":9609,"ĠMak":9610,"Ġlag":9611,"Ġlok":9612,"Ġverk":9613,"erner":9614,"Ġfollowed":9615,"Ġgrate":9616,"ĠIndien":9617,"Ġdritte":9618,"Ġarbeitet":9619,"Ġcontract":9620,"Ġplanned":9621,"Ġkonkrete":9622,"Ġprobably":9623,"Ġcelebr":9624,"Ġsides":9625,"ĠWIRTSCHAFTS":9626,"ĠGN":9627,"ĠAnca":9628,"Ġcondu":9629,"iviane":9630,"Ġchann":9631,"ĠShould":9632,"atherine":9633,"ĠReformen":9634,"ĠBeschÃ¤ftigungs":9635,"ĠSummit":9636,"ĠBotschaft":9637,"ĠlÃ¶sen":9638,"ĠDECISIONS":9639,"kommissar":9640,"will":9641,"Ġduty":9642,"ĠErÃ¶ffnung":9643,"bezÃ¼glich":9644,"ĠHafen":9645,"legant":9646,"ĠBeihilfe":9647,"ĠUmweltschutz":9648,"Ġconfidence":9649,"Ġinterests":9650,"Ġcarefully":9651,"ĠPrakt":9652,"ĠBasis":9653,"ĠALLGEMEIN":9654,"SC":9655,"bu":9656,"ĠtrÃ¤gt":9657,"onom":9658,"ĠAid":9659,"ĠId":9660,"ĠCONS":9661,"Ġbear":9662,"amed":9663,"ĠEuch":9664,"rÃ¤gen":9665,"ĠVoraus":9666,"Ġpercent":9667,"ACE":9668,"ĠREV":9669,"Ġelement":9670,"GESAMT":9671,"ĠCOMMON":9672,"Te":9673,"bad":9674,"ores":9675,"ĠMem":9676,"Ġpoll":9677,"iced":9678,"Ġlisted":9679,"Ġerheb":9680,"Ġentry":9681,"Ġfee":9682,"ĠOrig":9683,"Ġsolchen":9684,"ĠDiam":9685,"Ġbestimmte":9686,"qualitÃ¤t":9687,"Ġviolence":9688,"flÃ¤che":9689,"ĠRoyal":9690,"LOS":9691,"Ġdinner":9692,"Ġpurs":9693,"ĠBalt":9694,"ĠVAL":9695,"ighted":9696,"gebaut":9697,"ĠUnterschied":9698,"Ġbedarf":9699,"ĠAgain":9700,"ĠPartnerschaft":9701,"alyse":9702,"commun":9703,"ĠnÃ¤her":9704,"ĠTurn":9705,"road":9706,"ĠEmer":9707,"ĠWald":9708,"Ġtrying":9709,"ĠVisit":9710,"Ġcopy":9711,"Ġinnovative":9712,"Ġsn":9713,"ĠTonnen":9714,"ĠTitel":9715,"ĠWik":9716,"Ġpure":9717,"ĠHy":9718,"ĠKroes":9719,"ĠJournal":9720,"Ġrich":9721,"ROM":9722,"Ġdecide":9723,"Ġpackages":9724,"Ġnationalen":9725,"Ġeinzig":9726,"Ġlearning":9727,"Ġanti":9728,"Ġdistribution":9729,"gypt":9730,"ĠHINWEIS":9731,"GET":9732,"cis":9733,"las":9734,"lÃ¤nd":9735,"time":9736,"wan":9737,"ĠDrogen":9738,"ĠEffe":9739,"Ġbegan":9740,"ĠLake":9741,"Ġverab":9742,"Ġdefault":9743,"bene":9744,"ACK":9745,"waren":9746,"Ġreforms":9747,"Ġarrived":9748,"ĠADOP":9749,"ĠLeitlinien":9750,"AY":9751,"GI":9752,"seite":9753,"Ġfigure":9754,"ĠTR":9755,"Ġintend":9756,"ĠMut":9757,"ĠGel":9758,"Ġ(*":9759,"ĠNichts":9760,"Ġkontakt":9761,"icks":9762,"Ġentschieden":9763,"Ġspeech":9764,"ĠThanks":9765,"ĠBeste":9766,"Ġexplain":9767,"Ġmedic":9768,"ĠFischler":9769,"ĠHinweise":9770,"Ġannual":9771,"Ġaffected":9772,"SMinister":9773,"zielle":9774,"erweise":9775,"chem":9776,"ĠNÃ¼tzliche":9777,"derung":9778,"Ġjemand":9779,"Ġord":9780,"Ġresort":9781,"fÃ¼hrungen":9782,"ĠTradition":9783,"ĠGesprÃ¤":9784,"ĠGeneraldire":9785,"ĠTechnologie":9786,"ĠNorwegen":9787,"Ġupdated":9788,"Ġblue":9789,"Ġdamage":9790,"Ġrailway":9791,"Ġjourney":9792,"Ġrisks":9793,"Beit":9794,"ĠSun":9795,"ĠDrei":9796,"ĠFot":9797,"ĠCatherine":9798,"either":9799,"lymp":9800,"ĠStrom":9801,"ĠÃ¼berall":9802,"klÃ¤rung":9803,"Ġprovisions":9804,"Ġequal":9805,"Ġflight":9806,"BERG":9807,"!!!":9808,"assiliouEU":9809,"rosoft":9810,"ĠKompromiss":9811,"Ġgrateful":9812,"DI":9813,"Mar":9814,"NL":9815,"VassiliouEU":9816,"mack":9817,"sichtig":9818,"Ġsports":9819,"ĠBMW":9820,"ĠCould":9821,"ĠOK":9822,"Ġconstant":9823,"ĠVergleich":9824,"ĠVorlage":9825,"Ġ98":9826,"Ġsold":9827,"uesday":9828,"EIGN":9829,"ĠGeldb":9830,"ĠIdeal":9831,"ĠKlimawandel":9832,"ĠTrotzdem":9833,"NAH":9834,"orca":9835,"Ġwest":9836,"Ġborder":9837,"ĠDO":9838,"ĠEssen":9839,"ĠMB":9840,"ĠWege":9841,"Ġcontain":9842,"flanzen":9843,"icherung":9844,"hÃ¶ren":9845,"ĠFrankfurt":9846,"Ġirgend":9847,"ĠJonathan":9848,"ĠImplementation":9849,"entwicklung":9850,"Ġgrundlegen":9851,"hme":9852,"ĠSH":9853,"ĠSant":9854,"Ġfruit":9855,"ĠArab":9856,"ĠFact":9857,"Ġtours":9858,"ĠGentlemen":9859,"amber":9860,"industr":9861,"ĠJose":9862,"Ġneben":9863,"ALM":9864,"Ġnachhaltige":9865,"Ġbitten":9866,"ĠStellungnahme":9867,"ĠINSGESAMT":9868,"ĠMicrosoft":9869,"behÃ¶rde":9870,"ĠDimitri":9871,"Ġansprechen":9872,"cceed":9873,"sichtigt":9874,"Ġsomit":9875,"Ġfuer":9876,"ĠCivil":9877,"Ġgeplant":9878,"Ġdepart":9879,"agne":9880,"izont":9881,"Ġimpossible":9882,"Ġrecommended":9883,"ĠIdeen":9884,"ĠfÃ¶rdern":9885,"ĠKOMMISSION":9886,"tze":9887,"Ġemissions":9888,"Ġluck":9889,"ĠVoting":9890,"ĠOld":9891,"ĠZivil":9892,"ĠSchÃ¶n":9893,"ĠSearch":9894,"Ġlooks":9895,"Ġconcrete":9896,"finanz":9897,"ĠFOREIGN":9898,"preise":9899,"ĠbegrÃ¼ÃŁt":9900,"Ġindependent":9901,"Ġaudio":9902,"ĠDirekt":9903,"Ġverbessert":9904,"ÃĦFTIG":9905,"300":9906,"kretÃ¤r":9907,"ĠMonta":9908,"ĠWLAN":9909,"ĠnÃ¶tig":9910,"ĠhÃ¤ngt":9911,"ĠFÃ¤lle":9912,"Ġbequem":9913,"ĠGelegen":9914,"ologien":9915,"ĠMalm":9916,"Ġsurpr":9917,"Ġreasonable":9918,"ĠÃ¶ffentlich":9919,"Ġabstain":9920,"siehe":9921,"Ġded":9922,"itate":9923,"Ġfixed":9924,"Ġbir":9925,"Ã¼g":9926,"ĠFakten":9927,"Ġgere":9928,"ĠRou":9929,"amin":9930,"Ã¶p":9931,"ĠInform":9932,"ĠAns":9933,"ĠChair":9934,"Ġspezie":9935,"Ġplaced":9936,"ĠReding":9937,"ETZ":9938,"ĠKonfl":9939,"ĠPROCED":9940,"ĠMittelmeer":9941,"Ġfragen":9942,"Ġarticles":9943,"Ġreduction":9944,"ĠhÃ¶her":9945,"ĠPlaza":9946,"Ġappears":9947,"ĠMEETING":9948,"Ġschlecht":9949,"ĠTRANSPARENCY":9950,"ĠtatsÃ¤chlich":9951,"CA":9952,"pm":9953,"Ġsage":9954,"Ġbind":9955,"ĠDistr":9956,"ĠAID":9957,"uraru":9958,"ĠRA":9959,"ibly":9960,"ĠStano":9961,"Ġheut":9962,"bekÃ¤mpfung":9963,"Ġmetro":9964,"Ã¤tzlich":9965,"ĠObject":9966,"ĠAuÃŁenbeziehungen":9967,"Ġzahlreiche":9968,"ĠBeschluss":9969,"Ġcommitment":9970,"Ġterrorism":9971,"ĠSustainable":9972,"Ġexpenditure":9973,"bett":9974,"Ġbur":9975,"ĠBir":9976,"ĠCAR":9977,"ĠSchiff":9978,"lose":9979,"INE":9980,"ARY":9981,"wohner":9982,"Ġcovers":9983,"Ġgesetzt":9984,"Ġjustice":9985,"ologische":9986,"ĠausgewÃ¤":9987,"Ġdeveloping":9988,"ĠMobilitÃ¤t":9989,"Ġopinions":9990,"Ġmindestens":9991,"onnes":9992,"riminal":9993,"Ġrelaxing":9994,"Ġefficiency":9995,"ĠpersÃ¶nlich":9996,"ĠPrÃ¼fung":9997,"ĠiPhone":9998,"Ġsenden":9999,"Ġharmon":10000,"Ġearl":10001,"ĠLife":10002,"Ġkrit":10003,"ĠjÃ¤hr":10004,"akte":10005,"ĠVorauss":10006,"ublin":10007,"ĠgenieÃŁen":10008,"ĠWelches":10009,"ĠgewÃ¼n":10010,"ĠBesonder":10011,"Ġphase":10012,"ĠSpezial":10013,"ĠDisc":10014,"ifizierung":10015,"unehmen":10016,"ĠTarif":10017,"ĠAktionsplan":10018,"Ġappeal":10019,"ĠALLGEMEINE":10020,"nam":10021,"nern":10022,"Ġtru":10023,"orary":10024,"ĠTem":10025,"ĠBreak":10026,"ĠverÃ¤ndert":10027,"ROW":10028,"occo":10029,"ĠAltern":10030,"Ġsucceed":10031,"ĠEurostat":10032,"richtungen":10033,"Ġelekt":10034,"ĠFrÃ¼hstÃ¼cksb":10035,"Ġtreffen":10036,"ĠAudio":10037,"ĠJavier":10038,"ĠRuhe":10039,"ĠCompetition":10040,"HT":10041,"fest":10042,"vision":10043,"asc":10044,"ĠElemente":10045,"Ġanimal":10046,"ĠHol":10047,"ĠKen":10048,"ĠAnteil":10049,"Ġattend":10050,"Ġvorbei":10051,"izin":10052,"Ġguide":10053,"ĠIrish":10054,"Ġserve":10055,"ĠBoard":10056,"ĠBanken":10057,"ĠWesteren":10058,"Ġrecommendation":10059,"ĠTRANSPARENZ":10060,"ĠPaduraru":10061,"Ġanalysis":10062,"ĠDrittens":10063,"SL":10064,"sy":10065,"Ġcoll":10066,"ĠWil":10067,"Ġhom":10068,"Ġvess":10069,"ĠUnit":10070,"Ġstake":10071,"tries":10072,"ITZ":10073,"Ġstets":10074,"Ġnachstehen":10075,"ĠFrid":10076,"Ġcourses":10077,"ughter":10078,"Ġoperations":10079,"Ġinstallation":10080,"ĠhÃ¤tten":10081,"Ġautomatically":10082,"fÃ¤llt":10083,"Ġpoverty":10084,"ohl":10085,"rate":10086,"Ġdur":10087,"ĠASS":10088,"Ġmel":10089,"Ġnumer":10090,"Ġforget":10091,"look":10092,"angel":10093,"Ġregret":10094,"Ġoffiz":10095,"atoren":10096,"ĠCompanies":10097,"Ġaktual":10098,"ĠProtokolls":10099,"Ġbekomm":10100,"Ġperfectly":10101,"Ġult":10102,"Ġcities":10103,"ĠWÃ¼r":10104,"ulf":10105,"ĠVerwendung":10106,"ĠEuropeans":10107,"ITÃĦ":10108,"frika":10109,"ĠdurchgefÃ¼hrt":10110,"Ġclients":10111,"IDIG":10112,"ĠVERTE":10113,"ĠbeschÃ¤ft":10114,"Ġimprovement":10115,"sequently":10116,"ĠFarben":10117,"Ġmistake":10118,"fuhren":10119,"kommens":10120,"ĠChildren":10121,"rehensive":10122,"cam":10123,"Ġagriculture":10124,"aries":10125,"Ġmut":10126,"Ġbein":10127,"ĠLetz":10128,"umin":10129,"verstanden":10130,"Ġentscheid":10131,"Ġ73":10132,"Ġspoke":10133,"ĠMax":10134,"Ġrecently":10135,"Ġphys":10136,"eputy":10137,"ĠFormular":10138,"ĠPressekontakte":10139,"Ġticket":10140,"spe":10141,"Ġdank":10142,"Ġfisheries":10143,"temp":10144,"Ġbon":10145,"Ã¤st":10146,"Ġsell":10147,"Ġstring":10148,"Ġvertra":10149,"ĠBrian":10150,"ontin":10151,"ĠCohesion":10152,"ÃľN":10153,"ĠAppl":10154,"Ġfestgelegt":10155,"Ġgrowing":10156,"Ġreduced":10157,"Ġreferred":10158,"Ġbedrooms":10159,"ĠKritik":10160,"ĠPRESID":10161,"Br":10162,"Script":10163,"SQL":10164,"TR":10165,"ziert":10166,"Ġdre":10167,"Ġce":10168,"ĠMID":10169,"ĠPER":10170,"ammer":10171,"ĠBeim":10172,"ĠEuropÃ¤er":10173,"Ġcompl":10174,"Ġspend":10175,"Ġbesuchen":10176,"ĠMitgliedstaat":10177,"Ġgewinnen":10178,"ĠgroÃŁes":10179,"ĠCompany":10180,"Ġseconds":10181,"Ġtourism":10182,"Ġparticipate":10183,"ĠBeschlÃ¼sse":10184,"Ġrepresents":10185,")?":10186,"Ġdram":10187,"Ġsand":10188,"ĠSara":10189,"ichern":10190,"ĠHost":10191,"ĠRule":10192,"ĠKor":10193,"Ġyes":10194,"inea":10195,"Ġsho":10196,"ĠSektor":10197,"schafter":10198,"Ġvorgelegt":10199,"chtest":10200,"chnet":10201,"code":10202,"Ġopening":10203,"ĠTorres":10204,"ĠZusatz":10205,"ĠRichard":10206,"ĠVERTEIDIG":10207,"bit":10208,"dienste":10209,"rd":10210,"Ã¼ge":10211,"ĠCome":10212,"ĠKO":10213,"Ġstre":10214,"Ġmeant":10215,"ROGRAM":10216,"rÃ¤ger":10217,"Ġgenannt":10218,"EDEN":10219,"ĠAntid":10220,"ĠSuites":10221,"Ġseriously":10222,"porate":10223,"Ġvoice":10224,"ĠPREPAR":10225,"ĠBUDGET":10226,"ĠGrowth":10227,"ĠMalmstrÃ¶m":10228,"Ġaward":10229,"ĠauÃŁerdem":10230,"ĠMov":10231,"ĠWi":10232,"Ġeen":10233,"Ġgolf":10234,"iling":10235,"etten":10236,"ĠKreat":10237,"Ġlas":10238,"Ġformer":10239,"Ġconver":10240,"assador":10241,"Ġ54":10242,"Ġprint":10243,"Ġplenty":10244,"ĠSafety":10245,"Ġverbunden":10246,"ĠEveryone":10247,"Ġtaste":10248,"ĠFISCHLER":10249,"Ġflexible":10250,"ĠAbgeordneten":10251,"EUR":10252,"fÃ¤lt":10253,"Ġaffairs":10254,"ĠSatur":10255,"used":10256,"Ġhall":10257,"Ã¼rze":10258,"schw":10259,"oci":10260,"Ġcounter":10261,"ĠLandes":10262,"ĠResults":10263,"Ġscen":10264,"iendly":10265,"ĠDaran":10266,"ĠMÃ¶chtest":10267,"Ġfacing":10268,"ĠTodd":10269,"ĠGerichtshofs":10270,"Ġdimension":10271,"ĠCecil":10272,"Ġphotograph":10273,"ĠInflation":10274,"Ġantworten":10275,"Fi":10276,"bie":10277,"gien":10278,"Ġsam":10279,"ĠTuesday":10280,"ĠMig":10281,"ĠWaffen":10282,"Ġlobby":10283,"uts":10284,"Ġnotice":10285,"ugg":10286,"Ġdemonstr":10287,"Ġ1989":10288,"ĠMenÃ¼":10289,"Ġsometimes":10290,"fordert":10291,"Ġcontinues":10292,"Ġverloren":10293,"ĠFestival":10294,"BR":10295,"craft":10296,"Ġdient":10297,"ĠDam":10298,"ĠEigent":10299,"ĠGE":10300,"ĠbefÃ¼r":10301,"ĠList":10302,"ĠSchwar":10303,"ĠSchaff":10304,"TEC":10305,"Ġspot":10306,"Ġaccord":10307,"Ġbenutzt":10308,"Ġclient":10309,"ĠFreiz":10310,"Ġasking":10311,"Ġgemeinsamen":10312,"Ġbriefly":10313,"ĠAndreas":10314,"ĠPierre":10315,"Os":10316,"do":10317,"netz":10318,"set":10319,"Ġdrop":10320,"asis":10321,"ĠTal":10322,"ĠHard":10323,"igend":10324,"ĠNone":10325,"ĠOlymp":10326,"Ġwebs":10327,"quate":10328,"iking":10329,"INA":10330,"apter":10331,"Ġperhaps":10332,"lÃ¤uf":10333,"ĠFreunde":10334,"ĠRichtlinien":10335,"ĠVersand":10336,"BEREIT":10337,"Ġprofession":10338,"Ġcontrols":10339,"Ġrecommendations":10340,"Ġstudents":10341,"ĠunterstÃ¼tze":10342,"Ġmeaning":10343,"scheinlich":10344,"Ġglass":10345,"ĠCOMMISSION":10346,"ĠBESCHÃĦFTIG":10347,"regelung":10348,"Ġdepends":10349,"ĠChoose":10350,"ĠBevÃ¶lkerung":10351,"ĠCecilia":10352,"SI":10353,"cast":10354,"fers":10355,"mod":10356,"ĠTisch":10357,"Ġcold":10358,"Ġinitial":10359,"ĠKris":10360,"Ġreference":10361,"ĠNob":10362,"Ġproud":10363,"ado":10364,"ĠSche":10365,"Ġuses":10366,"Ġumgesetzt":10367,"ALE":10368,"Ġ77":10369,"Ġproduce":10370,"2012":10371,"Ġsummit":10372,"going":10373,"ĠFarbe":10374,"ĠMonti":10375,"European":10376,"Ġexercise":10377,"iant":10378,"kan":10379,"pla":10380,"zig":10381,"itts":10382,"ĠDavon":10383,"Ġcategor":10384,"Ġinsp":10385,"Ġvital":10386,"lying":10387,"dert":10388,"ĠStunde":10389,"wegs":10390,"Ġhet":10391,"ĠSelect":10392,"losigkeit":10393,"prene":10394,"107":10395,"STAGUNG":10396,"ĠPriorities":10397,"ĠSTR":10398,"Ġanderem":10399,"ĠApparte":10400,"Ġlots":10401,"ABIL":10402,"ĠWahlen":10403,"Ġrental":10404,"ĠTabak":10405,"Ġtraditional":10406,"ĠDocuments":10407,"Ġbeantworten":10408,"ĠEntsp":10409,"Ġvictims":10410,"DS":10411,"ĠType":10412,"Ġcell":10413,"ilft":10414,"Ġlands":10415,"ĠkÃ¼":10416,"taus":10417,"uls":10418,"ĠVerfasst":10419,"Ġrub":10420,"Ã¤nglich":10421,"Ġfell":10422,"ĠIrina":10423,"ĠClass":10424,"Ġtechnische":10425,"Ġglauben":10426,"ĠEMPL":10427,"Ġbetreffen":10428,"ĠSchluÃŁfolgerung":10429,"ĠStaatsminister":10430,"ĠOfficial":10431,"zil":10432,"ĠwÃ¤ren":10433,"ĠEmissions":10434,"ĠPop":10435,"Ġgirl":10436,"ĠRos":10437,"umption":10438,"Ġdenen":10439,"ĠBehandlung":10440,"sektor":10441,"fÃ¼gt":10442,"ĠNachricht":10443,"Ġtrend":10444,"Ġdelic":10445,"ĠRobert":10446,"Ġ!!":10447,"Ġinternationalen":10448,"ĠAktionen":10449,"ĠWeshalb":10450,"weisung":10451,"Ġ....":10452,"ĠDurchfÃ¼hrung":10453,"ĠSICHERHEITS":10454,"Aid":10455,"Dennis":10456,"TP":10457,"weit":10458,"era":10459,"Ġwichtigen":10460,"reens":10461,"ĠSite":10462,"ĠTen":10463,"ĠTib":10464,"Ġbeit":10465,"tritt":10466,"Ġplug":10467,"ĠEurobarometer":10468,"Ġpossibility":10469,"ĠHof":10470,"ĠRechtsvorschriften":10471,"Ġmedium":10472,"ĠInternationale":10473,"Ġnearby":10474,"Ġparticipation":10475,"Abbott":10476,"ĠKatastrop":10477,"Ġzahlen":10478,"ĠFolge":10479,"ĠVORBEREIT":10480,"ĠPrioritÃ¤tsachsen":10481,"ĠApproval":10482,"DennisAbbott":10483,"mÃ¤r":10484,"Ġswe":10485,"rob":10486,"Ġintended":10487,"ĠPia":10488,"ĠFuture":10489,"Ġzul":10490,"Ġrural":10491,"ĠSein":10492,"Ġ56":10493,"fect":10494,"ĠNeben":10495,"Ġsteel":10496,"Ġcount":10497,"ĠHaut":10498,"ientific":10499,"ĠTeilnahme":10500,"Ġinvestigation":10501,"ĠAssistance":10502,"ĠWirtschaftliche":10503,"Ġcolour":10504,"ĠWithout":10505,"Ġhumanitarian":10506,"Ġerreichbar":10507,"ĠADOPTED":10508,"Mittel":10509,"Ġwann":10510,"ĠSow":10511,"ĠDir":10512,"Ġinak":10513,"stattung":10514,"ĠLag":10515,"schÃ¤tz":10516,"ibilitÃ¤t":10517,"spiel":10518,"Ġtrading":10519,"Ġcommitted":10520,"ĠKontaktpersonen":10521,"ĠÃľbergang":10522,"Ġdiscount":10523,"ĠBestimmungen":10524,"ĠEntscheidungen":10525,"ĠMinute":10526,"Ġmiddle":10527,"EWG":10528,"ĠKomfort":10529,"Ġbetreff":10530,"IOJA":10531,"ĠForestry":10532,"ĠSubsidiar":10533,"Ġcurrency":10534,"Ġalbum":10535,"ĠFactsheet":10536,"Th":10537,"bourg":10538,"Ġsnow":10539,"oman":10540,"ĠFeld":10541,"Ã¤cht":10542,"elia":10543,"ilot":10544,"Ġbege":10545,"ĠStre":10546,"Ġausreichend":10547,"ĠAbschlieÃŁend":10548,"ensichtlich":10549,"Ġ63":10550,"Ġdurchaus":10551,"Ġraise":10552,"ictions":10553,"ĠHerzeg":10554,"ĠBestellung":10555,"konom":10556,"Ġsonst":10557,"ĠWellness":10558,"Ġcrime":10559,"Ġfranchise":10560,"545":10561,"karten":10562,"wind":10563,"ĠTiere":10564,"ĠEt":10565,"Ġemb":10566,"eits":10567,"rÃ¤ume":10568,"Ġ72":10569,"OMIOJA":10570,"ĠÃľberblick":10571,"Ġladen":10572,"strategie":10573,"ĠUSD":10574,"ĠGeme":10575,"richtlinie":10576,"achtung":10577,"ructures":10578,"ĠNovak":10579,"zahlung":10580,"ashion":10581,"ĠgemÃ¤ÃŁ":10582,"ĠNÃ¤heres":10583,"Ġoccup":10584,"lobale":10585,"ĠTUOMIOJA":10586,"Datenbank":10587,"ĠSystems":10588,"ĠDus":10589,"iche":10590,"Ġcos":10591,"othe":10592,"ception":10593,"ĠAnwend":10594,"Ġgefallen":10595,"Ġverantwort":10596,"Ġwithd":10597,"ikes":10598,"Ġchosen":10599,"angs":10600,"ĠSpiele":10601,"ĠZeiten":10602,"ĠZusammensetzung":10603,"Ġparad":10604,"ĠKrank":10605,"Ġpleasure":10606,"ĠergÃ¤n":10607,"Ġautomatisch":10608,"ĠschlieÃŁlich":10609,"ĠRisiko":10610,"ĠZustimmung":10611,"Ġsatisfied":10612,"TV":10613,"dorf":10614,"Ġwall":10615,"ĠTable":10616,"ĠEgypt":10617,"ĠBrowser":10618,"ĠKON":10619,"Ġriver":10620,"Ġmode":10621,"ĠGrundlage":10622,"schlÃ¼ssel":10623,"ĠStraÃŁe":10624,"ĠVorsitzen":10625,"ĠGalile":10626,"Ġcontrary":10627,"ĠContribution":10628,"ĠAntidumping":10629,"ĠMall":10630,"ĠLate":10631,"ĠLiber":10632,"ortion":10633,"iple":10634,"ĠChanc":10635,"Ġbestellen":10636,"Ġmehreren":10637,"ĠKlim":10638,"ĠADD":10639,"Ġtranslation":10640,"Ġtickets":10641,"brech":10642,"ded":10643,"free":10644,"pa":10645,"win":10646,"oria":10647,"roy":10648,"Ġcur":10649,"Ġtold":10650,"ĠRestaurants":10651,"fÃ¼hrer":10652,"ĠZusammenfassung":10653,"gestimmt":10654,"ĠSteuern":10655,"Ġmeetings":10656,"gewiesen":10657,"Ġmobility":10658,"rÃ¤nkt":10659,"ĠFerienwo":10660,"ĠEnterprise":10661,"ĠClose":10662,"cu":10663,"ev":10664,"ĠTom":10665,"Ġok":10666,"igations":10667,"ĠRund":10668,"ĠVideos":10669,"ĠLernen":10670,"uld":10671,"ĠSchnell":10672,"Ġext":10673,"Ġ61":10674,"ĠAllow":10675,"ĠAufbau":10676,"ĠExam":10677,"Ġprevention":10678,"ĠfrÃ¼her":10679,"ĠEntwurf":10680,"ĠVERB":10681,"Ġskin":10682,"ĠSonn":10683,"ĠHalb":10684,"ĠPuerto":10685,"industrie":10686,"Cl":10687,"SK":10688,"obe":10689,"tieren":10690,"Ġtonnes":10691,"Ġwon":10692,"rel":10693,"ĠDublin":10694,"ĠEval":10695,"Ġpal":10696,"ĠBand":10697,"Ġfordern":10698,"ĠOs":10699,"ĠErste":10700,"akes":10701,"ĠMinisters":10702,"akete":10703,"ĠMariann":10704,"ĠCountry":10705,"Ġguidelines":10706,"ĠGross":10707,"Ġminor":10708,"Ġabsurd":10709,"1998":10710,"ĠStatus":10711,"Ġruns":10712,"Ġhistoric":10713,"ĠendgÃ¼l":10714,"ĠDEFENCE":10715,"ĠKohÃ¤sions":10716,"ĠFair":10717,"edia":10718,"Ġbeyond":10719,"cting":10720,"teneg":10721,"ĠZUR":10722,"ildet":10723,"ĠZeitraum":10724,"ĠUmst":10725,"ĠBetter":10726,"ĠArea":10727,"ĠMeiner":10728,"ĠBeitrÃ¤ge":10729,"Ġtaxi":10730,"Ġlimits":10731,"Ġmountains":10732,"Ġkontaktieren":10733,"VP":10734,"ĠDEM":10735,"indungen":10736,"pping":10737,"cling":10738,"Ġ87":10739,"ĠMeas":10740,"ĠINVIT":10741,"ĠDarin":10742,"Ġstarten":10743,"ĠParkplatz":10744,"ĠLiechten":10745,"Ġsicherlich":10746,"unternehmen":10747,"ĠDanach":10748,"letzt":10749,"Ġoccur":10750,"Ġteilen":10751,"Ġleading":10752,"Ġallgemeinen":10753,"ĠWÃ¤hrungs":10754,"TIVE":10755,"Ġnegative":10756,"ĠSudan":10757,"EICH":10758,"VO":10759,"ĠDorf":10760,"Ġeth":10761,"Ġelegant":10762,"elbe":10763,"ĠLong":10764,"ktop":10765,"ssystem":10766,"ĠSchn":10767,"icking":10768,"Ġschreiben":10769,"ĠHeim":10770,"Ġstattfinden":10771,"anderung":10772,"kretariat":10773,"ĠClean":10774,"Ġmilitary":10775,"ĠPedro":10776,"ĠVERTEIDIGUNGSPOLITIK":10777,"wurf":10778,"reform":10779,"asbourg":10780,"ĠTob":10781,"ĠARE":10782,"ĠPor":10783,"ĠBisher":10784,"igit":10785,"indruck":10786,"ĠgeprÃ¼ft":10787,"ERO":10788,"Ġleaders":10789,"ochen":10790,"Ã¤rm":10791,"ĠNachrichten":10792,"reiber":10793,"ĠConc":10794,"Ġinstruct":10795,"Ġebenso":10796,"Ġintegrated":10797,"Ġmilk":10798,"ĠOperational":10799,"ĠBEZIEHUNGEN":10800,"Ġverbessern":10801,"ĠStÃ¤rkung":10802,"DUC":10803,"van":10804,"viel":10805,"hebung":10806,"ĠWin":10807,"ĠBaum":10808,"ĠCam":10809,"ĠHER":10810,"Ġzone":10811,"ĠOffen":10812,"ĠEinfÃ¼hrung":10813,"icals":10814,"ĠProduktion":10815,"Ġbooked":10816,"Ġperfekt":10817,"Ġslight":10818,"ĠTourism":10819,"ĠCOMMUN":10820,"Ġziemlich":10821,"ĠARBEIT":10822,"Ġdevice":10823,"Ġerzielt":10824,"Ġcatalog":10825,"ĠInvestitionsbank":10826,"ĠEMPLOY":10827,"ĠVORBEREITUNG":10828,"SO":10829,"uber":10830,"ĠAth":10831,"ĠMS":10832,"ĠKÃ¶rper":10833,"Ġlose":10834,"Ã¶nen":10835,"ĠZiffer":10836,"ĠRefer":10837,"ĠMario":10838,"Ġclosely":10839,"Ġdaraus":10840,"ĠExec":10841,"ĠFranchise":10842,"ĠIntervention":10843,"Ġapplic":10844,"ĠAutob":10845,"Ġfamilies":10846,"criptive":10847,"freund":10848,"Ġrelationship":10849,"ĠAccording":10850,"Ġadvantages":10851,"Ġelectricity":10852,"ĠNovakova":10853,"rich":10854,"sv":10855,"oring":10856,"ĠDring":10857,"ĠCla":10858,"ĠCook":10859,"ĠRÃ¤":10860,"ĠNick":10861,"oster":10862,"werb":10863,"fluss":10864,"ĠManuel":10865,"Ġwelcomes":10866,"Ġrequested":10867,"Ġweiteres":10868,"Ġmissing":10869,"VIII":10870,"Ġmethods":10871,"ĠGipfel":10872,"gefÃ¤hr":10873,"ĠSekunden":10874,"ĠMeeting":10875,"gung":10876,"uy":10877,"ening":10878,"ĠEqu":10879,"ĠMesse":10880,"ĠPoss":10881,"Ġhilft":10882,"Ġanzu":10883,"ilateral":10884,"Ġbewer":10885,"ĠNahr":10886,"ĠSto":10887,"Ġ62":10888,"Ġaccident":10889,"Ġdebt":10890,"ĠfrÃ¼h":10891,"Ġangemessen":10892,"Ġbegrenz":10893,"Ġcontribute":10894,"Ġfailed":10895,"ĠCapital":10896,"Ġtargets":10897,"Ġverdient":10898,"Ġpiece":10899,"ĠSharrock":10900,"ĠLiechtenstein":10901,"SKI":10902,"Ġtack":10903,"Ġcash":10904,"ĠWollen":10905,"ĠOthers":10906,"ĠSchool":10907,"ĠWirklich":10908,"Ġextend":10909,"Ġsuite":10910,"retty":10911,"ĠgeschÃ¼tzt":10912,"102":10913,"Ġaccom":10914,"Ġaccounts":10915,"iverse":10916,"ĠHaft":10917,"ĠVereinfach":10918,"ĠSki":10919,"ĠRussian":10920,"Ġmoving":10921,"ĠBernard":10922,"atellite":10923,"ĠPROCEDURE":10924,"ĠFriday":10925,"??":10926,"Ġsquare":10927,"itious":10928,"Ġinstrument":10929,"Ġgone":10930,"igungen":10931,"ĠzÃ¤hlt":10932,"ĠNiel":10933,"Ġdescrib":10934,"itect":10935,"Ġquar":10936,"Ġvorher":10937,"gerufen":10938,"Ġspa":10939,"Ġdarin":10940,"ĠKlar":10941,"379":10942,"Ġmoved":10943,"Ġnewsletter":10944,"ĠHelp":10945,"Ġkonnten":10946,"Ġemployees":10947,"ĠNiemand":10948,"ipe":10949,"liste":10950,"tl":10951,"ĠAgricultural":10952,"ĠEre":10953,"ĠMÃ¼":10954,"ĠRab":10955,"Ġeinig":10956,"gencies":10957,"Ġweather":10958,"idential":10959,"Ġcomprehensive":10960,"Ġappoint":10961,"Ġversions":10962,"lesen":10963,"Ġeinfache":10964,"Ġcontinued":10965,"Ġfactor":10966,"shop":10967,"Ġinformed":10968,"straÃŁe":10969,"ĠSchwerpunkte":10970,"Ġstorage":10971,"Ġfurnished":10972,"Ġadvertising":10973,"ĠProspective":10974,"vertretender":10975,"ĠGelegenheit":10976,"Ġtruly":10977,"Ġinakzeptabel":10978,"Bahn":10979,"bast":10980,"based":10981,"onien":10982,"ani":10983,"Ġsources":10984,"ĠAz":10985,"ĠEdu":10986,"ĠPension":10987,"uri":10988,"ĠCOR":10989,"stre":10990,"ĠKas":10991,"ĠKÃ¼rze":10992,"Ġbecoming":10993,"Ġlif":10994,"odge":10995,"ĠVerhalten":10996,"ĠSchne":10997,"Ġ59":10998,"ĠEinrichtung":10999,"Ġvorge":11000,"ishes":11001,"iana":11002,"Ġmax":11003,"fragt":11004,"ĠResolution":11005,"wÃ¤rtig":11006,"Ġmainly":11007,"Ġlessons":11008,"ĠBrazil":11009,"Ġdivided":11010,"ĠAntonio":11011,"ĠInitiativen":11012,"Ġ(*)":11013,"Ein":11014,"MITTEL":11015,"ymp":11016,"ĠSyn":11017,"ĠIb":11018,"Ġow":11019,"ĠGAS":11020,"ĠLos":11021,"Ġuner":11022,"ĠSehen":11023,"ĠHandeln":11024,"ĠIndones":11025,"Ġinstalled":11026,"ĠSecretariat":11027,"ĠBoot":11028,"Ġrequests":11029,"celand":11030,"ĠEngland":11031,"ĠGlÃ¼ckw":11032,"ĠVizeprÃ¤sidentin":11033,"Ġregulations":11034,"Ġbelieb":11035,"ĠReturn":11036,"ĠInstitutionen":11037,"Ġevaluation":11038,"ĠDouble":11039,"ĠPunkten":11040,"setzen":11041,"ĠSomit":11042,"ĠMAT":11043,"ederal":11044,"ĠGlaub":11045,"eitert":11046,"ĠLehr":11047,"altungen":11048,"ĠAdop":11049,"ĠFranco":11050,"Ġconcentr":11051,"ispiel":11052,"ffizient":11053,"ĠExpress":11054,"zufÃ¼gen":11055,"ĠAngst":11056,"ĠBaltic":11057,"ĠFrÃ¼hstÃ¼cksbuffet":11058,"Ma":11059,"VIS":11060,"iot":11061,"Ġta":11062,"entscheid":11063,"ĠFun":11064,"ĠViet":11065,"Ġconclusion":11066,"ĠBeweg":11067,"Ġdemokrat":11068,"programme":11069,"STEN":11070,"Ġdelay":11071,"ĠMonaten":11072,"Ġaccessible":11073,"ĠPhase":11074,"ĠVereinigten":11075,"ULTUR":11076,"Ġmission":11077,"ĠAbgeordnete":11078,"Ġvacation":11079,"ĠProzent":11080,"ĠJohannes":11081,"ĠGalileo":11082,"tenegro":11083,"reis":11084,"Ġbars":11085,"Ġisol":11086,"ĠBÃ¼r":11087,"ĠFab":11088,"ĠStreet":11089,"bara":11090,"ĠStahl":11091,"Ġliebe":11092,"klÃ¤rungen":11093,"ANDE":11094,"ĠStein":11095,"Ġtechnologies":11096,"rufe":11097,"ĠFolgende":11098,"Ġmidday":11099,"ospital":11100,"ĠBALKAN":11101,"Ġearlier":11102,"ĠEMPLOYMENT":11103,"Date":11104,"Kon":11105,"mÃ¼":11106,"Ġtill":11107,"Ġinstead":11108,"ĠMindest":11109,"ĠBased":11110,"ĠFOL":11111,"igare":11112,"ĠRural":11113,"Ġlift":11114,"Ġreject":11115,"ĠStil":11116,"Ġadj":11117,"ĠQue":11118,"ĠPrices":11119,"ĠIhres":11120,"front":11121,"ĠCommit":11122,"ĠIslands":11123,"Ġwichtiges":11124,"ĠBesuchen":11125,"Ġselten":11126,"prÃ¼fen":11127,"uzz":11128,"ĠKurzbeschreibung":11129,"ĠFAQ":11130,"ĠCharlie":11131,"ĠRechnungshof":11132,"ĠVereinbarung":11133,"ĠSaturday":11134,"door":11135,"ĠApart":11136,"Ġcoin":11137,"Ġniedr":11138,"ĠFonds":11139,"ĠRog":11140,"Ġeinheit":11141,"ĠNavigation":11142,"Ã¼rzt":11143,"ĠJes":11144,"Ġverfolgen":11145,"Ġweg":11146,"Ġshared":11147,"zeigen":11148,"ĠSex":11149,"ĠEinen":11150,"fÃ¼hl":11151,"Ġrapid":11152,"Ġweiterer":11153,"ĠProduct":11154,"ĠRoman":11155,"ĠTechnology":11156,"ĠAutom":11157,"Ġcreation":11158,"ĠStudie":11159,"Ġwindows":11160,"ĠBalkon":11161,"ĠSchluÃŁfolgerungen":11162,"Ġbehandeln":11163,"Adresse":11164,"mittlung":11165,"ĠTerrasse":11166,"Ġremarks":11167,"ĠAuswÃ¤rtigen":11168,"kap":11169,"iny":11170,"ĠSW":11171,"ĠDauer":11172,"Ġpm":11173,"ĠBor":11174,"ĠBORG":11175,"llo":11176,"ĠGent":11177,"ĠGAL":11178,"Ġforum":11179,"ams":11180,"Ġmaintain":11181,"ĠUSB":11182,"holt":11183,"Ã¼ndung":11184,"Ġsecret":11185,"Ġallgemein":11186,"Ġcritical":11187,"ĠStabilitÃ¤ts":11188,"Ġeye":11189,"ĠvernÃ¼nft":11190,"Ġappreciate":11191,"ĠChinese":11192,"ĠPREPARATION":11193,"lor":11194,"Ġfit":11195,"ĠDEL":11196,"ĠFL":11197,"ĠHan":11198,"ĠKlage":11199,"ĠunabhÃ¤ng":11200,"ĠVerfahrens":11201,"Ġamaz":11202,"schau":11203,"Ġ79":11204,"wogen":11205,"ĠMaxim":11206,"auftrag":11207,"ĠRegierungen":11208,"Ġsomeone":11209,"ĠHierzu":11210,"ĠUrmas":11211,"Ġberuf":11212,"Ġprofile":11213,"gangenen":11214,"Ġerfordert":11215,"ĠCharter":11216,"ĠPayments":11217,"ĠRisiken":11218,"Unter":11219,"ĠJavaScript":11220,"ĠCrist":11221,"Ġhighlight":11222,"Ġconflict":11223,"nach":11224,"uction":11225,"ĠSD":11226,"Ġfrag":11227,"ĠmÃ¼ndliche":11228,"Ġcore":11229,"Ġcandid":11230,"ĠFÃ¤h":11231,"ĠJens":11232,"Ġalte":11233,"Ġstopp":11234,"sson":11235,"ĠSchiffe":11236,"ĠÃ¼berprÃ¼ft":11237,"Ġlebt":11238,"Ġmodels":11239,"penden":11240,"Ġscope":11241,"Ġkonzentr":11242,"holm":11243,"ĠMÃ¤rkte":11244,"Ġarrive":11245,"ĠSchwier":11246,"ĠschlieÃŁen":11247,"ĠRecommend":11248,"Ġsorry":11249,"ĠPrÃ¼f":11250,"ĠErfahrungen":11251,"ĠPapier":11252,"ĠAdditional":11253,"Vorsch":11254,"figur":11255,"jo":11256,"zed":11257,"ito":11258,"atible":11259,"ĠSC":11260,"ĠCL":11261,"Ġlock":11262,"Ġloss":11263,"TITU":11264,"Ġadjust":11265,"ĠAusnahme":11266,"Ġarm":11267,"ĠExtra":11268,"iums":11269,"ĠArbeitnehmer":11270,"Ġrelig":11271,"Ġaccessed":11272,"Ġexcept":11273,"Ġflat":11274,"ijk":11275,"ammlung":11276,"Ġcharges":11277,"Ġinflu":11278,"ĠPAET":11279,"Ġtemp":11280,"Ġtitle":11281,"ĠAqu":11282,"lebt":11283,"ĠPO":11284,"ĠHong":11285,"ĠREC":11286,"ĠVb":11287,"ĠNH":11288,"fordern":11289,"Ġdele":11290,"ĠStimmen":11291,"Ġcharm":11292,"udge":11293,"werke":11294,"tellvertreter":11295,"ĠChamp":11296,"Ġplants":11297,"ĠHeil":11298,"RECH":11299,"ĠDescription":11300,"Ġbusinesses":11301,"Ġtests":11302,"ĠAuditors":11303,"ĠLegisl":11304,"Ġprofitieren":11305,"ĠStÃ¤dte":11306,"ĠNATO":11307,"EARCH":11308,"cific":11309,"ĠSend":11310,"ĠTy":11311,"Ġober":11312,"Ġeat":11313,"ĠHence":11314,"Ġgre":11315,"schlag":11316,"griff":11317,"ĠEinigung":11318,"ĠINFORMATION":11319,"Ã¤hrt":11320,"Ġproposes":11321,"ĠFrem":11322,"ĠMehrheit":11323,"ĠTelekomm":11324,"ĠFunds":11325,"bourhood":11326,"krise":11327,"ĠRESEARCH":11328,"101":11329,"ruch":11330,"ĠSIM":11331,"aro":11332,"Ġec":11333,"ĠFac":11334,"ĠHot":11335,"Ġforest":11336,"achs":11337,"ĠjÃ¼n":11338,"Ġque":11339,"Ġcommand":11340,"Ġgelangen":11341,"erkennung":11342,"ĠGlas":11343,"ĠGarden":11344,"Ġdemocratic":11345,"Ġleads":11346,"ifiziert":11347,"ĠLizenz":11348,"ĠvollstÃ¤ndige":11349,"ĠKollege":11350,"ĠAltstadt":11351,"ĠPremier":11352,"ĠMÃ¼nchen":11353,"ĠKyoto":11354,"ĠIdent":11355,"how":11356,"passung":11357,"Ġfro":11358,"ĠBig":11359,"ĠBanner":11360,"Ġtoile":11361,"Ġgerecht":11362,"ĠGB":11363,"ĠGaz":11364,"ĠNero":11365,"Ġwegen":11366,"quer":11367,"Ġaufgenommen":11368,"Ġchanging":11369,"ĠBras":11370,"ĠExport":11371,"ĠPreisen":11372,"Ġprovision":11373,"ĠParty":11374,"ĠVERFAHREN":11375,"Ġcalcul":11376,"yright":11377,"ĠMusic":11378,"ĠStellungnahmen":11379,"Ġkomplett":11380,"ĠArgent":11381,"ĠGedanken":11382,"ĠAktivitÃ¤ten":11383,"EP":11384,"dumping":11385,"ye":11386,"isy":11387,"iest":11388,"ĠInhalte":11389,"laut":11390,"ĠProgress":11391,"Ġamtieren":11392,"ĠAllah":11393,"Ġseek":11394,"Ġerstellen":11395,"ĠDescriptive":11396,"witch":11397,"ĠMySQL":11398,"ĠBestand":11399,"State":11400,"ĠPatten":11401,"Ġpurposes":11402,"ĠACP":11403,"ĠKaiser":11404,"ĠTermin":11405,"Ġdisplayed":11406,"Ġeingesetzt":11407,"Ġgranted":11408,"ĠKoordinierung":11409,"ĠDringlichkeit":11410,"NET":11411,"hers":11412,"tten":11413,"Ġawa":11414,"ĠSom":11415,"ĠEth":11416,"ĠMinder":11417,"ĠWhe":11418,"ĠGAP":11419,"ĠLiberal":11420,"ĠzÃ¤hlen":11421,"Ġunivers":11422,"Ġyouth":11423,"ĠProject":11424,"ĠErwÃ¤":11425,"stelle":11426,"Ġchurch":11427,"ALTH":11428,"ĠBrand":11429,"Ġcompar":11430,"Ġsaw":11431,"Ġaccomp":11432,"ICE":11433,"ICES":11434,"utzung":11435,"III":11436,"ĠManaging":11437,"Ġcorner":11438,"ĠSoziales":11439,"ĠgrÃ¶ÃŁten":11440,"ĠFound":11441,"ĠHerzlichen":11442,"mosphÃ¤re":11443,"Ġarrangements":11444,"ĠHoffnung":11445,"ĠUntersuchung":11446,"ĠBESCHÃĦFTIGUNG":11447,"BL":11448,"GL":11449,"MIT":11450,"fÃ¶rderung":11451,"gere":11452,"hy":11453,"krÃ¤":11454,"Ġtransp":11455,"estelle":11456,"itar":11457,"ĠSing":11458,"ĠSup":11459,"Ġfax":11460,"ĠTÃ¤tigkeit":11461,"ĠAward":11462,"Ġnone":11463,"ĠPflicht":11464,"ĠBill":11465,"ĠCong":11466,"ĠRail":11467,"Ġ110":11468,"ĠNiger":11469,"Ġalten":11470,"ĠStimmer":11471,"Ġaufmerksam":11472,"ĠEuropeAid":11473,"oken":11474,"ĠAbfall":11475,"ĠBeitritt":11476,"Ġnationale":11477,"ĠCorazza":11478,"ĠVielfalt":11479,"Ġambitious":11480,"ĠAusschuÃŁ":11481,"ĠBeteiligung":11482,"Beitrag":11483,"Ġcategories":11484,"ooth":11485,"erver":11486,"anien":11487,"iegel":11488,"ĠIceland":11489,"Ġcatch":11490,"ĠBett":11491,"ĠFO":11492,"Ġgiving":11493,"Ġvert":11494,"Ġdelegation":11495,"Ġfindings":11496,"Ġ91":11497,"ĠhierfÃ¼r":11498,"ĠMeeres":11499,"ĠMechan":11500,"Ġwelcher":11501,"Ġwelcoming":11502,"Ġwichtigste":11503,"Ġexpla":11504,"ĠGebiete":11505,"Ġoperational":11506,"Ġtopic":11507,"ĠSolche":11508,"Ġmessages":11509,"ĠImmob":11510,"STAATEN":11511,"ĠInstallation":11512,"Ġdanach":11513,"ĠgewÃ¼nsch":11514,"hi":11515,"Ġband":11516,"ĠDienste":11517,"lehnt":11518,"Ġpermanent":11519,"stall":11520,"Ġeinverstanden":11521,"ĠstÃ¤ndig":11522,"Ġweight":11523,"Ġerleben":11524,"apest":11525,"clude":11526,"ĠAlp":11527,"Ġspread":11528,"OMinister":11529,"ĠMaja":11530,"ĠZeitplan":11531,"ĠÃľberprÃ¼fung":11532,"ĠAmelia":11533,"ĠBarbara":11534,"Ġexpand":11535,"Ġinvite":11536,"ĠDienstag":11537,"ĠBuchung":11538,"ĠFirmen":11539,"ĠvollstÃ¤ndig":11540,"ĠCamping":11541,"ĠLEB":11542,"ĠEasy":11543,"ĠMonday":11544,"ĠEisenbahn":11545,"ĠSchaffung":11546,"not":11547,"sm":11548,"system":11549,"trÃ¤ge":11550,"erie":11551,"Ġdessen":11552,"ĠSaint":11553,"ĠColle":11554,"ĠHarmon":11555,"ĠValle":11556,"Ġrech":11557,"tags":11558,"ĠThail":11559,"Ġseven":11560,"ifik":11561,"Ġ57":11562,"bek":11563,"ĠArmen":11564,"Ġ137":11565,"ĠÃĦg":11566,"ĠBarn":11567,"Ġaccession":11568,"konferenz":11569,"ĠVolks":11570,"KLÃĦR":11571,"ĠSunday":11572,"ĠChairman":11573,"SH":11574,"Ġdadurch":11575,"itage":11576,"iell":11577,"Ġfat":11578,"artet":11579,"rochen":11580,"Ġcra":11581,"ĠMaster":11582,"ĠCod":11583,"undred":11584,"utch":11585,"ĠStill":11586,"ĠErzeug":11587,"Ġentrance":11588,"alty":11589,"ĠAdobe":11590,"ĠFrancis":11591,"AFO":11592,"Ġturned":11593,"Geb":11594,"pflich":11595,"ĠContin":11596,"Ġtemper":11597,"ĠGÃ¼nter":11598,"Ġvessels":11599,"FL":11600,"acc":11601,"pÃ¤":11602,"zentrum":11603,"anas":11604,"orgt":11605,"ĠSysteme":11606,"Ġmic":11607,"ĠWES":11608,"Ġvolle":11609,"ĠHilf":11610,"ici":11611,"Ġformal":11612,"grÃ¶ÃŁ":11613,"ernt":11614,"bew":11615,"Ġvoran":11616,"Ġunternehmen":11617,"Ã¼cke":11618,"prises":11619,"URT":11620,"ĠBedarf":11621,"Ġboat":11622,"ĠAssoz":11623,"ĠEnvironmental":11624,"Ġbiggest":11625,"ĠAUSW":11626,"ĠGewinner":11627,"Ġdestination":11628,"Ġattractive":11629,"ĠWallstrÃ¶m":11630,"ĠIntrodu":11631,"Ġborders":11632,"ĠAuthority":11633,"ĠVietnam":11634,"NIER":11635,"ĠSho":11636,"Ġfelt":11637,"Ġzeit":11638,"Ġrecon":11639,"berge":11640,"ERT":11641,"Ġconstit":11642,"iente":11643,"ĠStation":11644,"ĠAbschluss":11645,"Ġentgegen":11646,"Ġgeschaffen":11647,"ĠFeier":11648,"ĠGrunde":11649,"ĠWorten":11650,"Ġverlieren":11651,"Ġkompliz":11652,"Ġbanks":11653,"ĠPlace":11654,"Ġsuggestions":11655,"communications":11656,"ĠEreign":11657,"MIN":11658,"Richt":11659,"fÃ¤nger":11660,"hold":11661,"urer":11662,"oli":11663,"ĠAnliegen":11664,"Ġverz":11665,"ĠÃľbernahme":11666,"ĠERS":11667,"ĠRomano":11668,"sichtigen":11669,"ĠComb":11670,"Ġabgelehnt":11671,"ĠBalkan":11672,"Ġsorgen":11673,"Ġintroduced":11674,"ĠzusÃ¤tzliche":11675,"ĠSerbia":11676,"ĠZimmern":11677,"Ġplatform":11678,"Ġaccordance":11679,"Aus":11680,"Ġweder":11681,"ĠSn":11682,"Ġball":11683,"ĠDA":11684,"Ġinhab":11685,"ĠCall":11686,"ouch":11687,"idung":11688,"ĠAngel":11689,"ĠAnschluss":11690,"ĠBek":11691,"Ġstabil":11692,"ISTER":11693,"ALT":11694,"wohl":11695,"ĠPlug":11696,"Ġwelchem":11697,"fÃ¼hrungs":11698,"ĠECO":11699,"Ġoffering":11700,"Ġeasier":11701,"ĠgemÃ¼t":11702,"Ġeigenes":11703,"ĠFORSCH":11704,"ĠAlexander":11705,"ĠMARG":11706,"Ġhonest":11707,"Ġfarmers":11708,"Ġargument":11709,"Ġlicense":11710,"ĠHEALTH":11711,"ĠlÃ¤ndlichen":11712,"Ġdeparture":11713,"Ġbonus":11714,"Kommission":11715,"car":11716,"Ġdark":11717,"ĠTai":11718,"ĠExt":11719,"ĠMw":11720,"ĠWHO":11721,"Ġpretty":11722,"ĠCross":11723,"Ġlauf":11724,"ĠVW":11725,"Ġkorr":11726,"Ġimag":11727,"Ġimpl":11728,"ĠÃ¼bernehmen":11729,"ĠAusfÃ¼hrungen":11730,"Ġgetroffen":11731,"ISCHE":11732,"Ġbegonnen":11733,"ĠEntwicklungen":11734,"Ġrelates":11735,"holung":11736,"Ġletter":11737,"ĠDiscover":11738,"Ġtrotzdem":11739,"gruppen":11740,"Ġfertig":11741,"Ġwebsites":11742,"SB":11743,"ti":11744,"erap":11745,"ĠSav":11746,"ĠSuchen":11747,"tex":11748,"ĠTit":11749,"ĠEtw":11750,"ĠWen":11751,"Ġnorm":11752,"Ġhop":11753,"Ġearn":11754,"ĠHaving":11755,"ĠGrad":11756,"Ġforec":11757,"Ġdied":11758,"ĠInstrumente":11759,"osis":11760,"osoph":11761,"schreit":11762,"verse":11763,"ĠAnkunft":11764,"Ġaltern":11765,"annis":11766,"ĠerÃ¶r":11767,"agues":11768,"Ġinterpret":11769,"Ã¼hungen":11770,"ĠDarf":11771,"Ġsigned":11772,"Ġauthority":11773,"LICHEN":11774,"Ġflexibility":11775,"Ġradio":11776,"Ġafford":11777,"Ġeyes":11778,"ĠFlÃ¼cht":11779,"fs":11780,"mot":11781,"zip":11782,"Ġrom":11783,"ĠTemp":11784,"ĠgÃ¼ltig":11785,"ĠRent":11786,"ĠLy":11787,"oted":11788,"ĠWei":11789,"ÃŁburg":11790,"Ġzudem":11791,"istische":11792,"Ġmanaged":11793,"ĠAlban":11794,"Ġavail":11795,"ĠWerbung":11796,"ĠResp":11797,"ĠERW":11798,"Ġsupplement":11799,"Ġpresentation":11800,"bedarf":11801,"Ã¤mpfen":11802,"ĠAnspruch":11803,"ĠMetro":11804,"aktionen":11805,"ĠWorking":11806,"ĠKindern":11807,"Ġlikely":11808,"StaatssekretÃ¤r":11809,"Ġexhibition":11810,"ĠThailand":11811,"night":11812,"wagen":11813,"ĠSorge":11814,"Ġfab":11815,"Ġintell":11816,"ĠRANDE":11817,"ĠKu":11818,"ĠEnlargement":11819,"ĠDepartment":11820,"ĠGeist":11821,"ĠMargot":11822,"prozess":11823,"ĠGenieÃŁen":11824,"flug":11825,"Ġrare":11826,"ĠGerne":11827,"Ġdriving":11828,"ĠSanktionen":11829,"Ġweekend":11830,"Ġconnected":11831,"ĠFortschritt":11832,"Ġsowohl":11833,"ĠRadio":11834,"Ġbewusst":11835,"ĠBARNIER":11836,"Ġwirtschaftliche":11837,"rÃ¼st":11838,"ĠSonstige":11839,"ĠMÃ¤nner":11840,"Ġbottom":11841,"ĠDeutsche":11842,"Ġexclusive":11843,"BS":11844,"GAN":11845,"kel":11846,"zz":11847,"Ġap":11848,"ĠSÃ¤":11849,"ĠTalk":11850,"ĠTry":11851,"ĠMIN":11852,"ĠMachen":11853,"ĠWORK":11854,"Ġhast":11855,"ĠFace":11856,"Ġtoler":11857,"schm":11858,"ĠAnerkennung":11859,"ifying":11860,"ĠdiesbezÃ¼glich":11861,"iagn":11862,"Ġshipping":11863,"ardo":11864,"enswert":11865,"anzler":11866,"RAUCH":11867,"Ġreco":11868,"Ġrace":11869,"ĠLandwir":11870,"258":11871,"OUMinister":11872,"Ġfraud":11873,"Ġdefined":11874,"ĠVista":11875,"UNDHEIT":11876,"ikanische":11877,"ĠAKP":11878,"--------":11879,"Ġfinished":11880,"ĠENTWICKLUNGS":11881,"ĠFlexibilitÃ¤t":11882,"ROGRAMM":11883,"ĠExecutive":11884,"WORK":11885,"rep":11886,"aste":11887,"ĠTaten":11888,"Ġboy":11889,"ĠElement":11890,"geiz":11891,"Ã¼ste":11892,"stieg":11893,"Ġunc":11894,"ktive":11895,"Ġstated":11896,"Ġdog":11897,"Ġextended":11898,"ĠErzeugnisse":11899,"ungsmittel":11900,"ĠEinfach":11901,"ruppe":11902,"Ġ68":11903,"Ġ82":11904,"Ġgenutzt":11905,"ICI":11906,"ĠCOST":11907,"ventions":11908,"ĠTraum":11909,"Ġhohen":11910,"ĠBetrag":11911,"zeichnis":11912,"ĠSonnen":11913,"ĠPrivate":11914,"Ġsubsid":11915,"Ġcircum":11916,"melden":11917,"ĠStatistiken":11918,"CET":11919,"PT":11920,"Tag":11921,"gal":11922,"ogen":11923,"iscal":11924,"Ġdry":11925,"orial":11926,"ĠMuss":11927,"stes":11928,"ĠKoc":11929,"ĠVisa":11930,"ĠNI":11931,"ades":11932,"ĠSchule":11933,"Ġadvent":11934,"ĠAlger":11935,"ĠFront":11936,"ĠgenÃ¼":11937,"liefert":11938,"ĠInnov":11939,"ĠRATSTAGUNG":11940,"2011":11941,"CHAFT":11942,"Ġdisposal":11943,"TELL":11944,"ĠOptionen":11945,"English":11946,"Ġreagieren":11947,"ĠHTML":11948,"sych":11949,"BO":11950,"paket":11951,"volle":11952,"Ġtar":11953,"Ġfix":11954,"ĠDetail":11955,"Ġpill":11956,"Ġharm":11957,"ĠHostel":11958,"erefer":11959,"ĠLord":11960,"emen":11961,"taatssekretÃ¤r":11962,"Ġrise":11963,"ĠProblems":11964,"ĠDefiz":11965,"Ġamounts":11966,"Ġmanage":11967,"Ġ66":11968,"ÃĦKI":11969,"handelt":11970,"Ġbegins":11971,"Ġpolitics":11972,"Ġinvestments":11973,"ĠNorm":11974,"Ġrefuge":11975,"ancic":11976,"ĠMilit":11977,"Ġkomplex":11978,"ĠLeistung":11979,"RITTEN":11980,"Ġherunterladen":11981,"Ġbirth":11982,"54530":11983,"ĠBarnier":11984,"Fran":11985,"year":11986,"Ġwiders":11987,"Ġhes":11988,"ĠRio":11989,"ĠKil":11990,"Ġliberal":11991,"ĠVene":11992,"Ġkorre":11993,"Ġquant":11994,"auern":11995,"ĠAlternative":11996,"TSCH":11997,"ĠPrice":11998,"Ġimports":11999,"ĠInteressen":12000,"Ġcustoms":12001,"Ġcorresp":12002,"bruch":12003,"licherweise":12004,"Ġmovie":12005,"Ġpromotion":12006,"ĠErnÃ¤hrung":12007,"ĠINSTITU":12008,"Ġaftern":12009,"ĠCustoms":12010,"Ġolder":12011,"ae":12012,"orb":12013,"ĠprÃ¤sent":12014,"Ġhy":12015,"Ġechte":12016,"schung":12017,"schreiben":12018,"ĠAnpassung":12019,"ĠVerfassung":12020,"ĠSchm":12021,"Ġexists":12022,"Ġvorange":12023,"Ġtea":12024,"Ġcohesion":12025,"ĠAussicht":12026,"ĠIslam":12027,"Ġpossibilities":12028,"ĠgelÃ¶st":12029,"ĠPeace":12030,"ĠGuinea":12031,"ĠTodes":12032,"ĠdÃ¼rfte":12033,"Ġtasks":12034,"Ġhearing":12035,"Ġproceedings":12036,"ĠMission":12037,"ĠhÃ¶chste":12038,"Ġluxury":12039,"grad":12040,"ĠDAS":12041,"ĠECH":12042,"ĠMoun":12043,"ĠFRI":12044,"ĠNam":12045,"Ġuntern":12046,"Ġunfortunately":12047,"ĠSchre":12048,"ango":12049,"Ġworse":12050,"ĠChamber":12051,"ĠSound":12052,"ĠImmer":12053,"ĠERKLÃĦR":12054,"ijancic":12055,"Ġexpert":12056,"Ġoperating":12057,"Ġconfir":12058,"ĠMilliar":12059,"Ġlangfrist":12060,"ĠBundesministerin":12061,"schiede":12062,"ĠStimmerklÃ¤rungen":12063,"GH":12064,"German":12065,"piel":12066,"ĠSL":12067,"ĠSicher":12068,"icul":12069,"0027":12070,"cean":12071,"ischarge":12072,"Ġhair":12073,"Ġdescription":12074,"artner":12075,"akter":12076,"Ġsparen":12077,"Ġnachhalt":12078,"Ġkeines":12079,"ĠTravel":12080,"comed":12081,"Ġassess":12082,"Ġvision":12083,"Ġkleiner":12084,"Ġorganised":12085,"Ġrefle":12086,"ĠÃ¶ffnen":12087,"Ġeditor":12088,"Ġreservations":12089,"ĠFranzÃ¶s":12090,"Ġconsumption":12091,"ĠMEDIA":12092,"ĠPutin":12093,"Ġgarantiert":12094,"contin":12095,"ĠBehÃ¶rden":12096,"fÃ¤ltig":12097,"ĠCommitments":12098,"IAN":12099,"Ġtritt":12100,"ĠSen":12101,"ĠSat":12102,"icke":12103,"etze":12104,"Ġ130":12105,"ichtbar":12106,"Ġgeleistet":12107,"iens":12108,"anni":12109,"Ġrasch":12110,"Ġwhom":12111,"glÃ¼ck":12112,"ĠCountries":12113,"linge":12114,"Ġintervention":12115,"ĠCOURT":12116,"ĠÃľberwachung":12117,"rises":12118,"Ġowners":12119,"ĠCanada":12120,"ĠTransfer":12121,"Ġvisiting":12122,"ĠerklÃ¤ren":12123,"Ġgenerally":12124,"Ġsubsidiar":12125,"ĠGESUNDHEIT":12126,"Ġenormous":12127,"ĠTAX":12128,"ĠÃ¤uÃŁern":12129,"ĠKocijancic":12130,"HOL":12131,"UGEN":12132,"die":12133,"gut":12134,"kom":12135,"site":12136,"Ġdienen":12137,"Ġwild":12138,"ĠTrop":12139,"Ġbla":12140,"ĠIo":12141,"Ã¼nen":12142,"Ġhit":12143,"ĠFert":12144,"ĠCreat":12145,"ĠKunde":12146,"Ġderen":12147,"Ġ()":12148,"Ġunit":12149,"Ġverme":12150,"essions":12151,"Ġerkennen":12152,"Ġhell":12153,"Ġdemands":12154,"attform":12155,"ÃĦM":12156,"Ġoffensichtlich":12157,"ĠAtmosphÃ¤re":12158,"Ġscale":12159,"ĠSociety":12160,"Ġskills":12161,"Ġlangsam":12162,"ĠWebsites":12163,"Ġprograms":12164,"Ġfurniture":12165,"zÃ¶sisch":12166,"Ġextent":12167,"Fe":12168,"VA":12169,"fair":12170,"field":12171,"kop":12172,"ziel":12173,"inated":12174,"Ġtables":12175,"hemal":12176,"ĠfÃ¤llt":12177,"Ġpor":12178,"ĠVir":12179,"Ġzut":12180,"ami":12181,"begriffen":12182,"ĠAusdruck":12183,"Ġspring":12184,"Ġunters":12185,"Ġcontents":12186,"Ġactual":12187,"Ġgrunds":12188,"ĠBetrie":12189,"Ġadoption":12190,"schlieÃŁen":12191,"kunfts":12192,"Ġbeaches":12193,"ĠFamily":12194,"leistung":12195,"ĠfÃ¼hlen":12196,"ĠOverview":12197,"regeln":12198,"ĠDemocracy":12199,"ĠThirdly":12200,"Ġwinners":12201,"ĠInfos":12202,"ĠMallorca":12203,"ĠINVITES":12204,"For":12205,"atisch":12206,"asen":12207,"ĠDiv":12208,"Ġvere":12209,"ĠNAH":12210,"Ġexit":12211,"zeÃŁ":12212,"izza":12213,"Ġ2016":12214,"ĠImport":12215,"Ġassoci":12216,"ĠMontenegro":12217,"ĠStandards":12218,"ĠGuest":12219,"Ġbooks":12220,"Ġconsideration":12221,"ĠFormat":12222,"Ġniemals":12223,"fohlen":12224,"ĠBemÃ¼hungen":12225,"ĠBalkans":12226,"ĠStabilitÃ¤t":12227,"ĠerfÃ¼llen":12228,"Ġrelatively":12229,"ĠVerÃ¤nderungen":12230,"Fraktion":12231,"Ġoccasion":12232,"mÃ¤rkte":12233,"Ġrecovery":12234,"600":12235,"Fin":12236,"KOMMEN":12237,"KEIT":12238,"jau":12239,"test":12240,"Ġwider":12241,"ĠSMS":12242,"ĠEis":12243,"ĠMutter":12244,"Ġpet":12245,"ĠPAT":12246,"ĠFle":12247,"Ġtoba":12248,"ĠKOS":12249,"ĠVinc":12250,"ĠungefÃ¤hr":12251,"ĠZul":12252,"ppy":12253,"Ġmeat":12254,"ĠausfÃ¼hr":12255,"inken":12256,"ILF":12257,"ierende":12258,"Ġregime":12259,"Ġseeing":12260,"lieben":12261,"Ġtried":12262,"ĠKonz":12263,"Ġboot":12264,"Ġ2731":12265,"ĠSuite":12266,"ĠselbstverstÃ¤ndlich":12267,"HALTS":12268,"gewicht":12269,"ĠRevolution":12270,"ausschusses":12271,"ĠGestatten":12272,"ĠbefÃ¼rw":12273,"da":12274,"Ġade":12275,"ĠSad":12276,"edienst":12277,"Ġsectors":12278,"ĠVerstÃ¤nd":12279,"Ġnoisy":12280,"active":12281,"Ġwelcomed":12282,"Ġmachines":12283,"ĠKontext":12284,"Ġnunmehr":12285,"ĠShare":12286,"ÃĸN":12287,"Ġpersonally":12288,"versorgung":12289,"Ġbuildings":12290,"ĠArbeitsmarkt":12291,"Ġcharged":12292,"fÃ¤hig":12293,"ĠGraf":12294,"blatt":12295,"Ġdeposit":12296,"Ġlarger":12297,"ĠerhÃ¶ht":12298,"Ġillegal":12299,"Ġamazing":12300,"ĠEAST":12301,"ĠBah":12302,"ĠBEL":12303,"ĠFerr":12304,"ĠNummer":12305,"ĠOlli":12306,"Ġseat":12307,"ĠVergangen":12308,"Ġmiteinander":12309,"ANCE":12310,"ĠschÃ¼tzen":12311,"Ã¼nschen":12312,"ĠAusgabe":12313,"Ġspan":12314,"abelling":12315,"ĠFlÃ¤":12316,"ĠBedenken":12317,"ĠeuropÃ¤ischer":12318,"Ġflights":12319,"Ġsignal":12320,"Ġfunctions":12321,"Ġdiscussions":12322,"Ġdefinition":12323,"allel":12324,"Ġtypical":12325,"ĠNorthern":12326,"Website":12327,"ĠKolleginnen":12328,"ĠWirklichkeit":12329,"ĠÃĦgyp":12330,"inations":12331,"Ġsights":12332,"arma":12333,"rot":12334,"llor":12335,"ungal":12336,"ĠLEG":12337,"iessen":12338,"ĠObst":12339,"ĠJames":12340,"ĠWechsel":12341,"ENN":12342,"Ġzuvor":12343,"Ġweap":12344,"Ġrenew":12345,"haltet":12346,"Ġspoken":12347,"ĠUnternehmer":12348,"Ġsolcher":12349,"Ġtransition":12350,"ĠgewÃ¤hlt":12351,"Ġbegann":12352,"ĠFreude":12353,"Ġpassed":12354,"ĠPalest":12355,"Ġevidence":12356,"IMA":12357,"Ġentsprechend":12358,"Ġtesting":12359,"ĠCHF":12360,"Ġhistorical":12361,"minute":12362,"ĠWÃ¤hrend":12363,"Ġbilden":12364,"ĠMexico":12365,"ĠWolfgang":12366,"Ġremoved":12367,"Ġcomponents":12368,"brechung":12369,"Ġowner":12370,"ZUSAMMENARBEIT":12371,"gte":12372,"ruption":12373,"rown":12374,"Ġcastle":12375,"ĠFast":12376,"ĠCR":12377,"ĠInfo":12378,"Ġonto":12379,"ureau":12380,"Ġsoft":12381,"ĠEinwohner":12382,"iov":12383,"ĠBerichtig":12384,"Ġ81":12385,"gebiete":12386,"ĠExchange":12387,"Ġpropose":12388,"Ġlooked":12389,"ĠFreedom":12390,"Ġreduce":12391,"Ġmarg":12392,"Ġdestroy":12393,"Ġguaranteed":12394,"Ġdevices":12395,"Ġcreating":12396,"ĠVeranstaltung":12397,"ĠStadtz":12398,"ĠHonourable":12399,"ĠOriginal":12400,"ĠVereinfachung":12401,"Ġafternoon":12402,"Ġtobacco":12403,"400":12404,"664":12405,"Haus":12406,"itze":12407,"ĠMach":12408,"urm":12409,"ĠBran":12410,"ĠKDE":12411,"tail":12412,"ĠAnder":12413,"ĠAnders":12414,"ENSCH":12415,"endar":12416,"grenzen":12417,"ĠEinheit":12418,"ĠAuffassung":12419,"prinzip":12420,"ĠEntdecken":12421,"ĠAdv":12422,"ĠDatenbank":12423,"Ġfavor":12424,"ĠMEMBER":12425,"ĠFINANZ":12426,"vorschlag":12427,"ĠComple":12428,"Ġstrongly":12429,"Ġcharacters":12430,"Ġentwickeln":12431,"ĠErnst":12432,"Ġadministration":12433,"Ġencourage":12434,"ĠURL":12435,"Ã¤ssig":12436,"Ġcauses":12437,"curement":12438,"organisation":12439,"schlÃ¼sselung":12440,"410":12441,"]]":12442,"bindung":12443,"ellen":12444,"Ġic":12445,"isms":12446,"Ġfle":12447,"ĠEP":12448,"ĠEarth":12449,"ĠMini":12450,"ĠWild":12451,"ĠWÃ¼nsche":12452,"ĠnÃ¤here":12453,"ĠFÃ¶rder":12454,"Ġvideos":12455,"eler":12456,"ĠRand":12457,"ĠLÃ¶":12458,"forcement":12459,"add":12460,"Ġsprach":12461,"Ġhierbei":12462,"Ġgenu":12463,"gebnis":12464,"ĠRegister":12465,"ICATIONS":12466,"ĠManager":12467,"ĠgerÃ¤um":12468,"ĠFalls":12469,"Ġpowerful":12470,"Ġpattern":12471,"ĠGeorgios":12472,"Ġarchitect":12473,"HOF":12474,"Ġakzeptiert":12475,"teuerung":12476,"ĠTickets":12477,"Ġjeweils":12478,"Ġhouses":12479,"ĠOmbudsman":12480,"ĠKrisen":12481,"Reg":12482,"kanzler":12483,"ĠSAP":12484,"Ġtheme":12485,"Ġcart":12486,"ĠPact":12487,"Ġanc":12488,"ĠHaltung":12489,"ĠRight":12490,"ĠKer":12491,"Ġbeob":12492,"Ġstructural":12493,"Ġverpflich":12494,"usse":12495,"spunkt":12496,"avor":12497,"ĠAusbau":12498,"ĠLevel":12499,"ĠGener":12500,"ĠConstitution":12501,"ĠFrÃ¼here":12502,"Ġfeeling":12503,"Ġschneller":12504,"Ġteilnehmen":12505,"bahnhof":12506,"Ġgovernance":12507,"ĠWiederaufnahme":12508,"ĠVergangenheit":12509,"PI":12510,"ĠÃ¤l":12511,"ĠSar":12512,"ĠTiron":12513,"Ġbreit":12514,"ĠDor":12515,"ĠGRA":12516,"ĠKontroll":12517,"Ġbeispiel":12518,"ĠVict":12519,"ĠLager":12520,"hrt":12521,"tenance":12522,"Ġunemployment":12523,"ĠZusch":12524,"anne":12525,"losen":12526,"ervation":12527,"ĠFeed":12528,"rows":12529,"Ġstrict":12530,"Ġlaut":12531,"ĠMonitor":12532,"ĠPhotos":12533,"rench":12534,"ĠStellvertretender":12535,"Ġshortly":12536,"Ġverlassen":12537,"Ġcontrad":12538,"ĠAgrarpolitik":12539,"Ġdauern":12540,"ĠAlbania":12541,"Ġfailure":12542,"ĠSerbien":12543,"Ġcriticism":12544,"ĠDefinition":12545,"ĠMunich":12546,"ĠTironi":12547,"CZ":12548,"Hotel":12549,"NS":12550,"fleisch":12551,"uit":12552,"uens":12553,"uled":12554,"Ġdining":12555,"orter":12556,"ĠTown":12557,"ĠFRA":12558,"Ã¤fen":12559,"Ġbeige":12560,"ĠLight":12561,"Ã¶ss":12562,"cell":12563,"Ġdein":12564,"ĠSeveral":12565,"ĠNeuer":12566,"Ġsubstances":12567,"hafte":12568,"Ġ[[":12569,"Ġadopt":12570,"ĠUrspr":12571,"tables":12572,"Ġgebracht":12573,"Ġimproving":12574,"ĠDaniel":12575,"ĠDomin":12576,"ĠSTATE":12577,"ĠCopenhagen":12578,"Ġresolved":12579,"klusive":12580,"ĠBadezimmer":12581,"Ġlaunched":12582,"bhafter":12583,"Ġdankbar":12584,"ĠBrasilien":12585,"PR":12586,"TZ":12587,"kurs":12588,"Ġagencies":12589,"lege":12590,"Ġparliament":12591,"Ġearth":12592,"ĠFal":12593,"star":12594,"Ġkontroll":12595,"deckt":12596,"ĠJÃ¼r":12597,"anning":12598,"ivier":12599,"Ġshuttle":12600,"Ġlegen":12601,"Ġusual":12602,"meister":12603,"Ġcompla":12604,"Ġspect":12605,"ĠPolize":12606,"Ġrelation":12607,"Ġgelungen":12608,"ĠBox":12609,"orny":12610,"amerika":12611,"Ġbright":12612,"Ġmedical":12613,"Ġtopics":12614,"cluding":12615,"ĠSheet":12616,"ĠCurrently":12617,"Ġdeutsche":12618,"ĠGeorgia":12619,"ĠpersÃ¶nlichen":12620,"Ġattack":12621,"Ġattached":12622,"ĠBudapest":12623,"Ġdisease":12624,"ĠIntroduction":12625,"ĠMARGINS":12626,"Ġkorrig":12627,"GB":12628,"pite":12629,"rt":12630,"chst":12631,"orama":12632,"ĠMary":12633,"ĠMerk":12634,"ĠWiders":12635,"lls":12636,"Ġbeant":12637,"Ġeiniges":12638,"Ġkulture":12639,"Ġstolz":12640,"grenz":12641,"Ġappointed":12642,"Ġnochmals":12643,"Ġcoordination":12644,"ECU":12645,"Ġgrat":12646,"ETT":12647,"Ġassist":12648,"ĠFinanzierungs":12649,"ĠNatas":12650,"ĠLatin":12651,"management":12652,"ĠgrÃ¶ÃŁere":12653,"TINI":12654,"Ġattractions":12655,"Ġallgemeine":12656,"ĠTaxation":12657,"Ġestate":12658,"ĠENTWICKLUNG":12659,"Ġentsprechende":12660,"Ġkeinerlei":12661,"Englisch":12662,"LARG":12663,"ĠBreakdown":12664,"French":12665,"riers":12666,"zne":12667,"enne":12668,"Ġminister":12669,"lehen":12670,"ĠprÃ¤":12671,"ĠHD":12672,"Ġglobale":12673,"ĠNav":12674,"tagen":12675,"ĠJob":12676,"ĠAnlagen":12677,"ĠHerring":12678,"ĠFord":12679,"OMS":12680,"Ġsolve":12681,"handels":12682,"ĠGesam":12683,"ĠWorum":12684,"Ġconsiderable":12685,"missionen":12686,"Ġmembership":12687,"ĠPlaya":12688,"ĠMarken":12689,"ĠESF":12690,"ĠZustand":12691,"zifische":12692,"Ġemergency":12693,"Ġexperienced":12694,"ĠGeneralsekretÃ¤r":12695,"ĠSchlafzimmer":12696,"Ġsinnvoll":12697,"ĠMwSt":12698,"far":12699,"fred":12700,"iop":12701,"uters":12702,"Ġspp":12703,"Ġmix":12704,"ĠEss":12705,"Ġnavigation":12706,"ĠPflanzen":12707,"ĠBang":12708,"Ġunmittel":12709,"Ġwirk":12710,"erse":12711,"Ġpros":12712,"Ġerh":12713,"ĠErde":12714,"Ġlehnt":12715,"Ġworry":12716,"austausch":12717,"barer":12718,"streng":12719,"ilton":12720,"ĠGrundsatz":12721,"ĠFinanzmittel":12722,"Ġfactors":12723,"!!!!":12724,"ĠGrÃ¼nbuch":12725,"what":12726,"Ġgeehrte":12727,"ĠFernse":12728,"ĠArbeitsplan":12729,"Ġillustr":12730,"ĠLooking":12731,"ĠBerufs":12732,"ĠKabeljau":12733,"ĠAlexandre":12734,"ĠENTWICKLUNGSZUSAMMENARBEIT":12735,"eib":12736,"hou":12737,"nummer":12738,"yt":12739,"Ġdah":12740,"Ġful":12741,"ĠTER":12742,"ĠWomen":12743,"ĠPAL":12744,"rap":12745,"ĠNE":12746,"ĠJord":12747,"Ġrock":12748,"izing":12749,"Ġregards":12750,"Ã¤lfte":12751,"ĠAsien":12752,"Ġoverview":12753,"Ġcourt":12754,"ĠPatent":12755,"ĠAvailable":12756,"Ġsugar":12757,"Ġcolleagues":12758,"ĠGlobalisierung":12759,"Ã¤mt":12760,"ĠvollstÃ¤ndigen":12761,"ĠTatsache":12762,"Ġbeantwortet":12763,"Ġdecorated":12764,"ĠImproving":12765,"Ġnumerous":12766,"ĠMIDD":12767,"ĠVERBRAUCH":12768,"ĠPosselt":12769,"ĠRoger":12770,"ĠERSUCHT":12771,"Ġice":12772,"Ġaff":12773,"Ġtag":12774,"Ġtran":12775,"Ġsem":12776,"itag":12777,"ĠAch":12778,"ĠEdition":12779,"ĠEAG":12780,"ĠWC":12781,"ĠWies":12782,"uses":12783,"urlaub":12784,"Ġvary":12785,"ĠHig":12786,"ĠSebast":12787,"ĠSonne":12788,"Ġkostenfrei":12789,"PLAN":12790,"Ġinteressant":12791,"Ġcommitments":12792,"ĠWordPress":12793,"drÃ¼cklich":12794,"ĠberÃ¼cksichtigt":12795,"Ġclaim":12796,"ĠSometimes":12797,"Bericht":12798,"preneurs":12799,"546":12800,"Loud":12801,"fare":12802,"rum":12803,"ĠSM":12804,"ĠIll":12805,"Ġinbegriffen":12806,"ĠMIL":12807,"ĠJer":12808,"ifth":12809,"Ġnein":12810,"Ġju":12811,"Ġenth":12812,"Ġteuer":12813,"ĠMarco":12814,"hai":12815,"Ġhelps":12816,"ĠBetten":12817,"Ġelectronic":12818,"ĠUpd":12819,"Ġreturned":12820,"Ġverstehe":12821,"ĠClosure":12822,"ĠExperience":12823,"Ġfinish":12824,"ĠEastern":12825,"ĠzugÃ¤nglich":12826,"Ġextension":12827,"ĠPrague":12828,"pendence":12829,"ĠERWEIT":12830,"ĠÃĦgypten":12831,"Bel":12832,"CS":12833,"irol":12834,"wie":12835,"Ġq":12836,"itten":12837,"ĠDich":12838,"ĠWare":12839,"Ġhundred":12840,"entwurf":12841,"ĠCru":12842,"ĠKnow":12843,"ĠVotes":12844,"ĠNEW":12845,"eitern":12846,"ierend":12847,"ĠOt":12848,"deck":12849,"otechn":12850,"ĠerlÃ¤":12851,"ĠVerwenden":12852,"TIK":12853,"ĠVorteil":12854,"Ġprize":12855,"pty":12856,"Ġoutput":12857,"itzt":12858,"ĠHering":12859,"ĠENLARG":12860,"ĠGrundsÃ¤tze":12861,"azz":12862,"Ġprocessing":12863,"Ġvoller":12864,"Ġcolours":12865,"ĠFahrt":12866,"Ġentered":12867,"Ġvehicle":12868,"ĠGiul":12869,"ĠKirche":12870,"Ġrepeat":12871,"ĠMethode":12872,"Ġverantwortlich":12873,"ĠFORSCHUNG":12874,"UMER":12875,"YN":12876,"ĠSERV":12877,"Ġbreat":12878,"ĠAcht":12879,"lev":12880,"struct":12881,"ĠRiver":12882,"acher":12883,"ĠWeek":12884,"ENZ":12885,"ĠSchatz":12886,"Ġentertain":12887,"Ġupgrade":12888,"ĠStability":12889,"Ġreliable":12890,"ĠStef":12891,"hÃ¤ltnis":12892,"RIES":12893,"gewÃ¶hn":12894,"Ġinformiert":12895,"UBLIC":12896,"ĠOverall":12897,"ĠApost":12898,"freiheit":12899,"ĠStrukturfonds":12900,"Ġdistributed":12901,"ĠGeneraldirektion":12902,"PC":12903,"bc":12904,"zunge":12905,"ĠDR":12906,"ĠDutch":12907,"Ġinzwischen":12908,"ĠBib":12909,"llos":12910,"ĠbemÃ¼":12911,"illing":12912,"Ġreserve":12913,"erves":12914,"Ġspezielle":12915,"Ġtrag":12916,"wood":12917,"REEV":12918,"Ġdrinks":12919,"Ġspeakers":12920,"schluÃŁ":12921,"Ġhardly":12922,"ĠGemeinsamen":12923,"betrag":12924,"Ġconditioning":12925,"Ġdomain":12926,"ugoslaw":12927,"ĠMaschinen":12928,"ĠSchwierigkeiten":12929,"Vb":12930,"ĠSzen":12931,"ĠSquare":12932,"Ġmas":12933,"Ġeffizient":12934,"imated":12935,"ĠKÃ¼nst":12936,"ĠKontakte":12937,"gence":12938,"ĠRegen":12939,"ubs":12940,"iveau":12941,"ĠGef":12942,"Ġ900":12943,"ĠChile":12944,"ĠSole":12945,"ATTINI":12946,"ĠÃľbereinkommen":12947,"Ġfinance":12948,"Ġweitergehen":12949,"ĠResumption":12950,"ĠKonto":12951,"ĠTeilen":12952,"ĠChris":12953,"ĠSCHW":12954,"Ġprivacy":12955,"1995":12956,"ĠhumanitÃ¤re":12957,"ĠRechnung":12958,"Ġimmediate":12959,"Ġobviously":12960,"ĠVerÃ¤nderung":12961,"politische":12962,"Ġrubber":12963,"ns":12964,"nor":12965,"ror":12966,"Ġtab":12967,"Ġdet":12968,"ĠTaus":12969,"ĠTRE":12970,"roup":12971,"ĠWetter":12972,"ĠWRITTEN":12973,"ĠPin":12974,"ĠFrit":12975,"ĠRay":12976,"ĠZOLL":12977,"ĠJoin":12978,"Ġride":12979,"Ġentt":12980,"ĠStav":12981,"Ġfees":12982,"ĠMade":12983,"ĠConf":12984,"usammenarbeit":12985,"Ġfreie":12986,"ĠRock":12987,"Ġmarketing":12988,"ĠUrban":12989,"ĠLaden":12990,"Ġsigns":12991,"ĠVorschlags":12992,"stood":12993,"ĠErwachsen":12994,"aktiv":12995,"ĠEGF":12996,"Ġfinanzielle":12997,"operations":12998,"iplomat":12999,"ĠbestÃ¤tigt":13000,"Ġsanctions":13001,"Ġburden":13002,"FranzÃ¶sisch":13003,"REEVY":13004,"GS":13005,"Gruppe":13006,"gos":13007,"pension":13008,"erung":13009,"ĠTief":13010,"Ġbike":13011,"ĠDach":13012,"ĠWalk":13013,"Ġneither":13014,"ĠPen":13015,"icts":13016,"Ġzerst":13017,"ĠAnalyse":13018,"Ġstations":13019,"lager":13020,"okko":13021,"ĠBeaut":13022,"Ġusw":13023,"ĠentfÃ¤llt":13024,"Ġmanual":13025,"Ġfehlen":13026,"gelassen":13027,"ĠConsequently":13028,"ĠâĤ¬.":13029,"Ġdrugs":13030,"Ġempf":13031,"Ġorders":13032,"ĠGuide":13033,"Ġfloors":13034,"ĠIndustrial":13035,"Ġkinds":13036,"ĠAmerika":13037,"SCHE":13038,"alender":13039,"ĠKapaz":13040,"ĠFRATTINI":13041,"ĠInseln":13042,"ĠArgument":13043,"ĠStockholm":13044,"ĠLamy":13045,"Ġrenovated":13046,"Ġsuperv":13047,"ĠPascal":13048,"Ġabstained":13049,"Ġdescribed":13050,"ĠTelekommunikation":13051,"Ġsubsidiarity":13052,"535":13053,"Co":13054,"ITE":13055,"pap":13056,"villa":13057,"oni":13058,"reche":13059,"teen":13060,"ingu":13061,"ĠHab":13062,"ĠGolden":13063,"ĠKlaus":13064,"ĠNACH":13065,"ĠAnstreng":13066,"ktors":13067,"fficking":13068,"endung":13069,"Ġrank":13070,"ĠErwar":13071,"ĠDevelop":13072,"Ġgoals":13073,"Ġvorbereit":13074,"Ġspent":13075,"Ġ94":13076,"liness":13077,"ĠExpl":13078,"Ġsubstant":13079,"ĠEntlast":13080,"Ġvisited":13081,"Ġdriver":13082,"ĠSTABIL":13083,"Ġkonkret":13084,"RIFT":13085,"Ġverboten":13086,"ĠGetrÃ¤n":13087,"viously":13088,"ĠHauptstadt":13089,"Ġmultiple":13090,"Ġnegoti":13091,"ĠFerner":13092,"Ġvolume":13093,"ĠAnmerkung":13094,"ĠstÃ¤rker":13095,"ĠBosnia":13096,"ĠERWEITERUNG":13097,"Nr":13098,"masch":13099,"pot":13100,"ĠMuch":13101,"Ġhum":13102,"ĠBall":13103,"ĠBET":13104,"Ġlunch":13105,"ktions":13106,"Ġalthough":13107,"ĠSchon":13108,"ĠErhÃ¶":13109,"acks":13110,"Ġ78":13111,"Ġ83":13112,"ĠUNTER":13113,"ĠAdj":13114,"ĠQuite":13115,"ICHEL":13116,"Ã¼hm":13117,"Ġideale":13118,"ĠKlasse":13119,"Ã¤tzliche":13120,"Ġreferr":13121,"undesminister":13122,"leiten":13123,"Ġlaws":13124,"faÃŁt":13125,"Ġdealing":13126,"Ġnoted":13127,"leistungs":13128,"ĠTACs":13129,"Ġbestimmten":13130,"Ġadministrative":13131,"ĠDoppelzimmer":13132,"ĠENLARGEMENT":13133,"HL":13134,"Pal":13135,"border":13136,"hard":13137,"vere":13138,"Ġbattle":13139,"ĠEvent":13140,"Ġgallery":13141,"ĠRam":13142,"ĠGER":13143,"ĠGame":13144,"Ġbewegen":13145,"Ġlibr":13146,"ĠNOT":13147,"Ġverur":13148,"quote":13149,"ression":13150,"allas":13151,"Ġeverywhere":13152,"ĠZucker":13153,"cohol":13154,"ĠPROTEC":13155,"Ġempfohlen":13156,"ĠPhys":13157,"Ġstars":13158,"ĠKrim":13159,"mitglied":13160,"Ġfilled":13161,"AHR":13162,"ĠTurk":13163,"Ġlogo":13164,"ĠKapitel":13165,"ĠauÃŁerhalb":13166,"ĠINDUST":13167,"ĠAUDIT":13168,"ĠJahrhundert":13169,"ĠAutobahn":13170,"ĠStadtzentrum":13171,"596":13172,"kat":13173,"mo":13174,"itter":13175,"roll":13176,"ĠPakete":13177,"ĠCUST":13178,"Ġbeha":13179,"ĠVel":13180,"Ġforth":13181,"Ġforgot":13182,"Ġunion":13183,"ĠAnhÃ¶r":13184,"Ġgefragt":13185,"Ġasyl":13186,"beauftrag":13187,"tellungen":13188,"plÃ¤ne":13189,"Ġobtain":13190,"ĠWeltw":13191,"ĠhinzufÃ¼gen":13192,"Ġpassieren":13193,"Ġmini":13194,"ĠNotwend":13195,"ĠChristmas":13196,"Ġopens":13197,"reitet":13198,"Ġtaxation":13199,"ĠProfessional":13200,"Ġsounds":13201,"Ġschools":13202,"Ġexplanation":13203,"Ġelektron":13204,"ĠDusche":13205,"Ġslightly":13206,"ĠINSTITUTION":13207,"Ġfulfil":13208,"ĠMIDDLE":13209,"BC":13210,"TRA":13211,"Vers":13212,"itim":13213,"Ġcuis":13214,"Ġthresh":13215,"ĠKm":13216,"ĠNG":13217,"Ã¶ger":13218,"Ġdefe":13219,"Ġwilling":13220,"Ġ350":13221,"hton":13222,"ROP":13223,"ĠSprach":13224,"auso":13225,"Ã¤ndler":13226,"Ġpred":13227,"enzial":13228,"Ġinsurance":13229,"Ġsmaller":13230,"Ġsurvey":13231,"Ġperspective":13232,"Ġcolumn":13233,"ĠPalma":13234,"ĠPatr":13235,"ĠMorocco":13236,"Ġbathrooms":13237,"Vertrag":13238,"Ġdamals":13239,"ĠBegrÃ¼ÃŁ":13240,"ĠberÃ¼cksichtigen":13241,"ĠDISCUSSED":13242,"Ġasylum":13243,"Ġthreshold":13244,"verein":13245,"Ġsorg":13246,"atures":13247,"ĠSterne":13248,"ĠAge":13249,"Ġmigration":13250,"imp":13251,"ĠRun":13252,"ilde":13253,"etheless":13254,"ĠKontrollen":13255,"Ġlatter":13256,"idden":13257,"schrift":13258,"abet":13259,"verlÃ¤ss":13260,"Ġnotes":13261,"Ġdesired":13262,"ĠFrÃ¼":13263,"Ġcloser":13264,"problem":13265,"ĠPlus":13266,"ĠWelchen":13267,"ĠFehl":13268,"ĠHerbst":13269,"condition":13270,"Ġgering":13271,"Ġcleaning":13272,"Ġoptimal":13273,"Ġregionale":13274,"ĠGleiche":13275,"Ġdennoch":13276,"quiry":13277,"ĠACTION":13278,"ĠBerichterstatterin":13279,"Ġehrgeiz":13280,"ĠGeneralsekretariat":13281,"lebnis":13282,"Richtlinie":13283,"Ġcircumstances":13284,"ĠERKLÃĦRUNG":13285,"ĠPROTECTION":13286,"raten":13287,"ĠSi":13288,"ĠVision":13289,"bergen":13290,"dex":13291,"Ġdealt":13292,"new":13293,"Ġstable":13294,"ĠAlliance":13295,"glichen":13296,"Ġeverybody":13297,"Ġzweit":13298,"ĠGeschmack":13299,"ĠRoberto":13300,"Ġdifferences":13301,"ĠWortlaut":13302,"Ġkleines":13303,"Ġpresidency":13304,"ĠMarketing":13305,"Ġunderstanding":13306,"Ġinformieren":13307,"ĠFinden":13308,"ĠfranzÃ¶s":13309,"ĠVerwaltungsbehÃ¶rde":13310,"ĠSyria":13311,"Ġdiskutiert":13312,"ĠSorgen":13313,"ĠInstitute":13314,"lÃ¶sung":13315,"igitale":13316,"Ġinhabit":13317,"zneim":13318,"ĠCUSTOMS":13319,"GLI":13320,"gast":13321,"Ġdischarge":13322,"anlagen":13323,"ĠSAN":13324,"ĠMAN":13325,"ĠBurg":13326,"ĠFitness":13327,"ĠCab":13328,"ĠCond":13329,"stance":13330,"ĠGa":13331,"ĠGUCHT":13332,"utr":13333,"issens":13334,"uchs":13335,"ĠReaktion":13336,"ĠBewer":13337,"Ġled":13338,"Ġentre":13339,"Ġwarning":13340,"Ã¼nden":13341,"ĠNeed":13342,"Ġdisabled":13343,"ĠPolack":13344,"Ġausgezeichnet":13345,"Ġfrage":13346,"Ġsummary":13347,"Ġfourth":13348,"Ġbalanced":13349,"ĠWÃ¤hrung":13350,"Ġdiskutieren":13351,"Ġmemory":13352,"ĠTarifa":13353,"Ġnachstehenden":13354,"ĠAUSWÃĦR":13355,"ĠFacebook":13356,"ĠMilliarden":13357,"afrika":13358,"kur":13359,"water":13360,"Ġaxis":13361,"reck":13362,"reffen":13363,"ĠSier":13364,"ĠDur":13365,"ĠEb":13366,"ĠMur":13367,"ĠFER":13368,"ĠCast":13369,"igible":13370,"stab":13371,"Ġbemer":13372,"ĠAnmeldung":13373,"formular":13374,"Ġweist":13375,"quid":13376,"zehn":13377,"Ġrob":13378,"Ġupload":13379,"Ġdebates":13380,"ĠAusstellung":13381,"ĠExplan":13382,"Ġsomewhat":13383,"ĠÃľbersetz":13384,"Ġgewiss":13385,"ĠnatÃ¼r":13386,"ĠTechnik":13387,"ĠSCHRIFT":13388,"tagung":13389,"Ġhealthy":13390,"ĠEWR":13391,"ĠVerbesserungen":13392,"ĠOptim":13393,"ĠSamstag":13394,"ĠBonus":13395,"ĠREGION":13396,"Ġherrscht":13397,"ĠGarantie":13398,"ĠGlÃ¼ckwunsch":13399,"ĠECOFIN":13400,"Ġavailability":13401,"FI":13402,"La":13403,"sicherheit":13404,"uert":13405,"ente":13406,"Ġacts":13407,"Ġagency":13408,"Ġbat":13409,"oler":13410,"Ġkamen":13411,"Ġumge":13412,"ISE":13413,"igned":13414,"Ġcompatible":13415,"retary":13416,"ĠUnterbrechung":13417,"riff":13418,"207":13419,"ĠXP":13420,"ĠVerbot":13421,"orgnis":13422,"ĠApple":13423,"itorial":13424,"Ġbeschlossen":13425,"IKATION":13426,"Ġhimself":13427,"Ġstrategic":13428,"ĠArbeitspro":13429,"ĠfÃ¼llen":13430,"ĠInfrastructure":13431,"ĠBosnien":13432,"Ġheavy":13433,"ĠVerstÃ¤ndnis":13434,"Fort":13435,"gg":13436,"oral":13437,"ĠESP":13438,"Ã¼p":13439,"ĠHÃ¤lfte":13440,"Ġbef":13441,"ĠAnforderungen":13442,"ĠVerk":13443,"ĠSchauen":13444,"Ġshape":13445,"Ġausges":13446,"acio":13447,"ĠÃľbersetzung":13448,"ĠProducts":13449,"zeichnen":13450,"ĠAktual":13451,"Ġcolors":13452,"ĠSerie":13453,"ĠKommun":13454,"Ġbesonderen":13455,"zÃ¼ge":13456,"ĠspÃ¤teren":13457,"Ġverdienen":13458,"ĠNetzwerk":13459,"ĠAlbum":13460,"ĠSyrien":13461,"angebote":13462,"ĠFunktionen":13463,"ĠCONSUMER":13464,"ĠMontag":13465,"Ġdedicated":13466,"ĠVorsitzender":13467,"entscheidung":13468,"ĠBewegung":13469,"zneimittel":13470,"LL":13471,"aue":13472,"Ġbrit":13473,"ĠGord":13474,"erseits":13475,"artig":13476,"iki":13477,"neter":13478,"ĠYOU":13479,"Ġsieben":13480,"avi":13481,"iertes":13482,"Ġbesucht":13483,"Ġfeet":13484,"phan":13485,"ĠOrte":13486,"ĠManchmal":13487,"Ġinstance":13488,"ĠSpielraum":13489,"ĠeingefÃ¼hrt":13490,"Ġspecifically":13491,"Ġidentified":13492,"Ġverkaufen":13493,"ĠDimitrij":13494,"COM":13495,"Ġtram":13496,"anim":13497,"Ġster":13498,"ĠTipp":13499,"ĠDollar":13500,"urious":13501,"ĠCup":13502,"ĠHoll":13503,"ĠGiov":13504,"ĠKinn":13505,"Ġforums":13506,"ĠAnreg":13507,"UNION":13508,"Ġchair":13509,"Ġschwar":13510,"ensus":13511,"Ġ86":13512,"Ġtex":13513,"Ġstaying":13514,"ĠUnterschiede":13515,"ĠGeneration":13516,"ĠAshton":13517,"162":13518,"ĠKeep":13519,"ĠErwart":13520,"ĠGewinn":13521,"ĠLocal":13522,"Ġsettings":13523,"ĠKommentar":13524,"ĠAbendessen":13525,"Ġsaved":13526,"ĠORGAN":13527,"ĠWandel":13528,"ĠTELEC":13529,"ĠCFSP":13530,"UE":13531,"can":13532,"det":13533,"Ġid":13534,"ati":13535,"Ġfalls":13536,"ĠTsch":13537,"ĠAst":13538,"Ġcab":13539,"ĠWander":13540,"Ġnett":13541,"Ġeight":13542,"ĠColl":13543,"ĠRUP":13544,"ĠLind":13545,"ĠLarge":13546,"ĠLIND":13547,"ema":13548,"ĠNationen":13549,"Ġverteilt":13550,"Ġjunge":13551,"ĠErholung":13552,"Ġleaves":13553,"CHEN":13554,"ĠSector":13555,"ĠForen":13556,"Ġvoraus":13557,"Ġ71":13558,"Ġspreche":13559,"Ġgeschrieben":13560,"Ġguard":13561,"Ġgespe":13562,"wirken":13563,"ĠResidence":13564,"selbe":13565,"ĠMonte":13566,"ĠFrequ":13567,"ĠFreitag":13568,"ĠSTATES":13569,"ĠParticip":13570,"Ġrealistic":13571,"ĠRECHN":13572,"ĠMittelpunkt":13573,"ĠParkplÃ¤tze":13574,"Ġstudies":13575,"Ġtaxes":13576,"ĠHelene":13577,"ĠBuilding":13578,"ĠMITGLI":13579,"ÃĦNDER":13580,"ĠWeiÃŁbuch":13581,"Ġdeliberation":13582,"ĠBILDT":13583,"Ġbeinhaltet":13584,"ĠFerienwohnung":13585,"Ġbeispielsweise":13586,"rates":13587,"Ġdro":13588,"ĠSIS":13589,"rox":13590,"lem":13591,"ĠBÃ¤":13592,"irs":13593,"etable":13594,"ĠKUK":13595,"ĠLobby":13596,"Ã¶der":13597,"aching":13598,"essa":13599,"Ġzuerst":13600,"ĠErnen":13601,"asty":13602,"Ġcancel":13603,"sec":13604,"ĠArm":13605,"Ġentstehen":13606,"gebracht":13607,"Ġtrial":13608,"Ġpolice":13609,"URG":13610,"Ġexperts":13611,"ĠTrend":13612,"ĠParking":13613,"ĠAfrican":13614,"ĠObjekt":13615,"Ġteilweise":13616,"ĠUniversitÃ¤t":13617,"ĠregelmÃ¤ÃŁig":13618,"Ġthousand":13619,"ĠendgÃ¼ltigen":13620,"ĠGASP":13621,"ĠGentoo":13622,"Ġcuisine":13623,".(":13624,"Just":13625,"Ġswitch":13626,"arische":13627,"ĠTAGUNG":13628,"ĠDritte":13629,"ĠMI":13630,"Ġnov":13631,"Ġnamed":13632,"ĠCAS":13633,"ĠHimm":13634,"uties":13635,"abilities":13636,"ulich":13637,"ĠZÃ¼r":13638,"Ġgefordert":13639,"pped":13640,"ĠReisen":13641,"Ġexports":13642,"ruh":13643,"Ġoutstanding":13644,"Ġoutdoor":13645,"Ġarms":13646,"ĠUmfang":13647,"ĠIndivid":13648,"Ġvisible":13649,"150":13650,"Ġsurprise":13651,"mittag":13652,"Ġhomepage":13653,"Ġvege":13654,"Ġgradu":13655,"Ġtelevision":13656,"Ġcombat":13657,"ĠKaffee":13658,"ĠAccession":13659,"Ġproperly":13660,"known":13661,"ĠHistor":13662,"ĠAtlantic":13663,"ĠKonflikt":13664,"ĠAppartement":13665,"ĠRUPEL":13666,"ĠRECHNUNGS":13667,"tate":13668,"ui":13669,"ĠEp":13670,"ĠWichtige":13671,"ĠBle":13672,"ĠRED":13673,"Ã¶se":13674,"annung":13675,"ĠForce":13676,"ĠEintrag":13677,"Ġstaat":13678,"werts":13679,"liegt":13680,"ĠEuros":13681,"ĠComposition":13682,"Ġaktuell":13683,"LAV":13684,"Ġtreated":13685,"ammt":13686,"ĠStaatssekretÃ¤rin":13687,"ĠFarb":13688,"ĠSimply":13689,"Ġopposed":13690,"ĠOstsee":13691,"Ġloved":13692,"LINK":13693,"ĠBYR":13694,"Ġpraktisch":13695,"ĠSingap":13696,"ĠBegrÃ¼ÃŁung":13697,"ĠAUSWÃĦRTIGE":13698,"198":13699,"PM":13700,"brauch":13701,"rats":13702,"uj":13703,"invest":13704,"Ġep":13705,"ĠBlock":13706,"Ġgift":13707,"Ġbezieht":13708,"ctic":13709,"genz":13710,"schlagen":13711,"ods":13712,"ĠVerz":13713,"aga":13714,"ĠBew":13715,"ĠBeob":13716,"Ġamer":13717,"iza":13718,"gramms":13719,"Ġgratis":13720,"Ġversucht":13721,"ĠStrength":13722,"Ġsurface":13723,"Ġoperate":13724,"ĠObama":13725,"cluded":13726,"Ġenterprises":13727,"ĠBasel":13728,"Ġdistrict":13729,"ĠRegionalpolitik":13730,"ĠITAL":13731,"ĠTaxi":13732,"ĠMEP":13733,"Ġmoderne":13734,"Ġfrequently":13735,"place":13736,"ĠTaiwan":13737,"ECH":13738,"FA":13739,"LING":13740,"greif":13741,"ĠSatz":13742,"ĠSymbol":13743,"arium":13744,"ĠAik":13745,"ĠWur":13746,"ĠHein":13747,"eline":13748,"station":13749,"utral":13750,"Ġ101":13751,"ĠÃ¼berzeugt":13752,"TIM":13753,"RORIS":13754,"Ġenlarge":13755,"ĠBrun":13756,"ĠAusland":13757,"EMinister":13758,"Ġserves":13759,"ĠConne":13760,"ATIONAL":13761,"ĠBeschwer":13762,"Ġincred":13763,"ĠDemo":13764,"ĠTechnologien":13765,"ĠRelated":13766,"Ġimprovements":13767,"484":13768,"Ġsafegu":13769,"ĠVORS":13770,"ĠDidier":13771,"Lebhafter":13772,"ĠFREE":13773,"Ġannounced":13774,"ĠOperationelles":13775,"NAHMEN":13776,"Ġcomplicated":13777,"ĠStoffe":13778,"Ġinfluence":13779,"rÃ¼stung":13780,"ĠECHO":13781,"Ġconfirmed":13782,"ĠAUDITORS":13783,"Form":13784,"NO":13785,"brit":13786,"cers":13787,"xelles":13788,"Ġsinc":13789,"ĠDres":13790,"ĠAGEN":13791,"Ġnom":13792,"Ġnieder":13793,"ĠPy":13794,"ĠFang":13795,"ĠLad":13796,"ĠLeiter":13797,"Ġkons":13798,"Ġkennt":13799,"ĠUser":13800,"ifies":13801,"Ġconclude":13802,"Ġrid":13803,"ĠÃ¼berras":13804,"ĠÃ¼berprÃ¼fen":13805,"ĠBezeichnung":13806,"iox":13807,"Ġ69":13808,"cons":13809,"ĠStay":13810,"gesetz":13811,"REICH":13812,"ĠTrayn":13813,"Ġcourage":13814,"istence":13815,"ĠAustrian":13816,"ĠSaison":13817,"ĠEmpfang":13818,"ĠRECH":13819,"Ġberaten":13820,"Ġamended":13821,"Ġnearly":13822,"while":13823,"Ġdeutschen":13824,"Ġpatent":13825,"Ã¤ufer":13826,"59258":13827,"Ġhervorheben":13828,"ĠLeistungs":13829,"Ġexciting":13830,"Ġsurrounding":13831,"ĠTELEK":13832,"ĠStavros":13833,"ĠErwartete":13834,"ĠRECHNUNGSHOF":13835,"ĠTraynor":13836,"Gu":13837,"IAL":13838,"System":13839,"hat":13840,"Ġdritten":13841,"tele":13842,"Ġought":13843,"ĠVar":13844,"Ã¶sen":13845,"schlossen":13846,"ĠJung":13847,"Ġprohib":13848,"Ġdeals":13849,"Ġmeals":13850,"antic":13851,"ĠEinkauf":13852,"Ġadults":13853,"enses":13854,"jection":13855,"ava":13856,"ĠMittag":13857,"Ġsolches":13858,"ĠÃľbersicht":13859,"Ġgrenz":13860,"ĠDoha":13861,"403":13862,"ĠGemÃ¼":13863,"Ġauth":13864,"ĠSitzungen":13865,"Ġresponsibilities":13866,"ĠLiter":13867,"ĠWachstums":13868,"Ġurgently":13869,"ĠBegriff":13870,"Ġmandate":13871,"ĠPRESIDEN":13872,"ĠBÃ¼rgern":13873,"Ġvermeiden":13874,"Ġinhabitants":13875,"ĠSierra":13876,"ĠKinnock":13877,"CP":13878,"NA":13879,"NIK":13880,"dis":13881,"list":13882,"zub":13883,"enkt":13884,"Ġsatellite":13885,"Ġcable":13886,"Ġvul":13887,"icians":13888,"ĠREH":13889,"ĠRichter":13890,"gende":13891,"Ġdeutsch":13892,"ĠVerstÃ¤r":13893,"ĠVertrie":13894,"Ġexcess":13895,"agentur":13896,"Ġiur":13897,"ĠChic":13898,"ĠMarina":13899,"Ġsuit":13900,"ĠMajor":13901,"ĠHaiti":13902,"ĠMonetary":13903,"Ã¼hrt":13904,"Ġacquis":13905,"Ġnatur":13906,"ĠPorto":13907,"Ġprocesses":13908,"ĠAutor":13909,"Ġsurv":13910,"weisungen":13911,"ĠQualitÃ¤ts":13912,"ĠStudien":13913,"Ġmensch":13914,"Ġcareful":13915,"Ġlearned":13916,"ĠKopenhagen":13917,"ĠerwÃ¤hnen":13918,"ĠKanada":13919,"Ġdisappoint":13920,"Ġignor":13921,"ĠBesonders":13922,"Ġberufliche":13923,"59667":13924,"PG":13925,"cap":13926,"inschaft":13927,"Ġsong":13928,"real":13929,"reff":13930,"Ġbist":13931,"Ġcry":13932,"Ġhospital":13933,"ĠBOT":13934,"ĠBessere":13935,"Ġbewe":13936,"Ġlounge":13937,"ĠVote":13938,"Ġye":13939,"ĠAnlass":13940,"Ġverwe":13941,"ĠErg":13942,"Ġlegt":13943,"ahrt":13944,"glicht":13945,"ĠMarokko":13946,"ĠRegierungs":13947,"ĠHandy":13948,"ĠInteress":13949,"ĠEnergien":13950,"Ġdirectory":13951,"ĠGebÃ¼hren":13952,"ĠGemeinschaften":13953,"ĠAktuelle":13954,"Ġorganisation":13955,"ĠKooperations":13956,"ĠTRANS":13957,"Ġsheet":13958,"ĠSchulz":13959,"ĠEbenso":13960,"ĠVerpack":13961,"ĠGeorgien":13962,"Ġdistin":13963,"ĠAKVIS":13964,"ĠSTEIN":13965,"Ġpreparation":13966,"ĠParteien":13967,"ĠBruxelles":13968,"ĠCOMMUNITY":13969,"ĠIoannis":13970,"RORISM":13971,"Euro":13972,"Ġtief":13973,"Ġmill":13974,"Ġmanner":13975,"ĠBath":13976,"ĠFine":13977,"ĠFalle":13978,"ĠHi":13979,"Ġrepl":13980,"quin":13981,"aker":13982,"ĠNeigh":13983,"useums":13984,"Ġaccur":13985,"ECD":13986,"Ġmusste":13987,"Ġotherwise":13988,"ĠAsk":13989,"ĠAmong":13990,"Ġremove":13991,"ĠKonsequ":13992,"Ġacqu":13993,"Ġordered":13994,"ĠBildungs":13995,"zahlungen":13996,"Ġverbind":13997,"Ġelev":13998,"1997":13999,"ĠRelig":14000,"Ġfamiliar":14001,"ĠBush":14002,"Ġbudgetary":14003,"Ġergreifen":14004,"ĠMAY":14005,"Ġsensitive":14006,"ĠLUX":14007,"Ġjeweil":14008,"Ġgespielt":14009,"Ġquotas":14010,"ĠSTRATEGY":14011,"Ġdegree":14012,"lÃ¤ndische":14013,"Ġapplicable":14014,"Ġbegrenzt":14015,"ĠVERBRAUCHER":14016,"DP":14017,"Federal":14018,"bor":14019,"kes":14020,"krie":14021,"ound":14022,"hein":14023,"Ġbird":14024,"ĠDIN":14025,"Ġmaster":14026,"ĠPir":14027,"Ġhart":14028,"Ġliter":14029,"ĠLodge":14030,"Ġfordert":14031,"aya":14032,"ĠSchle":14033,"ĠErleben":14034,"rÃ¤cht":14035,"ĠYugos":14036,"outique":14037,"Ã¤tigkeiten":14038,"Ġvorbe":14039,"ĠAustausch":14040,"ĠChat":14041,"Ġ125":14042,"RAUM":14043,"Ġprej":14044,"ĠPrepar":14045,"Ġmaintained":14046,"ĠGeschÃ¤ft":14047,"Ġmoral":14048,"ĠPortal":14049,"mittelt":14050,"ĠSafe":14051,"Ġverlangt":14052,"ivalent":14053,"ĠgrÃ¶ÃŁer":14054,"Ġbeauty":14055,"shops":14056,"rÃ¤nkungen":14057,"Ġempty":14058,"ĠLeistungen":14059,"Ġaccordingly":14060,"angebot":14061,"ĠNobody":14062,"Ġlandscape":14063,"ĠTibet":14064,"ĠFOLGEN":14065,"ĠSomalia":14066,"Net":14067,"SON":14068,"bÃ¼rger":14069,"cs":14070,"vy":14071,"ville":14072,"zusch":14073,"hem":14074,"ĠsÃ¼d":14075,"ĠWatch":14076,"Ġpun":14077,"ĠFuss":14078,"ĠlÃ¤ng":14079,"ifikation":14080,"Ġnehme":14081,"Ġdeserve":14082,"Ġdoors":14083,"Ġleid":14084,"acker":14085,"INEN":14086,"Ġroof":14087,"fÃ¼ll":14088,"ĠSof":14089,"Ġsuites":14090,"ĠPrize":14091,"ĠINTERN":14092,"Ġinterior":14093,"ĠPlat":14094,"Ġunderstood":14095,"ĠProdukten":14096,"Ġgeboten":14097,"Ġfacility":14098,"ĠJeden":14099,"ĠEltern":14100,"Ġdiscussing":14101,"ecretary":14102,"Ġsuspend":14103,"Ġirre":14104,"ikanen":14105,"Ġmerely":14106,"Ġholds":14107,"Ġsurrounded":14108,"ĠSOZIALPOLITIK":14109,"Ġbeteiligt":14110,"ĠGovernance":14111,"ĠObjective":14112,"ĠAnstrengungen":14113,"ĠTELEKOMMUN":14114,"Herr":14115,"Med":14116,"ektor":14117,"nt":14118,
[...]
